{
  "version": "1.0",
  "truncation": null,
  "padding": null,
  "added_tokens": [
    {
      "id": 0,
      "content": "[UNK]",
      "single_word": false,
      "lstrip": false,
      "rstrip": false,
      "normalized": false,
      "special": true
    },
    {
      "id": 1,
      "content": "[CLS]",
      "single_word": false,
      "lstrip": false,
      "rstrip": false,
      "normalized": false,
      "special": true
    },
    {
      "id": 2,
      "content": "[SEP]",
      "single_word": false,
      "lstrip": false,
      "rstrip": false,
      "normalized": false,
      "special": true
    },
    {
      "id": 3,
      "content": "[PAD]",
      "single_word": false,
      "lstrip": false,
      "rstrip": false,
      "normalized": false,
      "special": true
    },
    {
      "id": 4,
      "content": "[MASK]",
      "single_word": false,
      "lstrip": false,
      "rstrip": false,
      "normalized": false,
      "special": true
    }
  ],
  "normalizer": {
    "type": "Sequence",
    "normalizers": [
      {
        "type": "NFKC"
      },
      {
        "type": "Lowercase"
      }
    ]
  },
  "pre_tokenizer": {
    "type": "Sequence",
    "pretokenizers": [
      {
        "type": "Metaspace",
        "replacement": "▁",
        "add_prefix_space": true,
        "prepend_scheme": "always"
      },
      {
        "type": "Punctuation",
        "behavior": "Isolated"
      }
    ]
  },
  "post_processor": null,
  "decoder": {
    "type": "Metaspace",
    "replacement": "▁",
    "add_prefix_space": true,
    "prepend_scheme": "always"
  },
  "model": {
    "type": "BPE",
    "dropout": null,
    "unk_token": "[UNK]",
    "continuing_subword_prefix": null,
    "end_of_word_suffix": null,
    "fuse_unk": false,
    "byte_fallback": false,
    "vocab": {
      "[UNK]": 0,
      "[CLS]": 1,
      "[SEP]": 2,
      "[PAD]": 3,
      "[MASK]": 4,
      "!": 5,
      "\"": 6,
      "'": 7,
      ",": 8,
      "-": 9,
      ".": 10,
      "0": 11,
      "1": 12,
      "2": 13,
      "3": 14,
      "4": 15,
      "5": 16,
      "6": 17,
      "7": 18,
      "8": 19,
      "9": 20,
      "?": 21,
      "[": 22,
      "]": 23,
      "a": 24,
      "b": 25,
      "c": 26,
      "d": 27,
      "e": 28,
      "f": 29,
      "g": 30,
      "h": 31,
      "i": 32,
      "j": 33,
      "k": 34,
      "l": 35,
      "m": 36,
      "n": 37,
      "o": 38,
      "p": 39,
      "q": 40,
      "r": 41,
      "s": 42,
      "t": 43,
      "u": 44,
      "v": 45,
      "w": 46,
      "x": 47,
      "y": 48,
      "z": 49,
      "▁": 50,
      "▁t": 51,
      "▁th": 52,
      "▁a": 53,
      "▁i": 54,
      "▁w": 55,
      "ou": 56,
      "in": 57,
      "▁s": 58,
      "▁the": 59,
      "re": 60,
      "at": 61,
      "▁y": 62,
      "▁o": 63,
      "▁h": 64,
      "er": 65,
      "▁b": 66,
      "ing": 67,
      "nd": 68,
      "▁you": 69,
      "▁m": 70,
      "▁l": 71,
      "▁d": 72,
      "▁c": 73,
      "▁g": 74,
      "▁to": 75,
      "▁f": 76,
      "▁and": 77,
      "on": 78,
      "▁p": 79,
      "▁that": 80,
      "ll": 81,
      "▁it": 82,
      "en": 83,
      "an": 84,
      "st": 85,
      "ke": 86,
      "▁n": 87,
      "or": 88,
      "▁wh": 89,
      "▁li": 90,
      "ve": 91,
      "ow": 92,
      "▁in": 93,
      "▁be": 94,
      "▁of": 95,
      "se": 96,
      "ea": 97,
      "it": 98,
      "om": 99,
      "▁go": 100,
      "▁we": 101,
      "le": 102,
      "▁ha": 103,
      "is": 104,
      "ay": 105,
      "▁like": 106,
      "es": 107,
      "et": 108,
      "ed": 109,
      "▁is": 110,
      "as": 111,
      "ot": 112,
      "▁on": 113,
      "▁e": 114,
      "ut": 115,
      "ar": 116,
      "▁he": 117,
      "gh": 118,
      "▁j": 119,
      "▁k": 120,
      "al": 121,
      "▁re": 122,
      "ic": 123,
      "▁do": 124,
      "▁so": 125,
      "▁r": 126,
      "ver": 127,
      "▁they": 128,
      "id": 129,
      "um": 130,
      "out": 131,
      "▁was": 132,
      "▁this": 133,
      "ld": 134,
      "▁u": 135,
      "▁st": 136,
      "ber": 137,
      "all": 138,
      "▁yea": 139,
      "▁what": 140,
      "ght": 141,
      "ust": 142,
      "▁for": 143,
      "ion": 144,
      "▁sh": 145,
      "umber": 146,
      "▁but": 147,
      "▁have": 148,
      "ac": 149,
      "▁kn": 150,
      "ly": 151,
      "▁just": 152,
      "number": 153,
      "ent": 154,
      "▁know": 155,
      "op": 156,
      "ight": 157,
      "im": 158,
      "▁me": 159,
      "▁not": 160,
      "ith": 161,
      "am": 162,
      "▁yeah": 163,
      "od": 164,
      "ally": 165,
      "uc": 166,
      "▁an": 167,
      "▁with": 168,
      "▁there": 169,
      "▁your": 170,
      "ome": 171,
      "ould": 172,
      "au": 173,
      "▁ab": 174,
      "▁get": 175,
      "▁don": 176,
      "king": 177,
      "▁my": 178,
      "ir": 179,
      "▁are": 180,
      "th": 181,
      "▁going": 182,
      "ant": 183,
      "▁all": 184,
      "▁bec": 185,
      "▁can": 186,
      "ause": 187,
      "▁if": 188,
      "▁thin": 189,
      "▁lo": 190,
      "▁se": 191,
      "▁because": 192,
      "▁at": 193,
      "▁ne": 194,
      "▁about": 195,
      "▁pe": 196,
      "▁think": 197,
      "ad": 198,
      "▁right": 199,
      "ople": 200,
      "▁people": 201,
      "ri": 202,
      "ere": 203,
      "▁out": 204,
      "ch": 205,
      "very": 206,
      "ro": 207,
      "▁or": 208,
      "ct": 209,
      "ake": 210,
      "▁as": 211,
      "▁up": 212,
      "one": 213,
      "ill": 214,
      "▁mo": 215,
      "▁ch": 216,
      "▁one": 217,
      "▁thing": 218,
      "▁when": 219,
      "▁no": 220,
      "▁want": 221,
      "ce": 222,
      "ra": 223,
      "ter": 224,
      "pp": 225,
      "▁some": 226,
      "▁de": 227,
      "▁wor": 228,
      "ge": 229,
      "▁al": 230,
      "▁com": 231,
      "▁got": 232,
      "▁say": 233,
      "▁gu": 234,
      "▁how": 235,
      "▁then": 236,
      "our": 237,
      "ol": 238,
      "▁would": 239,
      "ive": 240,
      "ur": 241,
      "el": 242,
      "art": 243,
      "▁did": 244,
      "▁fr": 245,
      "▁tr": 246,
      "▁ex": 247,
      "ers": 248,
      "nt": 249,
      "▁who": 250,
      "ation": 251,
      "▁now": 252,
      "ff": 253,
      "▁pl": 254,
      "▁really": 255,
      "ate": 256,
      "▁con": 257,
      "ok": 258,
      "▁tim": 259,
      "ear": 260,
      "un": 261,
      "▁fuc": 262,
      "ack": 263,
      "ind": 264,
      "▁every": 265,
      "ab": 266,
      "▁had": 267,
      "▁sa": 268,
      "▁she": 269,
      "▁them": 270,
      "ig": 271,
      "eth": 272,
      "us": 273,
      "▁guy": 274,
      "ess": 275,
      "il": 276,
      "▁int": 277,
      "▁well": 278,
      "▁from": 279,
      "▁were": 280,
      "▁v": 281,
      "▁oh": 282,
      "ul": 283,
      "▁fe": 284,
      "ie": 285,
      "rou": 286,
      "▁pro": 287,
      "qu": 288,
      "▁any": 289,
      "ure": 290,
      "ose": 291,
      "ain": 292,
      "ame": 293,
      "▁time": 294,
      "ven": 295,
      "▁see": 296,
      "▁ok": 297,
      "▁good": 298,
      "and": 299,
      "▁co": 300,
      "▁way": 301,
      "▁year": 302,
      "▁man": 303,
      "▁sp": 304,
      "▁mean": 305,
      "▁where": 306,
      "▁make": 307,
      "▁te": 308,
      "▁som": 309,
      "ast": 310,
      "fe": 311,
      "▁here": 312,
      "ci": 313,
      "▁di": 314,
      "tt": 315,
      "ort": 316,
      "▁more": 317,
      "▁tal": 318,
      "ine": 319,
      "ud": 320,
      "▁back": 321,
      "▁him": 322,
      "are": 323,
      "▁po": 324,
      "ody": 325,
      "▁could": 326,
      "▁these": 327,
      "▁lot": 328,
      "▁off": 329,
      "ree": 330,
      "▁his": 331,
      "▁okay": 332,
      "▁been": 333,
      "ity": 334,
      "ous": 335,
      "▁ag": 336,
      "ething": 337,
      "▁something": 338,
      "ting": 339,
      "ss": 340,
      "ore": 341,
      "▁things": 342,
      "▁tw": 343,
      "ment": 344,
      "ving": 345,
      "reat": 346,
      "▁am": 347,
      "ep": 348,
      "own": 349,
      "way": 350,
      "▁fucking": 351,
      "lf": 352,
      "▁by": 353,
      "▁feel": 354,
      "▁let": 355,
      "uch": 356,
      "▁than": 357,
      "end": 358,
      "act": 359,
      "▁their": 360,
      "▁look": 361,
      "▁doing": 362,
      "▁qu": 363,
      "▁act": 364,
      "▁does": 365,
      "ong": 366,
      "▁our": 367,
      "ther": 368,
      "oney": 369,
      "▁us": 370,
      "▁jo": 371,
      "▁into": 372,
      "▁need": 373,
      "▁cl": 374,
      "▁happ": 375,
      "▁very": 376,
      "ble": 377,
      "ide": 378,
      "oth": 379,
      "▁show": 380,
      "▁take": 381,
      "ist": 382,
      "ked": 383,
      "▁even": 384,
      "▁other": 385,
      "▁bo": 386,
      "▁pre": 387,
      "▁has": 388,
      "▁start": 389,
      "▁said": 390,
      "▁her": 391,
      "ich": 392,
      "▁over": 393,
      "body": 394,
      "▁love": 395,
      "ect": 396,
      "▁money": 397,
      "ks": 398,
      "▁pr": 399,
      "▁why": 400,
      "▁those": 401,
      "ies": 402,
      "ttle": 403,
      "▁little": 404,
      "▁down": 405,
      "▁su": 406,
      "▁much": 407,
      "ag": 408,
      "▁will": 409,
      "ard": 410,
      "be": 411,
      "ip": 412,
      "thing": 413,
      "em": 414,
      "ually": 415,
      "▁day": 416,
      "sed": 417,
      "ick": 418,
      "ice": 419,
      "▁guys": 420,
      "▁life": 421,
      "▁two": 422,
      "age": 423,
      "ead": 424,
      "▁didn": 425,
      "so": 426,
      "ry": 427,
      "▁en": 428,
      "▁happen": 429,
      "▁ro": 430,
      "▁put": 431,
      "▁years": 432,
      "▁try": 433,
      "▁call": 434,
      "▁im": 435,
      "▁real": 436,
      "▁which": 437,
      "▁may": 438,
      "est": 439,
      "▁bu": 440,
      "▁fir": 441,
      "ace": 442,
      "red": 443,
      "▁ad": 444,
      "▁bet": 445,
      "▁play": 446,
      "ple": 447,
      "▁le": 448,
      "▁also": 449,
      "▁tell": 450,
      "▁first": 451,
      "eal": 452,
      "nder": 453,
      "per": 454,
      "▁kind": 455,
      "▁being": 456,
      "ite": 457,
      "ue": 458,
      "▁work": 459,
      "▁great": 460,
      "▁thou": 461,
      "▁un": 462,
      "iz": 463,
      "sh": 464,
      "▁part": 465,
      "▁diff": 466,
      "▁pers": 467,
      "if": 468,
      "▁new": 469,
      "self": 470,
      "▁yes": 471,
      "▁pay": 472,
      "round": 473,
      "▁actually": 474,
      "aking": 475,
      "▁too": 476,
      "pt": 477,
      "▁sc": 478,
      "ions": 479,
      "int": 480,
      "▁ke": 481,
      "▁big": 482,
      "▁should": 483,
      "▁ho": 484,
      "▁car": 485,
      "ck": 486,
      "▁bl": 487,
      "▁person": 488,
      "▁shit": 489,
      "▁give": 490,
      "▁never": 491,
      "ound": 492,
      "ang": 493,
      "▁saying": 494,
      "▁again": 495,
      "▁mon": 496,
      "ild": 497,
      "▁differe": 498,
      "▁come": 499,
      "▁stu": 500,
      "▁br": 501,
      "▁mar": 502,
      "▁per": 503,
      "▁ac": 504,
      "rough": 505,
      "atch": 506,
      "ount": 507,
      "ouse": 508,
      "▁through": 509,
      "ath": 510,
      "▁list": 511,
      "riend": 512,
      "ade": 513,
      "▁fo": 514,
      "other": 515,
      "▁maybe": 516,
      "ways": 517,
      "ans": 518,
      "▁af": 519,
      "▁lea": 520,
      "able": 521,
      "▁hear": 522,
      "▁only": 523,
      "ever": 524,
      "▁har": 525,
      "co": 526,
      "▁around": 527,
      "ence": 528,
      "▁fuck": 529,
      "▁kid": 530,
      "ning": 531,
      "ably": 532,
      "▁hel": 533,
      "▁under": 534,
      "▁house": 535,
      "▁hi": 536,
      "ap": 537,
      "▁still": 538,
      "▁cont": 539,
      "▁always": 540,
      "▁getting": 541,
      "ile": 542,
      "▁wr": 543,
      "▁ph": 544,
      "▁different": 545,
      "▁point": 546,
      "▁prob": 547,
      "▁talk": 548,
      "▁comp": 549,
      "▁talking": 550,
      "▁rem": 551,
      "xt": 552,
      "▁sure": 553,
      "▁three": 554,
      "▁listen": 555,
      "▁cra": 556,
      "▁help": 557,
      "▁probably": 558,
      "ire": 559,
      "ance": 560,
      "▁app": 561,
      "▁doesn": 562,
      "▁better": 563,
      "fore": 564,
      "▁fun": 565,
      "▁bit": 566,
      "▁rel": 567,
      "▁stuff": 568,
      "ory": 569,
      "▁live": 570,
      "wn": 571,
      "▁trying": 572,
      "▁deb": 573,
      "▁most": 574,
      "▁sit": 575,
      "▁friend": 576,
      "▁after": 577,
      "ious": 578,
      "▁month": 579,
      "eas": 580,
      "day": 581,
      "▁before": 582,
      "ia": 583,
      "▁ar": 584,
      "▁sm": 585,
      "▁id": 586,
      "▁inc": 587,
      "▁long": 588,
      "▁dr": 589,
      "▁many": 590,
      "▁fl": 591,
      "ating": 592,
      "ms": 593,
      "ach": 594,
      "ull": 595,
      "▁dis": 596,
      "os": 597,
      "▁everything": 598,
      "vers": 599,
      "cial": 600,
      "▁tea": 601,
      "ated": 602,
      "ily": 603,
      "▁em": 604,
      "▁someone": 605,
      "▁keep": 606,
      "▁hard": 607,
      "zy": 608,
      "▁quest": 609,
      "ird": 610,
      "ak": 611,
      "▁same": 612,
      "▁loo": 613,
      "▁world": 614,
      "▁whatever": 615,
      "▁exp": 616,
      "▁thought": 617,
      "orm": 618,
      "▁debt": 619,
      "▁find": 620,
      "▁done": 621,
      "ase": 622,
      "▁went": 623,
      "▁watch": 624,
      "row": 625,
      "▁god": 626,
      "ish": 627,
      "▁imp": 628,
      "▁old": 629,
      "▁ever": 630,
      "ether": 631,
      "ense": 632,
      "▁bel": 633,
      "ough": 634,
      "▁home": 635,
      "ass": 636,
      "ady": 637,
      "og": 638,
      "▁crazy": 639,
      "▁best": 640,
      "uck": 641,
      "▁res": 642,
      "ical": 643,
      "▁end": 644,
      "▁el": 645,
      "▁mom": 646,
      "▁bad": 647,
      "▁own": 648,
      "ix": 649,
      "ary": 650,
      "▁everybody": 651,
      "▁last": 652,
      "ult": 653,
      "▁anything": 654,
      "▁fin": 655,
      "▁hey": 656,
      "▁job": 657,
      "▁next": 658,
      "▁number": 659,
      "ically": 660,
      "▁care": 661,
      "▁game": 662,
      "ert": 663,
      "ful": 664,
      "▁comm": 665,
      "▁whole": 666,
      "▁ram": 667,
      "ves": 668,
      "sting": 669,
      "▁dec": 670,
      "rain": 671,
      "▁hu": 672,
      "▁fam": 673,
      "we": 674,
      "ember": 675,
      "ft": 676,
      "▁wee": 677,
      "hing": 678,
      "ude": 679,
      "vel": 680,
      "▁high": 681,
      "▁acc": 682,
      "ute": 683,
      "av": 684,
      "▁five": 685,
      "▁ins": 686,
      "▁intere": 687,
      "▁remember": 688,
      "▁made": 689,
      "ress": 690,
      "ater": 691,
      "▁cr": 692,
      "▁belie": 693,
      "az": 694,
      "▁might": 695,
      "▁min": 696,
      "ship": 697,
      "ange": 698,
      "▁proble": 699,
      "▁sch": 700,
      "ons": 701,
      "▁four": 702,
      "▁ter": 703,
      "▁having": 704,
      "ict": 705,
      "▁kids": 706,
      "ash": 707,
      "▁bre": 708,
      "▁bus": 709,
      "ord": 710,
      "▁che": 711,
      "na": 712,
      "▁yourself": 713,
      "▁op": 714,
      "urn": 715,
      "les": 716,
      "▁underst": 717,
      "ens": 718,
      "▁making": 719,
      "sey": 720,
      "▁another": 721,
      "▁use": 722,
      "▁question": 723,
      "▁head": 724,
      "▁ob": 725,
      "▁today": 726,
      "▁goes": 727,
      "▁cou": 728,
      "ible": 729,
      "▁thank": 730,
      "▁att": 731,
      "▁str": 732,
      "▁away": 733,
      "▁move": 734,
      "▁gir": 735,
      "▁fight": 736,
      "▁started": 737,
      "iss": 738,
      "▁looking": 739,
      "▁exact": 740,
      "▁tri": 741,
      "▁understand": 742,
      "ail": 743,
      "cess": 744,
      "▁book": 745,
      "▁place": 746,
      "▁mat": 747,
      "pe": 748,
      "cond": 749,
      "ost": 750,
      "▁free": 751,
      "ub": 752,
      "▁dude": 753,
      "ward": 754,
      "▁able": 755,
      "▁run": 756,
      "▁bro": 757,
      "▁wal": 758,
      "▁def": 759,
      "ual": 760,
      "▁stop": 761,
      "tty": 762,
      "▁ev": 763,
      "▁ear": 764,
      "▁sl": 765,
      "▁pretty": 766,
      "▁second": 767,
      "▁believe": 768,
      "iness": 769,
      "▁inter": 770,
      "ew": 771,
      "▁weird": 772,
      "▁coming": 773,
      "cast": 774,
      "▁reas": 775,
      "▁night": 776,
      "ign": 777,
      "ealth": 778,
      "ave": 779,
      "▁hand": 780,
      "▁ser": 781,
      "▁goal": 782,
      "ower": 783,
      "▁inst": 784,
      "▁fact": 785,
      "iv": 786,
      "ition": 787,
      "▁else": 788,
      "ses": 789,
      "▁wom": 790,
      "ts": 791,
      "▁win": 792,
      "ny": 793,
      "ump": 794,
      "▁though": 795,
      "▁wow": 796,
      "oc": 797,
      "ool": 798,
      "▁family": 799,
      "▁supp": 800,
      "▁exper": 801,
      "▁somebody": 802,
      "ors": 803,
      "▁pa": 804,
      "▁wanted": 805,
      "▁spe": 806,
      "odcast": 807,
      "▁hour": 808,
      "▁exactly": 809,
      "▁wasn": 810,
      "▁mill": 811,
      "▁ramsey": 812,
      "▁gr": 813,
      "▁problem": 814,
      "cent": 815,
      "▁makes": 816,
      "▁deal": 817,
      "▁z": 818,
      "▁buy": 819,
      "get": 820,
      "ren": 821,
      "▁relation": 822,
      "▁plan": 823,
      "▁girl": 824,
      "ax": 825,
      "▁kill": 826,
      "▁hum": 827,
      "ner": 828,
      "ize": 829,
      "▁times": 830,
      "▁idea": 831,
      "ations": 832,
      "▁amaz": 833,
      "▁gen": 834,
      "▁called": 835,
      "▁school": 836,
      "▁came": 837,
      "▁cor": 838,
      "▁cour": 839,
      "▁tog": 840,
      "ope": 841,
      "▁hit": 842,
      "vie": 843,
      "▁together": 844,
      "▁ent": 845,
      "▁des": 846,
      "te": 847,
      "▁podcast": 848,
      "▁relationship": 849,
      "wh": 850,
      "ote": 851,
      "▁med": 852,
      "▁friends": 853,
      "ces": 854,
      "▁mind": 855,
      "ys": 856,
      "▁lear": 857,
      "▁sy": 858,
      "▁thinking": 859,
      "▁working": 860,
      "▁wa": 861,
      "▁dri": 862,
      "ger": 863,
      "▁ea": 864,
      "▁set": 865,
      "▁story": 866,
      "▁comes": 867,
      "ian": 868,
      "sol": 869,
      "▁enough": 870,
      "ial": 871,
      "▁gets": 872,
      "▁gra": 873,
      "▁happened": 874,
      "ty": 875,
      "ates": 876,
      "▁read": 877,
      "ont": 878,
      "▁dad": 879,
      "ell": 880,
      "▁both": 881,
      "▁gi": 882,
      "ood": 883,
      "▁business": 884,
      "▁used": 885,
      "▁inve": 886,
      "▁stud": 887,
      "▁while": 888,
      "▁nothing": 889,
      "▁bab": 890,
      "▁bas": 891,
      "olog": 892,
      "▁team": 893,
      "arent": 894,
      "ream": 895,
      "▁says": 896,
      "pl": 897,
      "▁months": 898,
      "▁six": 899,
      "▁cons": 900,
      "▁open": 901,
      "▁pol": 902,
      "eric": 903,
      "▁couple": 904,
      "oy": 905,
      "▁fig": 906,
      "▁guess": 907,
      "▁reason": 908,
      "ug": 909,
      "▁liter": 910,
      "form": 911,
      "▁count": 912,
      "▁step": 913,
      "▁amazing": 914,
      "ents": 915,
      "ise": 916,
      "aw": 917,
      "▁left": 918,
      "▁child": 919,
      "▁bring": 920,
      "▁body": 921,
      "▁true": 922,
      "▁change": 923,
      "▁interesting": 924,
      "▁cool": 925,
      "▁aw": 926,
      "etim": 927,
      "▁myself": 928,
      "▁once": 929,
      "▁build": 930,
      "▁literally": 931,
      "▁wait": 932,
      "rect": 933,
      "▁tra": 934,
      "▁everyone": 935,
      "ib": 936,
      "▁break": 937,
      "▁stand": 938,
      "▁figure": 939,
      "▁vide": 940,
      "▁turn": 941,
      "most": 942,
      "vious": 943,
      "ertain": 944,
      "ket": 945,
      "ram": 946,
      "▁taking": 947,
      "▁conf": 948,
      "▁sense": 949,
      "erg": 950,
      "▁told": 951,
      "▁wrong": 952,
      "man": 953,
      "▁ago": 954,
      "▁side": 955,
      "ife": 956,
      "ready": 957,
      "▁health": 958,
      "▁sell": 959,
      "▁already": 960,
      "llar": 961,
      "▁almost": 962,
      "▁gl": 963,
      "▁ass": 964,
      "▁americ": 965,
      "onna": 966,
      "unch": 967,
      "▁import": 968,
      "ular": 969,
      "ention": 970,
      "▁sur": 971,
      "▁power": 972,
      "ne": 973,
      "ved": 974,
      "▁ext": 975,
      "▁saw": 976,
      "▁sk": 977,
      "▁sim": 978,
      "▁eas": 979,
      "▁seen": 980,
      "▁exc": 981,
      "▁experi": 982,
      "▁learn": 983,
      "ited": 984,
      "▁gonna": 985,
      "▁ind": 986,
      "▁top": 987,
      "gin": 988,
      "ork": 989,
      "▁add": 990,
      "▁each": 991,
      "▁nice": 992,
      "ility": 993,
      "▁sound": 994,
      "▁important": 995,
      "▁full": 996,
      "▁far": 997,
      "▁sometim": 998,
      "▁super": 999,
      "▁situ": 1000,
      "▁youn": 1001,
      "ph": 1002,
      "▁ret": 1003,
      "▁week": 1004,
      "pect": 1005,
      "▁wo": 1006,
      "ried": 1007,
      "ics": 1008,
      "up": 1009,
      "▁course": 1010,
      "▁million": 1011,
      "▁cam": 1012,
      "▁ask": 1013,
      "▁sometimes": 1014,
      "▁gre": 1015,
      "▁beh": 1016,
      "▁line": 1017,
      "▁few": 1018,
      "▁face": 1019,
      "ative": 1020,
      "▁baby": 1021,
      "▁found": 1022,
      "▁days": 1023,
      "ames": 1024,
      "▁mor": 1025,
      "▁took": 1026,
      "▁stay": 1027,
      "ten": 1028,
      "ier": 1029,
      "▁name": 1030,
      "▁war": 1031,
      "ness": 1032,
      "where": 1033,
      "io": 1034,
      "▁case": 1035,
      "less": 1036,
      "cy": 1037,
      "▁sing": 1038,
      "der": 1039,
      "gan": 1040,
      "▁obvious": 1041,
      "▁phone": 1042,
      "led": 1043,
      "▁feeling": 1044,
      "▁absol": 1045,
      "uct": 1046,
      "osed": 1047,
      "lic": 1048,
      "▁rep": 1049,
      "hn": 1050,
      "ling": 1051,
      "▁comple": 1052,
      "▁absolute": 1053,
      "▁ge": 1054,
      "▁coll": 1055,
      "▁dollar": 1056,
      "▁ed": 1057,
      "▁human": 1058,
      "und": 1059,
      "ode": 1060,
      "ush": 1061,
      "▁half": 1062,
      "▁suc": 1063,
      "ather": 1064,
      "▁sw": 1065,
      "▁es": 1066,
      "▁hope": 1067,
      "▁fre": 1068,
      "▁sex": 1069,
      "▁room": 1070,
      "▁less": 1071,
      "▁hold": 1072,
      "▁john": 1073,
      "ane": 1074,
      "cially": 1075,
      "ank": 1076,
      "▁bud": 1077,
      "▁reg": 1078,
      "▁imag": 1079,
      "▁brain": 1080,
      "▁card": 1081,
      "▁convers": 1082,
      "ered": 1083,
      "▁compan": 1084,
      "stem": 1085,
      "▁dep": 1086,
      "▁parent": 1087,
      "ments": 1088,
      "▁finan": 1089,
      "▁adv": 1090,
      "▁char": 1091,
      "com": 1092,
      "rist": 1093,
      "▁certain": 1094,
      "▁unt": 1095,
      "llow": 1096,
      "▁sor": 1097,
      "▁won": 1098,
      "▁system": 1099,
      "▁cred": 1100,
      "▁knew": 1101,
      "▁defin": 1102,
      "▁sort": 1103,
      "▁contro": 1104,
      "▁living": 1105,
      "▁sho": 1106,
      "▁income": 1107,
      "sel": 1108,
      "▁happens": 1109,
      "▁net": 1110,
      "▁leg": 1111,
      "ween": 1112,
      "▁matter": 1113,
      "▁moment": 1114,
      "ety": 1115,
      "▁such": 1116,
      "▁funny": 1117,
      "ately": 1118,
      "▁pres": 1119,
      "air": 1120,
      "ither": 1121,
      "▁situation": 1122,
      "▁between": 1123,
      "aught": 1124,
      "▁sub": 1125,
      "▁absolutely": 1126,
      "▁rest": 1127,
      "▁level": 1128,
      "▁paid": 1129,
      "ince": 1130,
      "▁sorry": 1131,
      "▁pos": 1132,
      "▁heard": 1133,
      "▁sign": 1134,
      "▁least": 1135,
      "▁wouldn": 1136,
      "▁until": 1137,
      "▁shot": 1138,
      "▁obviously": 1139,
      "▁invest": 1140,
      "▁bill": 1141,
      "▁tot": 1142,
      "▁basically": 1143,
      "ah": 1144,
      "uth": 1145,
      "▁telling": 1146,
      "▁credit": 1147,
      "▁eat": 1148,
      "ced": 1149,
      "cept": 1150,
      "▁chang": 1151,
      "utes": 1152,
      "▁ty": 1153,
      "uring": 1154,
      "▁quick": 1155,
      "▁pull": 1156,
      "▁fel": 1157,
      "▁word": 1158,
      "ime": 1159,
      "▁val": 1160,
      "▁check": 1161,
      "sy": 1162,
      "onest": 1163,
      "▁wife": 1164,
      "▁sol": 1165,
      "ern": 1166,
      "▁poss": 1167,
      "▁percent": 1168,
      "▁ep": 1169,
      "▁honest": 1170,
      "▁conn": 1171,
      "▁complete": 1172,
      "ision": 1173,
      "▁spend": 1174,
      "▁geor": 1175,
      "▁gener": 1176,
      "▁against": 1177,
      "▁ten": 1178,
      "▁video": 1179,
      "med": 1180,
      "nce": 1181,
      "▁isn": 1182,
      "ins": 1183,
      "▁opp": 1184,
      "▁small": 1185,
      "▁either": 1186,
      "▁minutes": 1187,
      "▁happy": 1188,
      "its": 1189,
      "▁looks": 1190,
      "ized": 1191,
      "▁social": 1192,
      "▁trans": 1193,
      "▁imagine": 1194,
      "▁cho": 1195,
      "▁account": 1196,
      "side": 1197,
      "rap": 1198,
      "ities": 1199,
      "▁felt": 1200,
      "▁whether": 1201,
      "sw": 1202,
      "▁young": 1203,
      "▁personal": 1204,
      "▁lead": 1205,
      "▁tax": 1206,
      "leep": 1207,
      "ied": 1208,
      "▁ve": 1209,
      "▁worth": 1210,
      "ident": 1211,
      "orn": 1212,
      "▁allow": 1213,
      "▁follow": 1214,
      "▁inv": 1215,
      "gest": 1216,
      "▁food": 1217,
      "ee": 1218,
      "▁bar": 1219,
      "▁creat": 1220,
      "▁close": 1221,
      "▁women": 1222,
      "▁prod": 1223,
      "ock": 1224,
      "▁ele": 1225,
      "selves": 1226,
      "▁leave": 1227,
      "res": 1228,
      "▁happening": 1229,
      "▁christ": 1230,
      "▁train": 1231,
      "iting": 1232,
      "▁wonder": 1233,
      "▁cur": 1234,
      "fect": 1235,
      "▁answ": 1236,
      "▁prop": 1237,
      "itely": 1238,
      "▁grow": 1239,
      "▁clear": 1240,
      "▁hours": 1241,
      "▁seas": 1242,
      "▁iss": 1243,
      "ying": 1244,
      "▁commun": 1245,
      "▁fund": 1246,
      "▁means": 1247,
      "▁joe": 1248,
      "▁cash": 1249,
      "fort": 1250,
      "▁mus": 1251,
      "▁walk": 1252,
      "▁later": 1253,
      "▁men": 1254,
      "ject": 1255,
      "▁haven": 1256,
      "line": 1257,
      "▁expl": 1258,
      "▁single": 1259,
      "▁cal": 1260,
      "▁movie": 1261,
      "▁ap": 1262,
      "▁without": 1263,
      "▁definitely": 1264,
      "▁par": 1265,
      "cus": 1266,
      "▁state": 1267,
      "aut": 1268,
      "▁amount": 1269,
      "▁light": 1270,
      "ink": 1271,
      "▁watching": 1272,
      "▁george": 1273,
      "▁fine": 1274,
      "eak": 1275,
      "▁met": 1276,
      "▁grand": 1277,
      "▁wants": 1278,
      "▁agree": 1279,
      "▁art": 1280,
      "▁hot": 1281,
      "▁front": 1282,
      "dy": 1283,
      "pecially": 1284,
      "▁especially": 1285,
      "ues": 1286,
      "▁mother": 1287,
      "▁since": 1288,
      "▁experience": 1289,
      "gage": 1290,
      "▁bunch": 1291,
      "▁cre": 1292,
      "▁pur": 1293,
      "ines": 1294,
      "▁hor": 1295,
      "▁mem": 1296,
      "▁anybody": 1297,
      "bo": 1298,
      "▁parents": 1299,
      "als": 1300,
      "▁eight": 1301,
      "▁become": 1302,
      "▁send": 1303,
      "▁talked": 1304,
      "▁mid": 1305,
      "ism": 1306,
      "▁interest": 1307,
      "▁couldn": 1308,
      "▁conversation": 1309,
      "▁connect": 1310,
      "▁ben": 1311,
      "▁pick": 1312,
      "▁lau": 1313,
      "▁seven": 1314,
      "wards": 1315,
      "▁control": 1316,
      "▁listening": 1317,
      "ired": 1318,
      "▁sitting": 1319,
      "▁country": 1320,
      "▁gone": 1321,
      "▁past": 1322,
      "ffect": 1323,
      "vern": 1324,
      "▁epis": 1325,
      "▁resp": 1326,
      "▁pri": 1327,
      "son": 1328,
      "▁teach": 1329,
      "▁cut": 1330,
      "rible": 1331,
      "▁mort": 1332,
      "▁sleep": 1333,
      "▁sn": 1334,
      "▁prot": 1335,
      "▁black": 1336,
      "cri": 1337,
      "▁fast": 1338,
      "▁woman": 1339,
      "▁rec": 1340,
      "▁season": 1341,
      "▁del": 1342,
      "▁comed": 1343,
      "▁meet": 1344,
      "ease": 1345,
      "ared": 1346,
      "▁beaut": 1347,
      "more": 1348,
      "▁wild": 1349,
      "▁govern": 1350,
      "▁miss": 1351,
      "ross": 1352,
      "▁playing": 1353,
      "▁company": 1354,
      "▁ste": 1355,
      "▁exam": 1356,
      "ina": 1357,
      "ale": 1358,
      "▁ref": 1359,
      "▁seems": 1360,
      "band": 1361,
      "str": 1362,
      "ists": 1363,
      "▁knows": 1364,
      "ndred": 1365,
      "▁hundred": 1366,
      "▁rid": 1367,
      "▁boy": 1368,
      "fl": 1369,
      "▁vers": 1370,
      "▁dog": 1371,
      "▁throw": 1372,
      "▁hus": 1373,
      "▁bull": 1374,
      "land": 1375,
      "▁paying": 1376,
      "▁easy": 1377,
      "▁sounds": 1378,
      "▁budget": 1379,
      "▁pat": 1380,
      "▁mess": 1381,
      "▁ready": 1382,
      "▁completely": 1383,
      "ift": 1384,
      "▁air": 1385,
      "▁law": 1386,
      "▁deep": 1387,
      "ency": 1388,
      "▁during": 1389,
      "ased": 1390,
      "▁prof": 1391,
      "▁yet": 1392,
      "▁husband": 1393,
      "▁fucked": 1394,
      "ousand": 1395,
      "ional": 1396,
      "▁self": 1397,
      "▁thousand": 1398,
      "▁pop": 1399,
      "▁huge": 1400,
      "▁giving": 1401,
      "▁answer": 1402,
      "▁ton": 1403,
      "▁news": 1404,
      "▁anymore": 1405,
      "▁dam": 1406,
      "▁rent": 1407,
      "▁bed": 1408,
      "▁ey": 1409,
      "itch": 1410,
      "▁norm": 1411,
      "▁smart": 1412,
      "▁red": 1413,
      "ef": 1414,
      "▁test": 1415,
      "▁perfect": 1416,
      "▁looked": 1417,
      "▁ru": 1418,
      "▁det": 1419,
      "▁therap": 1420,
      "▁york": 1421,
      "ps": 1422,
      "▁fore": 1423,
      "▁save": 1424,
      "▁morning": 1425,
      "▁works": 1426,
      "▁takes": 1427,
      "▁fall": 1428,
      "▁pict": 1429,
      "iod": 1430,
      "▁nat": 1431,
      "idence": 1432,
      "▁period": 1433,
      "▁media": 1434,
      "▁sec": 1435,
      "den": 1436,
      "▁hur": 1437,
      "gn": 1438,
      "formation": 1439,
      "▁outside": 1440,
      "▁financial": 1441,
      "ones": 1442,
      "▁tech": 1443,
      "▁needs": 1444,
      "▁cause": 1445,
      "▁uni": 1446,
      "▁prog": 1447,
      "avor": 1448,
      "rew": 1449,
      "▁picture": 1450,
      "outh": 1451,
      "▁enj": 1452,
      "▁water": 1453,
      "0s": 1454,
      "ube": 1455,
      "umb": 1456,
      "ings": 1457,
      "▁supposed": 1458,
      "▁mortgage": 1459,
      "▁pass": 1460,
      "esome": 1461,
      "▁wear": 1462,
      "▁behind": 1463,
      "▁putting": 1464,
      "▁hang": 1465,
      "▁pie": 1466,
      "▁dream": 1467,
      "▁order": 1468,
      "▁enjoy": 1469,
      "itive": 1470,
      "▁nobody": 1471,
      "▁event": 1472,
      "▁example": 1473,
      "▁form": 1474,
      "▁married": 1475,
      "▁beautif": 1476,
      "dle": 1477,
      "ology": 1478,
      "▁awesome": 1479,
      "▁heart": 1480,
      "▁questions": 1481,
      "▁america": 1482,
      "▁conc": 1483,
      "▁trump": 1484,
      "▁lost": 1485,
      "▁bra": 1486,
      "ought": 1487,
      "▁pen": 1488,
      "▁children": 1489,
      "▁trust": 1490,
      "▁feels": 1491,
      "▁est": 1492,
      "▁entire": 1493,
      "▁av": 1494,
      "▁star": 1495,
      "▁pain": 1496,
      "▁process": 1497,
      "▁direct": 1498,
      "▁energ": 1499,
      "▁success": 1500,
      "br": 1501,
      "lt": 1502,
      "▁girls": 1503,
      "▁cap": 1504,
      "▁create": 1505,
      "view": 1506,
      "ney": 1507,
      "▁ones": 1508,
      "▁fire": 1509,
      "enty": 1510,
      "ories": 1511,
      "utions": 1512,
      "▁seeing": 1513,
      "▁running": 1514,
      "▁beautiful": 1515,
      "▁gave": 1516,
      "ices": 1517,
      "▁emot": 1518,
      "▁pub": 1519,
      "▁support": 1520,
      "come": 1521,
      "▁aud": 1522,
      "▁government": 1523,
      "▁games": 1524,
      "ially": 1525,
      "▁dra": 1526,
      "▁grou": 1527,
      "▁loc": 1528,
      "▁hate": 1529,
      "▁opt": 1530,
      "▁information": 1531,
      "vid": 1532,
      "▁rese": 1533,
      "▁saving": 1534,
      "▁dem": 1535,
      "▁press": 1536,
      "off": 1537,
      "▁third": 1538,
      "▁dave": 1539,
      "▁white": 1540,
      "▁early": 1541,
      "▁post": 1542,
      "▁hell": 1543,
      "arch": 1544,
      "▁favor": 1545,
      "▁colle": 1546,
      "▁energy": 1547,
      "▁age": 1548,
      "▁begin": 1549,
      "sych": 1550,
      "▁dollars": 1551,
      "▁using": 1552,
      "▁la": 1553,
      "ped": 1554,
      "ats": 1555,
      "▁cult": 1556,
      "▁ways": 1557,
      "▁psych": 1558,
      "▁anyway": 1559,
      "ike": 1560,
      "room": 1561,
      "ton": 1562,
      "▁drop": 1563,
      "▁ment": 1564,
      "▁sci": 1565,
      "▁bri": 1566,
      "att": 1567,
      "reci": 1568,
      "▁extra": 1569,
      "ond": 1570,
      "▁possible": 1571,
      "▁doct": 1572,
      "▁instead": 1573,
      "ract": 1574,
      "ark": 1575,
      "▁store": 1576,
      "▁realize": 1577,
      "▁thanks": 1578,
      "▁college": 1579,
      "pid": 1580,
      "▁equ": 1581,
      "▁land": 1582,
      "▁chr": 1583,
      "▁please": 1584,
      "▁yout": 1585,
      "▁shows": 1586,
      "▁correct": 1587,
      "head": 1588,
      "app": 1589,
      "aces": 1590,
      "▁worked": 1591,
      "▁lose": 1592,
      "▁moving": 1593,
      "ants": 1594,
      "▁write": 1595,
      "▁phys": 1596,
      "key": 1597,
      "▁middle": 1598,
      "▁intern": 1599,
      "▁prom": 1600,
      "▁partic": 1601,
      "ipp": 1602,
      "▁city": 1603,
      "▁weeks": 1604,
      "rent": 1605,
      "▁shoot": 1606,
      "▁incred": 1607,
      "▁contin": 1608,
      "▁stre": 1609,
      "ott": 1610,
      "▁stupid": 1611,
      "▁techn": 1612,
      "▁youtube": 1613,
      "▁speci": 1614,
      "▁episode": 1615,
      "bb": 1616,
      "ric": 1617,
      "▁breat": 1618,
      "con": 1619,
      "▁asked": 1620,
      "▁sport": 1621,
      "▁totally": 1622,
      "▁mur": 1623,
      "old": 1624,
      "▁door": 1625,
      "▁ken": 1626,
      "gg": 1627,
      "▁appreci": 1628,
      "set": 1629,
      "rought": 1630,
      "ering": 1631,
      "▁dou": 1632,
      "▁death": 1633,
      "▁mc": 1634,
      "▁cost": 1635,
      "▁hist": 1636,
      "rif": 1637,
      "▁brought": 1638,
      "▁ma": 1639,
      "▁vir": 1640,
      "▁comedy": 1641,
      "ball": 1642,
      "ters": 1643,
      "▁col": 1644,
      "▁starting": 1645,
      "ined": 1646,
      "▁tom": 1647,
      "lex": 1648,
      "▁lives": 1649,
      "▁cent": 1650,
      "anc": 1651,
      "▁cle": 1652,
      "▁hy": 1653,
      "ior": 1654,
      "▁based": 1655,
      "▁themselves": 1656,
      "ilar": 1657,
      "▁excited": 1658,
      "ific": 1659,
      "▁short": 1660,
      "▁along": 1661,
      "▁research": 1662,
      "▁box": 1663,
      "▁career": 1664,
      "▁arg": 1665,
      "ercial": 1666,
      "▁goals": 1667,
      "▁mis": 1668,
      "ensive": 1669,
      "igh": 1670,
      "ians": 1671,
      "▁anim": 1672,
      "▁cop": 1673,
      "▁eng": 1674,
      "▁inside": 1675,
      "▁current": 1676,
      "▁class": 1677,
      "ero": 1678,
      "▁neg": 1679,
      "ilt": 1680,
      "erv": 1681,
      "▁normal": 1682,
      "▁ball": 1683,
      "ital": 1684,
      "▁vis": 1685,
      "▁tried": 1686,
      "▁lar": 1687,
      "▁market": 1688,
      "▁produc": 1689,
      "▁fan": 1690,
      "▁mad": 1691,
      "▁aren": 1692,
      "bs": 1693,
      "▁jump": 1694,
      "achel": 1695,
      "▁protect": 1696,
      "▁fear": 1697,
      "▁loan": 1698,
      "▁gun": 1699,
      "say": 1700,
      "▁stra": 1701,
      "▁building": 1702,
      "▁explain": 1703,
      "ution": 1704,
      "▁anyone": 1705,
      "ction": 1706,
      "▁must": 1707,
      "▁sent": 1708,
      "▁ra": 1709,
      "ield": 1710,
      "▁swe": 1711,
      "urance": 1712,
      "▁fut": 1713,
      "▁shut": 1714,
      "▁vo": 1715,
      "▁type": 1716,
      "▁truth": 1717,
      "▁dead": 1718,
      "cle": 1719,
      "▁score": 1720,
      "▁low": 1721,
      "▁expect": 1722,
      "▁vi": 1723,
      "▁term": 1724,
      "▁dang": 1725,
      "▁wel": 1726,
      "▁terms": 1727,
      "▁serious": 1728,
      "▁payment": 1729,
      "▁future": 1730,
      "▁pot": 1731,
      "ape": 1732,
      "▁special": 1733,
      "ument": 1734,
      "▁relationships": 1735,
      "aken": 1736,
      "ouch": 1737,
      "acy": 1738,
      "▁spot": 1739,
      "▁jes": 1740,
      "▁music": 1741,
      "ison": 1742,
      "▁minute": 1743,
      "▁die": 1744,
      "▁foot": 1745,
      "▁recent": 1746,
      "▁drive": 1747,
      "sing": 1748,
      "agram": 1749,
      "▁attention": 1750,
      "ik": 1751,
      "ator": 1752,
      "▁forward": 1753,
      "▁honestly": 1754,
      "▁retire": 1755,
      "ucks": 1756,
      "lo": 1757,
      "▁issue": 1758,
      "▁son": 1759,
      "▁terrible": 1760,
      "▁piece": 1761,
      "ugg": 1762,
      "▁bank": 1763,
      "▁effect": 1764,
      "▁instagram": 1765,
      "▁emerg": 1766,
      "▁polit": 1767,
      "cer": 1768,
      "▁push": 1769,
      "▁plus": 1770,
      "▁eating": 1771,
      "▁welcome": 1772,
      "▁group": 1773,
      "▁mag": 1774,
      "▁insurance": 1775,
      "ational": 1776,
      "ortun": 1777,
      "▁opportun": 1778,
      "▁main": 1779,
      "▁coach": 1780,
      "▁ice": 1781,
      "▁sud": 1782,
      "▁sat": 1783,
      "▁bitch": 1784,
      "▁insane": 1785,
      "▁public": 1786,
      "▁road": 1787,
      "▁its": 1788,
      "ster": 1789,
      "▁daddy": 1790,
      "ries": 1791,
      "▁record": 1792,
      "▁mot": 1793,
      "▁within": 1794,
      "▁sudden": 1795,
      "▁incl": 1796,
      "unk": 1797,
      "▁area": 1798,
      "mit": 1799,
      "▁towards": 1800,
      "▁pan": 1801,
      "▁stick": 1802,
      "▁specif": 1803,
      "gr": 1804,
      "▁fil": 1805,
      "velop": 1806,
      "yle": 1807,
      "▁damn": 1808,
      "▁quite": 1809,
      "time": 1810,
      "▁treat": 1811,
      "▁actual": 1812,
      "▁appreciate": 1813,
      "▁text": 1814,
      "▁fair": 1815,
      "▁invol": 1816,
      "▁difference": 1817,
      "▁student": 1818,
      "▁ant": 1819,
      "▁numbers": 1820,
      "ted": 1821,
      "▁decision": 1822,
      "▁dot": 1823,
      "▁daught": 1824,
      "▁ir": 1825,
      "ming": 1826,
      "▁ce": 1827,
      "▁favorite": 1828,
      "amp": 1829,
      "▁tough": 1830,
      "▁anx": 1831,
      "▁commercial": 1832,
      "▁asking": 1833,
      "▁develop": 1834,
      "▁somewhere": 1835,
      "▁history": 1836,
      "▁song": 1837,
      "icult": 1838,
      "▁stage": 1839,
      "ages": 1840,
      "rem": 1841,
      "ler": 1842,
      "▁position": 1843,
      "▁particular": 1844,
      "▁difficult": 1845,
      "▁camp": 1846,
      "▁late": 1847,
      "oph": 1848,
      "▁ris": 1849,
      "▁played": 1850,
      "▁soon": 1851,
      "omes": 1852,
      "▁joke": 1853,
      "▁forget": 1854,
      "▁reality": 1855,
      "▁ahead": 1856,
      "ural": 1857,
      "▁roll": 1858,
      "▁dist": 1859,
      "▁twenty": 1860,
      "▁value": 1861,
      "▁usually": 1862,
      "▁beat": 1863,
      "▁ramsay": 1864,
      "▁biggest": 1865,
      "▁wish": 1866,
      "▁share": 1867,
      "▁apart": 1868,
      "▁program": 1869,
      "▁laugh": 1870,
      "che": 1871,
      "▁hands": 1872,
      "▁clean": 1873,
      "▁wall": 1874,
      "▁reco": 1875,
      "▁police": 1876,
      "▁rachel": 1877,
      "▁mil": 1878,
      "ole": 1879,
      "▁decid": 1880,
      "▁weren": 1881,
      "▁drug": 1882,
      "▁problems": 1883,
      "▁member": 1884,
      "▁bought": 1885,
      "▁walking": 1886,
      "▁straight": 1887,
      "▁interview": 1888,
      "▁fix": 1889,
      "▁jud": 1890,
      "sp": 1891,
      "used": 1892,
      "▁taken": 1893,
      "▁aff": 1894,
      "▁doctor": 1895,
      "use": 1896,
      "▁advice": 1897,
      "▁online": 1898,
      "▁investing": 1899,
      "▁nine": 1900,
      "▁cover": 1901,
      "entially": 1902,
      "▁pea": 1903,
      "▁pract": 1904,
      "▁steps": 1905,
      "▁bal": 1906,
      "▁incredible": 1907,
      "▁const": 1908,
      "▁stress": 1909,
      "▁space": 1910,
      "▁worst": 1911,
      "▁ann": 1912,
      "▁touch": 1913,
      "▁healthy": 1914,
      "▁vac": 1915,
      "▁rad": 1916,
      "▁chance": 1917,
      "▁sad": 1918,
      "▁scen": 1919,
      "▁nut": 1920,
      "▁strong": 1921,
      "▁starts": 1922,
      "▁jour": 1923,
      "▁sick": 1924,
      "▁mas": 1925,
      "▁soci": 1926,
      "▁playoff": 1927,
      "ret": 1928,
      "▁exist": 1929,
      "▁party": 1930,
      "▁mod": 1931,
      "work": 1932,
      "ets": 1933,
      "▁president": 1934,
      "ding": 1935,
      "▁squ": 1936,
      "▁jam": 1937,
      "▁player": 1938,
      "▁blue": 1939,
      "▁slow": 1940,
      "▁brother": 1941,
      "▁compet": 1942,
      "▁ess": 1943,
      "▁nar": 1944,
      "▁therapy": 1945,
      "▁1": 1946,
      "ru": 1947,
      "▁wrote": 1948,
      "mm": 1949,
      "thers": 1950,
      "▁fly": 1951,
      "▁dick": 1952,
      "ully": 1953,
      "icks": 1954,
      "▁hair": 1955,
      "▁mental": 1956,
      "▁wind": 1957,
      "▁worry": 1958,
      "▁loved": 1959,
      "era": 1960,
      "▁jade": 1961,
      "▁organ": 1962,
      "▁club": 1963,
      "ston": 1964,
      "▁cars": 1965,
      "▁killed": 1966,
      "▁path": 1967,
      "ping": 1968,
      "▁american": 1969,
      "▁emergency": 1970,
      "▁speak": 1971,
      "▁smo": 1972,
      "uz": 1973,
      "oring": 1974,
      "fortable": 1975,
      "▁quote": 1976,
      "▁simple": 1977,
      "▁focus": 1978,
      "▁safe": 1979,
      "▁adam": 1980,
      "▁canad": 1981,
      "▁savings": 1982,
      "▁ill": 1983,
      "▁alone": 1984,
      "▁div": 1985,
      "ify": 1986,
      "▁changed": 1987,
      "▁marri": 1988,
      "▁across": 1989,
      "kend": 1990,
      "▁consid": 1991,
      "ged": 1992,
      "▁shar": 1993,
      "▁covid": 1994,
      "▁gives": 1995,
      "▁cond": 1996,
      "▁sal": 1997,
      "▁bott": 1998,
      "▁priv": 1999,
      "▁learned": 2000,
      "antly": 2001,
      "▁necess": 2002,
      "icked": 2003,
      "▁coff": 2004,
      "rest": 2005,
      "▁vie": 2006,
      "▁broke": 2007,
      "▁view": 2008,
      "▁steve": 2009,
      "hood": 2010,
      "▁round": 2011,
      "▁daughter": 2012,
      "ressed": 2013,
      "▁profess": 2014,
      "ley": 2015,
      "▁became": 2016,
      "ung": 2017,
      "▁weekend": 2018,
      "▁writing": 2019,
      "▁needed": 2020,
      "▁fol": 2021,
      "▁mass": 2022,
      "▁tor": 2023,
      "▁willing": 2024,
      "iety": 2025,
      "izing": 2026,
      "▁calling": 2027,
      "▁finally": 2028,
      "par": 2029,
      "▁zero": 2030,
      "fully": 2031,
      "my": 2032,
      "▁ability": 2033,
      "▁experien": 2034,
      "▁mist": 2035,
      "▁motherf": 2036,
      "medi": 2037,
      "▁peace": 2038,
      "▁hea": 2039,
      "ove": 2040,
      "▁wealth": 2041,
      "▁states": 2042,
      "▁infl": 2043,
      "▁given": 2044,
      "▁beginning": 2045,
      "ient": 2046,
      "istic": 2047,
      "▁ground": 2048,
      "▁immedi": 2049,
      "▁coffee": 2050,
      "▁often": 2051,
      "▁marriage": 2052,
      "▁serv": 2053,
      "atic": 2054,
      "▁benef": 2055,
      "▁opin": 2056,
      "▁stories": 2057,
      "▁deg": 2058,
      "▁propert": 2059,
      "ighb": 2060,
      "cl": 2061,
      "▁total": 2062,
      "▁ident": 2063,
      "▁base": 2064,
      "une": 2065,
      "▁shouldn": 2066,
      "orrow": 2067,
      "▁words": 2068,
      "allen": 2069,
      "▁imm": 2070,
      "▁strugg": 2071,
      "▁retirement": 2072,
      "ma": 2073,
      "▁cir": 2074,
      "▁places": 2075,
      "shit": 2076,
      "▁estate": 2077,
      "▁luck": 2078,
      "▁neighb": 2079,
      "▁brand": 2080,
      "▁tex": 2081,
      "▁challen": 2082,
      "▁lou": 2083,
      "▁date": 2084,
      "▁bigger": 2085,
      "▁mult": 2086,
      "▁eyes": 2087,
      "▁folks": 2088,
      "arily": 2089,
      "▁rather": 2090,
      "▁turned": 2091,
      "▁cann": 2092,
      "▁sold": 2093,
      "▁moved": 2094,
      "▁danger": 2095,
      "▁alex": 2096,
      "▁gift": 2097,
      "▁allowed": 2098,
      "ization": 2099,
      "▁finish": 2100,
      "fs": 2101,
      "▁bur": 2102,
      "▁involved": 2103,
      "▁math": 2104,
      "▁positive": 2105,
      "▁hurt": 2106,
      "▁longer": 2107,
      "▁internet": 2108,
      "▁descri": 2109,
      "▁host": 2110,
      "▁weight": 2111,
      "▁reach": 2112,
      "icle": 2113,
      "▁culture": 2114,
      "▁mouth": 2115,
      "▁training": 2116,
      "jor": 2117,
      "erve": 2118,
      "▁older": 2119,
      "▁regular": 2120,
      "▁concern": 2121,
      "▁table": 2122,
      "▁quickly": 2123,
      "▁sports": 2124,
      "lly": 2125,
      "▁tv": 2126,
      "ulation": 2127,
      "▁series": 2128,
      "imate": 2129,
      "mas": 2130,
      "ann": 2131,
      "▁respons": 2132,
      "mer": 2133,
      "vered": 2134,
      "▁gotten": 2135,
      "▁match": 2136,
      "▁points": 2137,
      "ging": 2138,
      "▁matth": 2139,
      "lier": 2140,
      "▁nor": 2141,
      "▁drink": 2142,
      "▁recently": 2143,
      "▁loans": 2144,
      "▁unless": 2145,
      "▁matthew": 2146,
      "▁driving": 2147,
      "▁mic": 2148,
      "cb": 2149,
      "▁sug": 2150,
      "aur": 2151,
      "ov": 2152,
      "▁trad": 2153,
      "▁community": 2154,
      "▁fat": 2155,
      "ulous": 2156,
      "▁sam": 2157,
      "▁spea": 2158,
      "▁teams": 2159,
      "avid": 2160,
      "▁worse": 2161,
      "▁kept": 2162,
      "▁evidence": 2163,
      "gue": 2164,
      "ances": 2165,
      "▁fit": 2166,
      "▁known": 2167,
      "▁lay": 2168,
      "▁father": 2169,
      "▁trade": 2170,
      "▁rich": 2171,
      "▁respect": 2172,
      "ploy": 2173,
      "▁mention": 2174,
      "▁defense": 2175,
      "▁scared": 2176,
      "read": 2177,
      "▁town": 2178,
      "▁forever": 2179,
      "ience": 2180,
      "▁wake": 2181,
      "▁auth": 2182,
      "▁opportunity": 2183,
      "▁reading": 2184,
      "▁includ": 2185,
      "ibly": 2186,
      "▁rang": 2187,
      "▁content": 2188,
      "comm": 2189,
      "▁dating": 2190,
      "ckey": 2191,
      "▁din": 2192,
      "ury": 2193,
      "▁selling": 2194,
      "▁bullshit": 2195,
      "▁decide": 2196,
      "▁fighting": 2197,
      "hip": 2198,
      "▁died": 2199,
      "▁hockey": 2200,
      "uly": 2201,
      "▁cry": 2202,
      "▁seem": 2203,
      "lish": 2204,
      "▁breath": 2205,
      "ential": 2206,
      "▁worried": 2207,
      "▁tonight": 2208,
      "let": 2209,
      "▁seconds": 2210,
      "▁society": 2211,
      "▁perform": 2212,
      "▁jobs": 2213,
      "▁books": 2214,
      "▁fake": 2215,
      "ym": 2216,
      "▁assum": 2217,
      "▁bid": 2218,
      "▁mel": 2219,
      "▁decided": 2220,
      "▁ideas": 2221,
      "acked": 2222,
      "▁depend": 2223,
      "▁risk": 2224,
      "▁built": 2225,
      "▁earth": 2226,
      "▁rate": 2227,
      "▁blow": 2228,
      "hl": 2229,
      "▁dom": 2230,
      "▁dumb": 2231,
      "ustr": 2232,
      "▁catch": 2233,
      "▁travel": 2234,
      "▁forg": 2235,
      "▁mile": 2236,
      "asc": 2237,
      "ides": 2238,
      "▁phot": 2239,
      "ibility": 2240,
      "astic": 2241,
      "▁univers": 2242,
      "▁aut": 2243,
      "book": 2244,
      "aim": 2245,
      "▁writ": 2246,
      "▁versus": 2247,
      "ister": 2248,
      "▁anxiety": 2249,
      "▁lived": 2250,
      "go": 2251,
      "itter": 2252,
      "▁ang": 2253,
      "▁immediately": 2254,
      "rib": 2255,
      "ressive": 2256,
      "▁green": 2257,
      "▁dark": 2258,
      "▁videos": 2259,
      "▁elect": 2260,
      "cc": 2261,
      "▁earlier": 2262,
      "ob": 2263,
      "mp": 2264,
      "▁ath": 2265,
      "▁issues": 2266,
      "▁qual": 2267,
      "▁mine": 2268,
      "ots": 2269,
      "▁voice": 2270,
      "els": 2271,
      "▁rac": 2272,
      "▁cards": 2273,
      "icking": 2274,
      "▁taxes": 2275,
      "▁cold": 2276,
      "ama": 2277,
      "kets": 2278,
      "▁conv": 2279,
      "▁lab": 2280,
      "▁eventually": 2281,
      "▁mich": 2282,
      "ida": 2283,
      "▁cup": 2284,
      "ards": 2285,
      "bing": 2286,
      "▁offic": 2287,
      "▁major": 2288,
      "▁players": 2289,
      "▁subs": 2290,
      "▁skin": 2291,
      "▁x": 2292,
      "ror": 2293,
      "▁adult": 2294,
      "▁flor": 2295,
      "▁lady": 2296,
      "▁requ": 2297,
      "▁general": 2298,
      "▁product": 2299,
      "▁feed": 2300,
      "▁holy": 2301,
      "▁jack": 2302,
      "verse": 2303,
      "▁report": 2304,
      "▁chris": 2305,
      "▁negative": 2306,
      "▁jesus": 2307,
      "▁blood": 2308,
      "▁watched": 2309,
      "ateg": 2310,
      "ta": 2311,
      "ana": 2312,
      "▁ended": 2313,
      "xic": 2314,
      "▁env": 2315,
      "pective": 2316,
      "ium": 2317,
      "▁office": 2318,
      "▁continue": 2319,
      "conom": 2320,
      "uri": 2321,
      "isions": 2322,
      "nes": 2323,
      "oid": 2324,
      "tern": 2325,
      "▁accept": 2326,
      "▁max": 2327,
      "ails": 2328,
      "ression": 2329,
      "▁skill": 2330,
      "▁gri": 2331,
      "▁fill": 2332,
      "▁pus": 2333,
      "que": 2334,
      "pose": 2335,
      "urity": 2336,
      "▁pressure": 2337,
      "▁fans": 2338,
      "▁anywhere": 2339,
      "action": 2340,
      "inking": 2341,
      "▁crit": 2342,
      "▁hop": 2343,
      "imin": 2344,
      "▁reasons": 2345,
      "▁behav": 2346,
      "▁comb": 2347,
      "▁brian": 2348,
      "ored": 2349,
      "▁rob": 2350,
      "▁feet": 2351,
      "ological": 2352,
      "▁hunt": 2353,
      "▁econom": 2354,
      "ership": 2355,
      "▁non": 2356,
      "▁street": 2357,
      "▁himself": 2358,
      "▁polic": 2359,
      "▁commit": 2360,
      "▁tic": 2361,
      "▁sum": 2362,
      "▁gosh": 2363,
      "▁near": 2364,
      "▁surv": 2365,
      "to": 2366,
      "▁jamie": 2367,
      "▁discus": 2368,
      "▁oil": 2369,
      "▁ori": 2370,
      "▁florida": 2371,
      "▁hab": 2372,
      "ille": 2373,
      "▁scary": 2374,
      "▁motherfuck": 2375,
      "▁spending": 2376,
      "▁afford": 2377,
      "▁fif": 2378,
      "▁perspective": 2379,
      "▁code": 2380,
      "▁science": 2381,
      "▁dev": 2382,
      "▁rogan": 2383,
      "▁surp": 2384,
      "▁purpose": 2385,
      "▁rock": 2386,
      "▁communic": 2387,
      "▁paper": 2388,
      "▁murder": 2389,
      "▁jer": 2390,
      "▁everywhere": 2391,
      "▁manag": 2392,
      "▁doc": 2393,
      "▁incre": 2394,
      "▁buying": 2395,
      "▁property": 2396,
      "▁mistake": 2397,
      "▁fing": 2398,
      "▁decisions": 2399,
      "▁pet": 2400,
      "ability": 2401,
      "▁nhl": 2402,
      "▁oper": 2403,
      "▁version": 2404,
      "cing": 2405,
      "▁neighbor": 2406,
      "▁track": 2407,
      "ze": 2408,
      "▁glad": 2409,
      "▁viol": 2410,
      "iled": 2411,
      "▁study": 2412,
      "min": 2413,
      "vy": 2414,
      "▁restaur": 2415,
      "▁strange": 2416,
      "ires": 2417,
      "▁personality": 2418,
      "iday": 2419,
      "▁stat": 2420,
      "▁cannot": 2421,
      "▁biden": 2422,
      "irty": 2423,
      "▁claim": 2424,
      "▁successful": 2425,
      "▁speaking": 2426,
      "irt": 2427,
      "▁twitter": 2428,
      "▁gold": 2429,
      "▁fant": 2430,
      "▁nerv": 2431,
      "▁access": 2432,
      "▁nervous": 2433,
      "▁cele": 2434,
      "eap": 2435,
      "by": 2436,
      "▁enc": 2437,
      "rove": 2438,
      "▁ran": 2439,
      "acking": 2440,
      "▁interested": 2441,
      "▁rangers": 2442,
      "of": 2443,
      "ocked": 2444,
      "reme": 2445,
      "▁showing": 2446,
      "▁fully": 2447,
      "▁growing": 2448,
      "iforn": 2449,
      "▁californ": 2450,
      "assed": 2451,
      "▁tool": 2452,
      "▁essentially": 2453,
      "emic": 2454,
      "▁medical": 2455,
      "▁attack": 2456,
      "▁sun": 2457,
      "▁owe": 2458,
      "ips": 2459,
      "ified": 2460,
      "▁contract": 2461,
      "▁certainly": 2462,
      "▁california": 2463,
      "▁2": 2464,
      "aster": 2465,
      "rupt": 2466,
      "▁knowing": 2467,
      "▁cole": 2468,
      "▁ult": 2469,
      "▁return": 2470,
      "▁bi": 2471,
      "▁stuck": 2472,
      "ata": 2473,
      "▁je": 2474,
      "▁result": 2475,
      "▁ca": 2476,
      "▁waiting": 2477,
      "acter": 2478,
      "tend": 2479,
      "▁ourselves": 2480,
      "▁celebr": 2481,
      "ville": 2482,
      "iculous": 2483,
      "▁flo": 2484,
      "▁da": 2485,
      "▁grad": 2486,
      "gas": 2487,
      "iron": 2488,
      "▁dotcom": 2489,
      "▁physical": 2490,
      "urch": 2491,
      "▁truck": 2492,
      "iest": 2493,
      "▁sus": 2494,
      "load": 2495,
      "▁mike": 2496,
      "▁intell": 2497,
      "▁meant": 2498,
      "▁chec": 2499,
      "year": 2500,
      "▁similar": 2501,
      "▁meaning": 2502,
      "▁san": 2503,
      "▁none": 2504,
      "▁realized": 2505,
      "arant": 2506,
      "▁appro": 2507,
      "▁aware": 2508,
      "▁separ": 2509,
      "▁companies": 2510,
      "▁wed": 2511,
      "▁rus": 2512,
      "▁helps": 2513,
      "▁except": 2514,
      "▁milit": 2515,
      "▁tre": 2516,
      "▁alive": 2517,
      "cious": 2518,
      "▁created": 2519,
      "▁currently": 2520,
      "▁clearly": 2521,
      "▁penal": 2522,
      "▁mart": 2523,
      "▁ridiculous": 2524,
      "▁cy": 2525,
      "▁stream": 2526,
      "▁choose": 2527,
      "ining": 2528,
      "▁dig": 2529,
      "▁spent": 2530,
      "▁environ": 2531,
      "▁traum": 2532,
      "rage": 2533,
      "▁blah": 2534,
      "▁common": 2535,
      "▁eye": 2536,
      "▁shop": 2537,
      "▁tour": 2538,
      "sec": 2539,
      "▁expense": 2540,
      "▁multip": 2541,
      "pir": 2542,
      "verage": 2543,
      "▁opinion": 2544,
      "amed": 2545,
      "▁zone": 2546,
      "▁texas": 2547,
      "▁church": 2548,
      "▁indust": 2549,
      "▁wearing": 2550,
      "▁subscri": 2551,
      "▁affect": 2552,
      "▁lie": 2553,
      "▁becomes": 2554,
      "▁christmas": 2555,
      "back": 2556,
      "▁brok": 2557,
      "angu": 2558,
      "▁changes": 2559,
      "▁behavior": 2560,
      "▁center": 2561,
      "▁kick": 2562,
      "bed": 2563,
      "ured": 2564,
      "▁dangerous": 2565,
      "▁west": 2566,
      "▁uf": 2567,
      "▁poor": 2568,
      "▁degree": 2569,
      "▁south": 2570,
      "▁fa": 2571,
      "▁itself": 2572,
      "ocr": 2573,
      "▁horrible": 2574,
      "▁den": 2575,
      "▁trou": 2576,
      "▁matt": 2577,
      "▁large": 2578,
      "▁fac": 2579,
      "▁gar": 2580,
      "▁pand": 2581,
      "▁force": 2582,
      "lfriend": 2583,
      "▁click": 2584,
      "▁calls": 2585,
      "▁mark": 2586,
      "▁investig": 2587,
      "ald": 2588,
      "▁spir": 2589,
      "▁bow": 2590,
      "▁stopped": 2591,
      "▁origin": 2592,
      "ault": 2593,
      "▁famous": 2594,
      "vies": 2595,
      "ges": 2596,
      "▁tcb": 2597,
      "▁goog": 2598,
      "▁flow": 2599,
      "▁pound": 2600,
      "▁bir": 2601,
      "▁compl": 2602,
      "ony": 2603,
      "ures": 2604,
      "for": 2605,
      "▁handle": 2606,
      "▁recogn": 2607,
      "▁langu": 2608,
      "▁cell": 2609,
      "▁movies": 2610,
      "ators": 2611,
      "solutions": 2612,
      "▁data": 2613,
      "▁hanging": 2614,
      "▁standing": 2615,
      "▁typ": 2616,
      "▁impact": 2617,
      "▁military": 2618,
      "▁fish": 2619,
      "▁puck": 2620,
      "▁easier": 2621,
      "▁dest": 2622,
      "▁key": 2623,
      "▁animal": 2624,
      "▁freed": 2625,
      "▁powerful": 2626,
      "▁avoid": 2627,
      "▁apparent": 2628,
      "▁higher": 2629,
      "▁gas": 2630,
      "▁sweet": 2631,
      "▁meat": 2632,
      "pped": 2633,
      "▁figured": 2634,
      "▁emotional": 2635,
      "▁tur": 2636,
      "▁exer": 2637,
      "▁drew": 2638,
      "▁bru": 2639,
      "▁message": 2640,
      "▁thousands": 2641,
      "▁occ": 2642,
      "▁extreme": 2643,
      "▁avail": 2644,
      "▁offer": 2645,
      "▁audience": 2646,
      "▁necessarily": 2647,
      "▁likely": 2648,
      "▁spons": 2649,
      "▁thoughts": 2650,
      "▁dealing": 2651,
      "ned": 2652,
      "▁frank": 2653,
      "▁court": 2654,
      "▁inj": 2655,
      "▁eff": 2656,
      "▁stri": 2657,
      "ivid": 2658,
      "lev": 2659,
      "▁girlfriend": 2660,
      "▁motiv": 2661,
      "friend": 2662,
      "▁learning": 2663,
      "▁field": 2664,
      "▁board": 2665,
      "▁scream": 2666,
      "▁environment": 2667,
      "▁plat": 2668,
      "▁present": 2669,
      "▁lines": 2670,
      "▁vict": 2671,
      "▁freaking": 2672,
      "▁solutions": 2673,
      "▁balance": 2674,
      "▁dise": 2675,
      "▁hosp": 2676,
      "▁nature": 2677,
      "▁lim": 2678,
      "▁secret": 2679,
      "▁pred": 2680,
      "een": 2681,
      "▁thinks": 2682,
      "▁technology": 2683,
      "ander": 2684,
      "eg": 2685,
      "ustin": 2686,
      "▁chat": 2687,
      "▁addict": 2688,
      "▁trouble": 2689,
      "gen": 2690,
      "▁truly": 2691,
      "▁educ": 2692,
      "▁constantly": 2693,
      "▁window": 2694,
      "asses": 2695,
      "▁bills": 2696,
      "▁bath": 2697,
      "▁specific": 2698,
      "▁dinner": 2699,
      "▁inf": 2700,
      "raid": 2701,
      "▁bringing": 2702,
      "▁dan": 2703,
      "▁multiple": 2704,
      "▁burn": 2705,
      "▁repl": 2706,
      "▁unfort": 2707,
      "▁unfortun": 2708,
      "▁recomm": 2709,
      "▁afraid": 2710,
      "▁sir": 2711,
      "ester": 2712,
      "▁recommend": 2713,
      "erence": 2714,
      "▁employ": 2715,
      "▁slash": 2716,
      "▁yell": 2717,
      "ring": 2718,
      "light": 2719,
      "▁prep": 2720,
      "▁circ": 2721,
      "▁available": 2722,
      "▁china": 2723,
      "▁saved": 2724,
      "rod": 2725,
      "oint": 2726,
      "▁grew": 2727,
      "▁scient": 2728,
      "▁hearing": 2729,
      "▁security": 2730,
      "▁ju": 2731,
      "▁remind": 2732,
      "▁caught": 2733,
      "▁leaves": 2734,
      "▁holding": 2735,
      "ising": 2736,
      "▁fasc": 2737,
      "▁bear": 2738,
      "▁race": 2739,
      "▁understanding": 2740,
      "▁cat": 2741,
      "▁apparently": 2742,
      "▁project": 2743,
      "▁keeps": 2744,
      "▁chick": 2745,
      "attle": 2746,
      "▁disease": 2747,
      "iver": 2748,
      "illy": 2749,
      "▁whenever": 2750,
      "cise": 2751,
      "tok": 2752,
      "odes": 2753,
      "host": 2754,
      "▁clos": 2755,
      "▁draw": 2756,
      "▁united": 2757,
      "▁confidence": 2758,
      "▁gotta": 2759,
      "▁lots": 2760,
      "ledge": 2761,
      "▁google": 2762,
      "ael": 2763,
      "▁rand": 2764,
      "▁service": 2765,
      "▁simp": 2766,
      "uary": 2767,
      "▁tik": 2768,
      "aste": 2769,
      "▁scre": 2770,
      "▁expensive": 2771,
      "▁double": 2772,
      "▁pandemic": 2773,
      "▁birth": 2774,
      "how": 2775,
      "▁showed": 2776,
      "▁kinds": 2777,
      "roud": 2778,
      "▁mach": 2779,
      "▁lin": 2780,
      "▁fur": 2781,
      "▁fascin": 2782,
      "▁tiktok": 2783,
      "bar": 2784,
      "▁relig": 2785,
      "▁local": 2786,
      "▁surpri": 2787,
      "oon": 2788,
      "▁individ": 2789,
      "▁conversations": 2790,
      "nday": 2791,
      "▁coleman": 2792,
      "▁coun": 2793,
      "▁matthews": 2794,
      "▁bag": 2795,
      "lling": 2796,
      "▁keeping": 2797,
      "▁freedom": 2798,
      "▁proud": 2799,
      "uce": 2800,
      "▁triple": 2801,
      "▁boys": 2802,
      "▁changing": 2803,
      "▁deloney": 2804,
      "▁price": 2805,
      "oo": 2806,
      "ustom": 2807,
      "▁boyfriend": 2808,
      "ised": 2809,
      "▁sil": 2810,
      "▁theory": 2811,
      "▁comfortable": 2812,
      "▁hilar": 2813,
      "▁mount": 2814,
      "▁fed": 2815,
      "▁carry": 2816,
      "▁trip": 2817,
      "▁network": 2818,
      "unt": 2819,
      "▁language": 2820,
      "▁david": 2821,
      "do": 2822,
      "hel": 2823,
      "▁port": 2824,
      "aul": 2825,
      "▁pretend": 2826,
      "ption": 2827,
      "▁hilarious": 2828,
      "▁drinking": 2829,
      "▁killing": 2830,
      "▁expenses": 2831,
      "▁younger": 2832,
      "▁losing": 2833,
      "▁collect": 2834,
      "struct": 2835,
      "▁famil": 2836,
      "▁connected": 2837,
      "▁color": 2838,
      "▁sister": 2839,
      "▁crow": 2840,
      "▁ali": 2841,
      "▁whoa": 2842,
      "▁switch": 2843,
      "itions": 2844,
      "▁beings": 2845,
      "▁disco": 2846,
      "▁choice": 2847,
      "ively": 2848,
      "▁terrif": 2849,
      "▁option": 2850,
      "▁wondering": 2851,
      "oun": 2852,
      "ination": 2853,
      "sess": 2854,
      "▁playoffs": 2855,
      "▁4": 2856,
      "▁drugs": 2857,
      "su": 2858,
      "▁camera": 2859,
      "▁argument": 2860,
      "▁hmm": 2861,
      "▁los": 2862,
      "▁private": 2863,
      "urious": 2864,
      "▁payments": 2865,
      "▁natural": 2866,
      "▁moments": 2867,
      "hol": 2868,
      "mber": 2869,
      "▁apple": 2870,
      "▁ver": 2871,
      "▁lower": 2872,
      "▁punch": 2873,
      "ivity": 2874,
      "▁apartment": 2875,
      "▁influ": 2876,
      "▁others": 2877,
      "▁design": 2878,
      "▁practice": 2879,
      "▁bottom": 2880,
      "▁vit": 2881,
      "▁author": 2882,
      "▁ban": 2883,
      "▁island": 2884,
      "▁deserve": 2885,
      "▁sucks": 2886,
      "▁billion": 2887,
      "▁missing": 2888,
      "▁average": 2889,
      "▁mer": 2890,
      "▁including": 2891,
      "nam": 2892,
      "▁shots": 2893,
      "▁purch": 2894,
      "▁prin": 2895,
      "▁rules": 2896,
      "▁visit": 2897,
      "▁disc": 2898,
      "▁final": 2899,
      "help": 2900,
      "arm": 2901,
      "▁partner": 2902,
      "▁winning": 2903,
      "▁connection": 2904,
      "▁divor": 2905,
      "▁hol": 2906,
      "▁upset": 2907,
      "▁civ": 2908,
      "▁gang": 2909,
      "▁diet": 2910,
      "▁vacc": 2911,
      "▁sever": 2912,
      "▁puts": 2913,
      "▁legit": 2914,
      "▁rule": 2915,
      "▁austin": 2916,
      "▁born": 2917,
      "▁millions": 2918,
      "iff": 2919,
      "▁edm": 2920,
      "gth": 2921,
      "ros": 2922,
      "▁king": 2923,
      "ipping": 2924,
      "fer": 2925,
      "elve": 2926,
      "▁manage": 2927,
      "bel": 2928,
      "▁fail": 2929,
      "▁twelve": 2930,
      "▁meeting": 2931,
      "▁russ": 2932,
      "▁comments": 2933,
      "▁action": 2934,
      "▁intention": 2935,
      "▁miles": 2936,
      "▁mentioned": 2937,
      "▁fantastic": 2938,
      "▁individual": 2939,
      "▁league": 2940,
      "▁heavy": 2941,
      "▁medic": 2942,
      "▁shift": 2943,
      "▁assh": 2944,
      "▁crime": 2945,
      "▁giant": 2946,
      "▁consider": 2947,
      "▁james": 2948,
      "▁arm": 2949,
      "▁tomorrow": 2950,
      "▁vanc": 2951,
      "▁engine": 2952,
      "ouver": 2953,
      "▁legal": 2954,
      "▁athlet": 2955,
      "▁spread": 2956,
      "▁phil": 2957,
      "▁university": 2958,
      "▁vancouver": 2959,
      "▁forgot": 2960,
      "▁document": 2961,
      "ery": 2962,
      "▁stock": 2963,
      "▁boston": 2964,
      "▁corner": 2965,
      "iam": 2966,
      "▁hole": 2967,
      "▁suff": 2968,
      "▁carol": 2969,
      "▁phones": 2970,
      "▁options": 2971,
      "ule": 2972,
      "▁band": 2973,
      "▁policy": 2974,
      "▁bruins": 2975,
      "▁rece": 2976,
      "▁oppos": 2977,
      "ented": 2978,
      "▁mir": 2979,
      "ension": 2980,
      "▁cops": 2981,
      "▁gain": 2982,
      "▁apply": 2983,
      "▁heal": 2984,
      "▁however": 2985,
      "▁betterhelp": 2986,
      "▁michael": 2987,
      "▁direction": 2988,
      "▁journey": 2989,
      "▁north": 2990,
      "atest": 2991,
      "▁greatest": 2992,
      "▁character": 2993,
      "▁comment": 2994,
      "▁doub": 2995,
      "▁lock": 2996,
      "hold": 2997,
      "▁vote": 2998,
      "ission": 2999,
      "▁hospital": 3000,
      "▁suck": 3001,
      "ari": 3002,
      "▁smell": 3003,
      "▁accord": 3004,
      "▁strateg": 3005,
      "▁tend": 3006,
      "▁above": 3007,
      "aly": 3008,
      "▁loves": 3009,
      "▁comput": 3010,
      "▁bon": 3011,
      "▁nash": 3012,
      "▁rough": 3013,
      "▁sand": 3014,
      "▁quit": 3015,
      "▁prior": 3016,
      "ives": 3017,
      "▁advant": 3018,
      "▁industry": 3019,
      "imately": 3020,
      "▁screen": 3021,
      "▁wood": 3022,
      "▁penalty": 3023,
      "▁emotion": 3024,
      "▁jan": 3025,
      "▁simply": 3026,
      "▁several": 3027,
      "cket": 3028,
      "▁chann": 3029,
      "▁breathing": 3030,
      "▁civil": 3031,
      "▁hill": 3032,
      "▁mater": 3033,
      "▁cow": 3034,
      "▁personally": 3035,
      "▁gym": 3036,
      "▁rout": 3037,
      "ades": 3038,
      "raph": 3039,
      "▁hopefully": 3040,
      "iced": 3041,
      "▁contact": 3042,
      "▁pulled": 3043,
      "▁nuts": 3044,
      "▁intellig": 3045,
      "▁democr": 3046,
      "▁pack": 3047,
      "▁spirit": 3048,
      "▁somehow": 3049,
      "▁respon": 3050,
      "▁tired": 3051,
      "▁helped": 3052,
      "▁animals": 3053,
      "▁yep": 3054,
      "▁tit": 3055,
      "onto": 3056,
      "ground": 3057,
      "check": 3058,
      "▁disapp": 3059,
      "▁vitam": 3060,
      "ral": 3061,
      "▁page": 3062,
      "▁boom": 3063,
      "▁walked": 3064,
      "▁leafs": 3065,
      "▁crowd": 3066,
      "▁custom": 3067,
      "▁hasn": 3068,
      "▁professional": 3069,
      "▁moon": 3070,
      "▁veh": 3071,
      "▁toronto": 3072,
      "por": 3073,
      "▁wanting": 3074,
      "▁ai": 3075,
      "▁wonderful": 3076,
      "▁summer": 3077,
      "▁passed": 3078,
      "▁sac": 3079,
      "▁helping": 3080,
      "▁fourth": 3081,
      "▁following": 3082,
      "ky": 3083,
      "▁gay": 3084,
      "▁webs": 3085,
      "▁ur": 3086,
      "▁leaving": 3087,
      "▁jail": 3088,
      "▁frustr": 3089,
      "itional": 3090,
      "▁broken": 3091,
      "over": 3092,
      "▁exciting": 3093,
      "▁pattern": 3094,
      "▁motherfucker": 3095,
      "▁nashville": 3096,
      "▁mask": 3097,
      "▁episodes": 3098,
      "▁snow": 3099,
      "▁vegas": 3100,
      "▁tar": 3101,
      "ature": 3102,
      "▁radio": 3103,
      "ration": 3104,
      "▁ut": 3105,
      "▁nur": 3106,
      "ares": 3107,
      "▁investment": 3108,
      "▁unfortunately": 3109,
      "▁od": 3110,
      "▁discuss": 3111,
      "▁exercise": 3112,
      "▁twe": 3113,
      "▁tells": 3114,
      "▁restaurant": 3115,
      "down": 3116,
      "▁knock": 3117,
      "▁core": 3118,
      "▁fights": 3119,
      "▁consum": 3120,
      "ha": 3121,
      "▁wol": 3122,
      "iot": 3123,
      "▁rates": 3124,
      "udes": 3125,
      "▁evol": 3126,
      "▁judge": 3127,
      "ec": 3128,
      "▁sexual": 3129,
      "▁gradu": 3130,
      "▁cook": 3131,
      "▁download": 3132,
      "arter": 3133,
      "▁champ": 3134,
      "issy": 3135,
      "▁humans": 3136,
      "▁financially": 3137,
      "nal": 3138,
      "▁agg": 3139,
      "▁planet": 3140,
      "▁article": 3141,
      "▁anti": 3142,
      "▁trauma": 3143,
      "▁hello": 3144,
      "▁curious": 3145,
      "▁prison": 3146,
      "▁role": 3147,
      "ulate": 3148,
      "▁spo": 3149,
      "iment": 3150,
      "▁clim": 3151,
      "▁parts": 3152,
      "▁marner": 3153,
      "▁faster": 3154,
      "▁yester": 3155,
      "▁gut": 3156,
      "▁therapist": 3157,
      "▁political": 3158,
      "▁likes": 3159,
      "▁bom": 3160,
      "▁according": 3161,
      "▁yesterday": 3162,
      "pn": 3163,
      "erson": 3164,
      "▁members": 3165,
      "▁lucky": 3166,
      "tle": 3167,
      "▁tight": 3168,
      "▁written": 3169,
      "iny": 3170,
      "▁bare": 3171,
      "sc": 3172,
      "ently": 3173,
      "▁survive": 3174,
      "▁threat": 3175,
      "▁bucks": 3176,
      "▁charge": 3177,
      "ex": 3178,
      "▁jim": 3179,
      "▁dogs": 3180,
      "uses": 3181,
      "▁sear": 3182,
      "▁finding": 3183,
      "▁scene": 3184,
      "▁fascinating": 3185,
      "wise": 3186,
      "▁sour": 3187,
      "rel": 3188,
      "▁advantage": 3189,
      "▁bey": 3190,
      "▁turns": 3191,
      "etic": 3192,
      "▁emp": 3193,
      "fend": 3194,
      "▁protest": 3195,
      "bby": 3196,
      "▁further": 3197,
      "usting": 3198,
      "▁breaking": 3199,
      "▁object": 3200,
      "▁website": 3201,
      "▁rom": 3202,
      "▁film": 3203,
      "▁destro": 3204,
      "▁nose": 3205,
      "▁sched": 3206,
      "▁specifically": 3207,
      "▁massive": 3208,
      "ino": 3209,
      "▁wins": 3210,
      "▁challenge": 3211,
      "▁speed": 3212,
      "▁narc": 3213,
      "▁encou": 3214,
      "▁response": 3215,
      "▁neck": 3216,
      "▁prim": 3217,
      "▁screw": 3218,
      "▁shooting": 3219,
      "men": 3220,
      "aries": 3221,
      "iev": 3222,
      "▁material": 3223,
      "▁paul": 3224,
      "▁complic": 3225,
      "▁journal": 3226,
      "▁approach": 3227,
      "itude": 3228,
      "▁hundreds": 3229,
      "▁mont": 3230,
      "▁consist": 3231,
      "▁popular": 3232,
      "▁magic": 3233,
      "▁mountain": 3234,
      "anta": 3235,
      "aged": 3236,
      "▁plays": 3237,
      "▁dreams": 3238,
      "▁init": 3239,
      "bert": 3240,
      "▁guest": 3241,
      "aps": 3242,
      "▁cruz": 3243,
      "▁podcasts": 3244,
      "sa": 3245,
      "oming": 3246,
      "▁mr": 3247,
      "▁steal": 3248,
      "▁milliona": 3249,
      "iet": 3250,
      "ocks": 3251,
      "▁cross": 3252,
      "▁events": 3253,
      "▁angry": 3254,
      "▁search": 3255,
      "▁beyond": 3256,
      "eral": 3257,
      "pping": 3258,
      "▁pool": 3259,
      "▁random": 3260,
      "▁dry": 3261,
      "▁missed": 3262,
      "▁separate": 3263,
      "uel": 3264,
      "▁ach": 3265,
      "▁lad": 3266,
      "lli": 3267,
      "▁kidding": 3268,
      "▁regard": 3269,
      "▁till": 3270,
      "▁percentage": 3271,
      "vent": 3272,
      "▁whe": 3273,
      "▁hook": 3274,
      "▁harder": 3275,
      "▁taught": 3276,
      "▁boo": 3277,
      "▁benefit": 3278,
      "asing": 3279,
      "▁plane": 3280,
      "▁pictures": 3281,
      "rop": 3282,
      "▁porn": 3283,
      "izz": 3284,
      "▁covered": 3285,
      "▁hunting": 3286,
      "▁increase": 3287,
      "▁attract": 3288,
      "▁dy": 3289,
      "▁raise": 3290,
      "▁ride": 3291,
      "airs": 3292,
      "▁fresh": 3293,
      "▁subject": 3294,
      "▁canada": 3295,
      "▁awful": 3296,
      "▁narciss": 3297,
      "ech": 3298,
      "▁spl": 3299,
      "▁hoping": 3300,
      "▁minim": 3301,
      "▁shape": 3302,
      "▁van": 3303,
      "▁park": 3304,
      "▁gro": 3305,
      "▁national": 3306,
      "▁forth": 3307,
      "▁murd": 3308,
      "▁quality": 3309,
      "▁effort": 3310,
      "▁hon": 3311,
      "lled": 3312,
      "▁inn": 3313,
      "▁creating": 3314,
      "▁complain": 3315,
      "▁channel": 3316,
      "ival": 3317,
      "erm": 3318,
      "▁fred": 3319,
      "▁ends": 3320,
      "▁particularly": 3321,
      "▁size": 3322,
      "▁talks": 3323,
      "▁alth": 3324,
      "▁depart": 3325,
      "▁twice": 3326,
      "▁lic": 3327,
      "▁cancer": 3328,
      "▁lean": 3329,
      "▁buddy": 3330,
      "▁cha": 3331,
      "▁opposite": 3332,
      "▁although": 3333,
      "cohol": 3334,
      "▁feelings": 3335,
      "▁panthers": 3336,
      "▁pig": 3337,
      "style": 3338,
      "▁nic": 3339,
      "▁agent": 3340,
      "▁possibly": 3341,
      "▁nin": 3342,
      "▁cloth": 3343,
      "▁universe": 3344,
      "odies": 3345,
      "▁victim": 3346,
      "▁ign": 3347,
      "▁cases": 3348,
      "▁concerned": 3349,
      "▁aspect": 3350,
      "▁vot": 3351,
      "▁email": 3352,
      "here": 3353,
      "bell": 3354,
      "▁chem": 3355,
      "▁seriously": 3356,
      "▁laughing": 3357,
      "▁admit": 3358,
      "▁farm": 3359,
      "▁mcd": 3360,
      "▁mush": 3361,
      "ees": 3362,
      "▁er": 3363,
      "▁friday": 3364,
      "ulations": 3365,
      "▁crap": 3366,
      "▁ange": 3367,
      "▁guarant": 3368,
      "port": 3369,
      "▁floor": 3370,
      "wood": 3371,
      "▁seemed": 3372,
      "▁attach": 3373,
      "▁excuse": 3374,
      "▁situations": 3375,
      "▁esc": 3376,
      "▁picked": 3377,
      "▁foc": 3378,
      "▁meal": 3379,
      "▁log": 3380,
      "▁potential": 3381,
      "ences": 3382,
      "▁soft": 3383,
      "▁chrissy": 3384,
      "▁virus": 3385,
      "▁tickets": 3386,
      "▁liqu": 3387,
      "▁entertain": 3388,
      "▁jeff": 3389,
      "▁doubt": 3390,
      "iving": 3391,
      "▁ari": 3392,
      "▁flu": 3393,
      "▁throwing": 3394,
      "▁economy": 3395,
      "▁yours": 3396,
      "▁letting": 3397,
      "▁hung": 3398,
      "▁tony": 3399,
      "▁alcohol": 3400,
      "▁vol": 3401,
      "▁cand": 3402,
      "▁button": 3403,
      "▁drunk": 3404,
      "tain": 3405,
      "▁master": 3406,
      "ids": 3407,
      "▁tem": 3408,
      "▁struct": 3409,
      "▁ira": 3410,
      "ograph": 3411,
      "▁signed": 3412,
      "▁thirty": 3413,
      "▁style": 3414,
      "▁contrib": 3415,
      "▁busines": 3416,
      "▁model": 3417,
      "▁businesses": 3418,
      "oss": 3419,
      "ray": 3420,
      "▁tree": 3421,
      "▁audio": 3422,
      "▁driver": 3423,
      "▁levels": 3424,
      "ey": 3425,
      "▁named": 3426,
      "▁choices": 3427,
      "▁mut": 3428,
      "▁smoke": 3429,
      "▁princi": 3430,
      "▁ble": 3431,
      "▁movement": 3432,
      "▁mindset": 3433,
      "▁wide": 3434,
      "ender": 3435,
      "▁honey": 3436,
      "▁block": 3437,
      "▁hits": 3438,
      "▁studies": 3439,
      "▁daily": 3440,
      "▁sou": 3441,
      "▁bound": 3442,
      "ona": 3443,
      "▁lack": 3444,
      "▁address": 3445,
      "▁trick": 3446,
      "▁legs": 3447,
      "▁wrest": 3448,
      "▁fort": 3449,
      "▁boss": 3450,
      "▁uncom": 3451,
      "▁cree": 3452,
      "▁stren": 3453,
      "▁capital": 3454,
      "▁pounds": 3455,
      "▁confident": 3456,
      "ued": 3457,
      "▁pause": 3458,
      "▁telev": 3459,
      "▁hotel": 3460,
      "▁domin": 3461,
      "▁march": 3462,
      "▁habit": 3463,
      "▁wedding": 3464,
      "▁hall": 3465,
      "▁uh": 3466,
      "▁hero": 3467,
      "▁identity": 3468,
      "▁asshole": 3469,
      "ius": 3470,
      "▁tro": 3471,
      "▁meth": 3472,
      "▁liked": 3473,
      "▁bob": 3474,
      "▁arrest": 3475,
      "▁countries": 3476,
      "▁areas": 3477,
      "▁vul": 3478,
      "▁throughout": 3479,
      "ocking": 3480,
      "▁grab": 3481,
      "flix": 3482,
      "▁wherever": 3483,
      "▁machine": 3484,
      "rative": 3485,
      "▁jesse": 3486,
      "free": 3487,
      "▁corpor": 3488,
      "▁setting": 3489,
      "▁netflix": 3490,
      "rit": 3491,
      "▁leaps": 3492,
      "▁finger": 3493,
      "▁strength": 3494,
      "▁dying": 3495,
      "▁sens": 3496,
      "▁factor": 3497,
      "▁mushroom": 3498,
      "▁focused": 3499,
      "aff": 3500,
      "lect": 3501,
      "▁pushing": 3502,
      "▁ufc": 3503,
      "hab": 3504,
      "vin": 3505,
      "▁unbel": 3506,
      "▁experiences": 3507,
      "▁education": 3508,
      "▁uncomfortable": 3509,
      "▁respond": 3510,
      "▁jersey": 3511,
      "▁sym": 3512,
      "▁promise": 3513,
      "▁sugar": 3514,
      "▁tweet": 3515,
      "▁gam": 3516,
      "▁hadn": 3517,
      "▁nav": 3518,
      "easure": 3519,
      "▁staying": 3520,
      "oking": 3521,
      "▁easily": 3522,
      "▁matters": 3523,
      "ai": 3524,
      "▁upon": 3525,
      "▁exce": 3526,
      "▁fell": 3527,
      "▁complicated": 3528,
      "gment": 3529,
      "▁gig": 3530,
      "aud": 3531,
      "▁happiness": 3532,
      "▁unbeliev": 3533,
      "▁review": 3534,
      "order": 3535,
      "▁lawy": 3536,
      "▁lifestyle": 3537,
      "ipped": 3538,
      "▁carolina": 3539,
      "die": 3540,
      "▁aggressive": 3541,
      "▁disci": 3542,
      "▁target": 3543,
      "▁bat": 3544,
      "▁range": 3545,
      "▁paycheck": 3546,
      "▁christian": 3547,
      "▁40": 3548,
      "▁isra": 3549,
      "▁flying": 3550,
      "▁oilers": 3551,
      "▁note": 3552,
      "▁distr": 3553,
      "▁speech": 3554,
      "▁balls": 3555,
      "▁television": 3556,
      "▁purchase": 3557,
      "lus": 3558,
      "▁fired": 3559,
      "▁satur": 3560,
      "▁israel": 3561,
      "ado": 3562,
      "▁teen": 3563,
      "▁attor": 3564,
      "▁surger": 3565,
      "▁signific": 3566,
      "▁3": 3567,
      "▁rare": 3568,
      "▁brilli": 3569,
      "▁neighborhood": 3570,
      "▁exec": 3571,
      "▁acting": 3572,
      "▁achie": 3573,
      "nch": 3574,
      "▁et": 3575,
      "▁tun": 3576,
      "▁pu": 3577,
      "▁jew": 3578,
      "▁ash": 3579,
      "▁bird": 3580,
      "ron": 3581,
      "▁wise": 3582,
      "▁washing": 3583,
      "▁scr": 3584,
      "▁listeners": 3585,
      "▁accounts": 3586,
      "▁passion": 3587,
      "▁thri": 3588,
      "▁names": 3589,
      "▁function": 3590,
      "▁enter": 3591,
      "▁bathroom": 3592,
      "▁plant": 3593,
      "▁background": 3594,
      "▁conscious": 3595,
      "ki": 3596,
      "▁embar": 3597,
      "▁expert": 3598,
      "▁grown": 3599,
      "▁americans": 3600,
      "▁loud": 3601,
      "▁busy": 3602,
      "▁cance": 3603,
      "▁whoever": 3604,
      "▁repres": 3605,
      "▁hust": 3606,
      "▁mm": 3607,
      "anced": 3608,
      "▁rap": 3609,
      "▁capt": 3610,
      "▁tools": 3611,
      "bur": 3612,
      "ients": 3613,
      "▁sen": 3614,
      "▁ven": 3615,
      "soci": 3616,
      "whel": 3617,
      "▁notice": 3618,
      "▁struggling": 3619,
      "▁wing": 3620,
      "▁prote": 3621,
      "▁mostly": 3622,
      "▁teaching": 3623,
      "▁responsibility": 3624,
      "▁birthday": 3625,
      "▁depression": 3626,
      "▁responsible": 3627,
      "▁egg": 3628,
      "▁cig": 3629,
      "aging": 3630,
      "bid": 3631,
      "▁discipl": 3632,
      "▁embarr": 3633,
      "▁borrow": 3634,
      "▁shame": 3635,
      "▁lif": 3636,
      "▁onto": 3637,
      "▁ring": 3638,
      "▁knowledge": 3639,
      "▁resour": 3640,
      "▁growth": 3641,
      "▁oct": 3642,
      "▁effective": 3643,
      "▁subscribe": 3644,
      "kin": 3645,
      "▁unl": 3646,
      "▁led": 3647,
      "▁aside": 3648,
      "▁systems": 3649,
      "▁vitamin": 3650,
      "anna": 3651,
      "▁overwhel": 3652,
      "▁accident": 3653,
      "▁studio": 3654,
      "▁sacrif": 3655,
      "▁loss": 3656,
      "▁mix": 3657,
      "▁saf": 3658,
      "▁budgeting": 3659,
      "▁dudes": 3660,
      "▁eur": 3661,
      "▁east": 3662,
      "▁mirror": 3663,
      "▁destroy": 3664,
      "▁du": 3665,
      "▁brings": 3666,
      "▁flight": 3667,
      "▁disg": 3668,
      "▁physically": 3669,
      "▁square": 3670,
      "▁sharing": 3671,
      "▁facebook": 3672,
      "vert": 3673,
      "▁shout": 3674,
      "▁becoming": 3675,
      "▁otherwise": 3676,
      "uing": 3677,
      "▁weap": 3678,
      "chan": 3679,
      "▁improve": 3680,
      "▁organization": 3681,
      "▁noticed": 3682,
      "▁planning": 3683,
      "▁horse": 3684,
      "▁football": 3685,
      "▁europe": 3686,
      "▁william": 3687,
      "▁photo": 3688,
      "▁weak": 3689,
      "▁hun": 3690,
      "▁dance": 3691,
      "▁assume": 3692,
      "▁computer": 3693,
      "iction": 3694,
      "▁trial": 3695,
      "▁mexic": 3696,
      "▁dall": 3697,
      "▁ren": 3698,
      "▁ry": 3699,
      "▁proper": 3700,
      "▁families": 3701,
      "ario": 3702,
      "▁join": 3703,
      "▁leader": 3704,
      "▁vulner": 3705,
      "▁hat": 3706,
      "▁household": 3707,
      "▁pulling": 3708,
      "▁schedule": 3709,
      "▁locked": 3710,
      "▁brilliant": 3711,
      "▁narrative": 3712,
      "▁recognize": 3713,
      "▁platform": 3714,
      "▁closer": 3715,
      "▁tip": 3716,
      "▁ow": 3717,
      "▁abs": 3718,
      "▁sales": 3719,
      "▁clip": 3720,
      "▁carl": 3721,
      "▁suggest": 3722,
      "▁pit": 3723,
      "▁rev": 3724,
      "▁broad": 3725,
      "▁teacher": 3726,
      "▁fault": 3727,
      "▁breathe": 3728,
      "▁liquid": 3729,
      "▁safety": 3730,
      "▁beach": 3731,
      "▁intense": 3732,
      "▁rub": 3733,
      "▁overall": 3734,
      "wor": 3735,
      "sequ": 3736,
      "▁immune": 3737,
      "▁january": 3738,
      "▁flag": 3739,
      "▁opening": 3740,
      "▁statement": 3741,
      "▁dallas": 3742,
      "▁scar": 3743,
      "▁disag": 3744,
      "▁hitting": 3745,
      "lor": 3746,
      "▁battle": 3747,
      "▁reb": 3748,
      "▁butt": 3749,
      "▁guns": 3750,
      "▁experienced": 3751,
      "▁extremely": 3752,
      "▁department": 3753,
      "urs": 3754,
      "▁producer": 3755,
      "▁row": 3756,
      "usted": 3757,
      "▁comics": 3758,
      "▁shoes": 3759,
      "▁dropped": 3760,
      "aked": 3761,
      "▁prov": 3762,
      "ago": 3763,
      "cul": 3764,
      "▁und": 3765,
      "▁activ": 3766,
      "▁crimin": 3767,
      "ships": 3768,
      "▁ger": 3769,
      "▁sale": 3770,
      "▁joined": 3771,
      "▁imposs": 3772,
      "▁champion": 3773,
      "▁toxic": 3774,
      "▁funds": 3775,
      "▁ain": 3776,
      "▁lying": 3777,
      "▁liber": 3778,
      "▁atl": 3779,
      "▁manip": 3780,
      "▁agre": 3781,
      "▁illeg": 3782,
      "▁chicken": 3783,
      "▁tap": 3784,
      "▁among": 3785,
      "▁closed": 3786,
      "▁bedroom": 3787,
      "▁results": 3788,
      "▁original": 3789,
      "▁bodies": 3790,
      "ason": 3791,
      "▁notes": 3792,
      "▁sending": 3793,
      "▁detect": 3794,
      "ancing": 3795,
      "▁receive": 3796,
      "▁prem": 3797,
      "▁memory": 3798,
      "▁divorce": 3799,
      "ners": 3800,
      "▁mechan": 3801,
      "▁manife": 3802,
      "▁fox": 3803,
      "▁cute": 3804,
      "▁fem": 3805,
      "▁bang": 3806,
      "▁gross": 3807,
      "▁nick": 3808,
      "▁jones": 3809,
      "ilities": 3810,
      "▁stars": 3811,
      "▁due": 3812,
      "▁relax": 3813,
      "sessed": 3814,
      "aks": 3815,
      "▁sea": 3816,
      "▁ron": 3817,
      "▁release": 3818,
      "▁impossible": 3819,
      "▁concept": 3820,
      "▁solution": 3821,
      "▁depends": 3822,
      "iring": 3823,
      "akes": 3824,
      "▁saturday": 3825,
      "any": 3826,
      "▁associ": 3827,
      "▁teeth": 3828,
      "▁goalie": 3829,
      "▁annoy": 3830,
      "issed": 3831,
      "▁bye": 3832,
      "mission": 3833,
      "▁brown": 3834,
      "▁killer": 3835,
      "▁rental": 3836,
      "▁tested": 3837,
      "▁odd": 3838,
      "py": 3839,
      "▁solve": 3840,
      "▁manager": 3841,
      "bi": 3842,
      "▁rose": 3843,
      "▁comic": 3844,
      "▁introd": 3845,
      "▁generation": 3846,
      "▁ultimately": 3847,
      "▁eth": 3848,
      "eased": 3849,
      "▁rain": 3850,
      "amm": 3851,
      "▁critic": 3852,
      "▁chaos": 3853,
      "▁weed": 3854,
      "▁roth": 3855,
      "rep": 3856,
      "▁chill": 3857,
      "▁population": 3858,
      "eared": 3859,
      "ider": 3860,
      "ril": 3861,
      "▁progress": 3862,
      "▁amazon": 3863,
      "gging": 3864,
      "▁faith": 3865,
      "▁barely": 3866,
      "▁attorney": 3867,
      "onton": 3868,
      "▁conspir": 3869,
      "▁opened": 3870,
      "▁childhood": 3871,
      "▁female": 3872,
      "▁tiny": 3873,
      "▁edmonton": 3874,
      "ality": 3875,
      "▁defend": 3876,
      "▁robb": 3877,
      "▁houses": 3878,
      "▁lights": 3879,
      "▁checking": 3880,
      "▁401": 3881,
      "▁pants": 3882,
      "▁solid": 3883,
      "▁louis": 3884,
      "▁skills": 3885,
      "▁vehicle": 3886,
      "arters": 3887,
      "ifts": 3888,
      "▁jokes": 3889,
      "▁condition": 3890,
      "icing": 3891,
      "▁trained": 3892,
      "▁ded": 3893,
      "▁insec": 3894,
      "▁justin": 3895,
      "ches": 3896,
      "iling": 3897,
      "▁adj": 3898,
      "▁accom": 3899,
      "teen": 3900,
      "▁vacation": 3901,
      "imes": 3902,
      "▁consequ": 3903,
      "▁election": 3904,
      "▁crying": 3905,
      "icles": 3906,
      "▁goodness": 3907,
      "▁calm": 3908,
      "▁split": 3909,
      "ev": 3910,
      "▁wound": 3911,
      "▁buck": 3912,
      "ops": 3913,
      "oster": 3914,
      "▁directly": 3915,
      "▁fought": 3916,
      "▁emotions": 3917,
      "▁kicked": 3918,
      "▁congr": 3919,
      "▁express": 3920,
      "gy": 3921,
      "▁pizz": 3922,
      "lete": 3923,
      "▁beer": 3924,
      "▁ryan": 3925,
      "▁habits": 3926,
      "▁pill": 3927,
      "▁moves": 3928,
      "▁grocer": 3929,
      "▁pussy": 3930,
      "her": 3931,
      "ounce": 3932,
      "▁cas": 3933,
      "ites": 3934,
      "▁rights": 3935,
      "▁vision": 3936,
      "▁joy": 3937,
      "▁draft": 3938,
      "▁autom": 3939,
      "roph": 3940,
      "▁stan": 3941,
      "▁nights": 3942,
      "▁transition": 3943,
      "▁washington": 3944,
      "▁tear": 3945,
      "▁held": 3946,
      "▁careful": 3947,
      "▁leading": 3948,
      "ars": 3949,
      "▁shitty": 3950,
      "oti": 3951,
      "▁assess": 3952,
      "▁glass": 3953,
      "▁slowly": 3954,
      "▁stom": 3955,
      "▁construct": 3956,
      "▁flip": 3957,
      "bre": 3958,
      "▁react": 3959,
      "ateful": 3960,
      "▁prove": 3961,
      "ordan": 3962,
      "▁genius": 3963,
      "▁chic": 3964,
      "▁falling": 3965,
      "▁unique": 3966,
      "▁surgery": 3967,
      "▁401k": 3968,
      "pa": 3969,
      "▁virt": 3970,
      "▁strategy": 3971,
      "▁uk": 3972,
      "▁monday": 3973,
      "▁doctors": 3974,
      "▁incredibly": 3975,
      "▁unbelievable": 3976,
      "▁dump": 3977,
      "ended": 3978,
      "▁previous": 3979,
      "▁evil": 3980,
      "▁distance": 3981,
      "epend": 3982,
      "▁ide": 3983,
      "▁cru": 3984,
      "▁assist": 3985,
      "gor": 3986,
      "▁taste": 3987,
      "▁astr": 3988,
      "▁fifty": 3989,
      "▁sd": 3990,
      "▁trail": 3991,
      "▁blame": 3992,
      "▁electric": 3993,
      "cks": 3994,
      "iding": 3995,
      "▁um": 3996,
      "▁provid": 3997,
      "▁spin": 3998,
      "▁accur": 3999,
      "▁flex": 4000,
      "empt": 4001,
      "▁generally": 4002,
      "▁equity": 4003,
      "▁oly": 4004,
      "otes": 4005,
      "antic": 4006,
      "▁demand": 4007,
      "▁olymp": 4008,
      "ext": 4009,
      "ises": 4010,
      "▁values": 4011,
      "▁products": 4012,
      "▁protein": 4013,
      "▁gent": 4014,
      "▁boat": 4015,
      "▁pregn": 4016,
      "shaw": 4017,
      "▁standard": 4018,
      "▁hyp": 4019,
      "▁vaccine": 4020,
      "▁mistakes": 4021,
      "▁minimum": 4022,
      "ptom": 4023,
      "uzz": 4024,
      "▁majority": 4025,
      "▁pros": 4026,
      "▁runs": 4027,
      "bling": 4028,
      "▁link": 4029,
      "▁glo": 4030,
      "▁groups": 4031,
      "▁title": 4032,
      "oked": 4033,
      "ament": 4034,
      "▁grateful": 4035,
      "▁foods": 4036,
      "▁politics": 4037,
      "▁terrifying": 4038,
      "la": 4039,
      "▁bless": 4040,
      "▁anytime": 4041,
      "▁deeper": 4042,
      "▁struggle": 4043,
      "aine": 4044,
      "▁surprised": 4045,
      "▁disagree": 4046,
      "▁lind": 4047,
      "osing": 4048,
      "▁pieces": 4049,
      "▁reaction": 4050,
      "▁launch": 4051,
      "▁shirt": 4052,
      "▁quiet": 4053,
      "▁harm": 4054,
      "▁basic": 4055,
      "▁finances": 4056,
      "▁violence": 4057,
      "▁mal": 4058,
      "▁joining": 4059,
      "▁appear": 4060,
      "▁chee": 4061,
      "▁ladies": 4062,
      "▁alb": 4063,
      "▁unc": 4064,
      "▁conference": 4065,
      "house": 4066,
      "▁ord": 4067,
      "▁performance": 4068,
      "▁soul": 4069,
      "inn": 4070,
      "▁male": 4071,
      "▁exha": 4072,
      "▁chap": 4073,
      "ula": 4074,
      "▁sky": 4075,
      "▁susp": 4076,
      "▁rh": 4077,
      "atically": 4078,
      "▁repe": 4079,
      "▁context": 4080,
      "▁chicago": 4081,
      "▁andy": 4082,
      "▁resist": 4083,
      "▁horrif": 4084,
      "▁anal": 4085,
      "▁var": 4086,
      "▁visual": 4087,
      "▁scenario": 4088,
      "▁cycle": 4089,
      "▁guarantee": 4090,
      "bit": 4091,
      "▁sides": 4092,
      "lls": 4093,
      "▁laid": 4094,
      "▁salary": 4095,
      "real": 4096,
      "ously": 4097,
      "▁buff": 4098,
      "▁gentle": 4099,
      "ris": 4100,
      "inct": 4101,
      "▁leadership": 4102,
      "▁describe": 4103,
      "face": 4104,
      "▁hire": 4105,
      "▁cares": 4106,
      "itsu": 4107,
      "atory": 4108,
      "▁federal": 4109,
      "▁resources": 4110,
      "▁illegal": 4111,
      "▁wash": 4112,
      "▁brut": 4113,
      "▁horm": 4114,
      "▁basket": 4115,
      "▁limited": 4116,
      "▁lu": 4117,
      "▁josh": 4118,
      "▁promot": 4119,
      "▁ner": 4120,
      "▁differently": 4121,
      "▁obsessed": 4122,
      "▁damage": 4123,
      "▁turning": 4124,
      "▁ghost": 4125,
      "▁fro": 4126,
      "▁cris": 4127,
      "ublic": 4128,
      "▁confused": 4129,
      "▁former": 4130,
      "▁screaming": 4131,
      "ening": 4132,
      "▁complex": 4133,
      "▁april": 4134,
      "▁documentary": 4135,
      "dam": 4136,
      "aced": 4137,
      "cient": 4138,
      "▁raised": 4139,
      "▁canadian": 4140,
      "▁types": 4141,
      "▁holiday": 4142,
      "▁sav": 4143,
      "▁scri": 4144,
      "▁scale": 4145,
      "▁smaller": 4146,
      "▁racist": 4147,
      "▁agreed": 4148,
      "▁tied": 4149,
      "▁brad": 4150,
      "▁students": 4151,
      "lin": 4152,
      "▁fle": 4153,
      "▁pocket": 4154,
      "etime": 4155,
      "▁independ": 4156,
      "▁profit": 4157,
      "▁homes": 4158,
      "zz": 4159,
      "▁quarter": 4160,
      "▁flat": 4161,
      "inary": 4162,
      "▁zo": 4163,
      "▁republic": 4164,
      "▁19": 4165,
      "▁discovered": 4166,
      "▁jordan": 4167,
      "minist": 4168,
      "▁martin": 4169,
      "quarters": 4170,
      "▁scoring": 4171,
      "▁genu": 4172,
      "▁enjoyed": 4173,
      "▁negoti": 4174,
      "▁maintain": 4175,
      "▁yo": 4176,
      "▁plans": 4177,
      "▁spouse": 4178,
      "▁letter": 4179,
      "▁woke": 4180,
      "▁wine": 4181,
      "▁jay": 4182,
      "▁vag": 4183,
      "▁pray": 4184,
      "▁require": 4185,
      "uit": 4186,
      "▁dirty": 4187,
      "▁headquarters": 4188,
      "▁caused": 4189,
      "▁benefits": 4190,
      "▁accompl": 4191,
      "▁genuine": 4192,
      "▁muscle": 4193,
      "▁potentially": 4194,
      "ober": 4195,
      "uable": 4196,
      "▁holly": 4197,
      "▁remain": 4198,
      "▁bern": 4199,
      "▁dress": 4200,
      "▁schools": 4201,
      "▁confl": 4202,
      "▁depending": 4203,
      "▁principle": 4204,
      "▁excell": 4205,
      "care": 4206,
      "▁frame": 4207,
      "▁arch": 4208,
      "▁topic": 4209,
      "0th": 4210,
      "▁silly": 4211,
      "▁pal": 4212,
      "▁crash": 4213,
      "▁desp": 4214,
      "▁reasonable": 4215,
      "▁convin": 4216,
      "▁seat": 4217,
      "▁cheap": 4218,
      "inese": 4219,
      "▁earn": 4220,
      "yson": 4221,
      "▁babies": 4222,
      "▁adults": 4223,
      "▁emotionally": 4224,
      "▁pizza": 4225,
      "away": 4226,
      "▁si": 4227,
      "▁kiss": 4228,
      "▁chinese": 4229,
      "berg": 4230,
      "▁compar": 4231,
      "rene": 4232,
      "▁valid": 4233,
      "▁publish": 4234,
      "▁smoking": 4235,
      "▁critical": 4236,
      "▁method": 4237,
      "▁significant": 4238,
      "▁atlanta": 4239,
      "oud": 4240,
      "▁clin": 4241,
      "▁monthly": 4242,
      "▁highly": 4243,
      "▁charl": 4244,
      "▁accomplish": 4245,
      "▁jen": 4246,
      "▁helpful": 4247,
      "▁released": 4248,
      "▁ticket": 4249,
      "tch": 4250,
      "▁tape": 4251,
      "inks": 4252,
      "▁golf": 4253,
      "ask": 4254,
      "▁spect": 4255,
      "▁lawyer": 4256,
      "now": 4257,
      "▁tyson": 4258,
      "▁gender": 4259,
      "arett": 4260,
      "▁herself": 4261,
      "▁leaf": 4262,
      "▁services": 4263,
      "ox": 4264,
      "ablish": 4265,
      "▁debate": 4266,
      "rench": 4267,
      "▁details": 4268,
      "▁intelligence": 4269,
      "▁freak": 4270,
      "▁sleeping": 4271,
      "▁cau": 4272,
      "▁nation": 4273,
      "itation": 4274,
      "igr": 4275,
      "▁perfectly": 4276,
      "▁underw": 4277,
      "▁mcc": 4278,
      "▁lunch": 4279,
      "▁limit": 4280,
      "urally": 4281,
      "▁blind": 4282,
      "▁tay": 4283,
      "▁cast": 4284,
      "▁ship": 4285,
      "▁knocked": 4286,
      "▁optim": 4287,
      "▁committed": 4288,
      "▁cigarett": 4289,
      "▁script": 4290,
      "ba": 4291,
      "▁cab": 4292,
      "▁fi": 4293,
      "▁infect": 4294,
      "uments": 4295,
      "▁forced": 4296,
      "▁insp": 4297,
      "▁circum": 4298,
      "▁tall": 4299,
      "▁delic": 4300,
      "using": 4301,
      "▁root": 4302,
      "▁margin": 4303,
      "▁heads": 4304,
      "▁artist": 4305,
      "▁opportunities": 4306,
      "▁songs": 4307,
      "▁communicate": 4308,
      "point": 4309,
      "▁thr": 4310,
      "others": 4311,
      "▁belief": 4312,
      "▁competition": 4313,
      "net": 4314,
      "▁cia": 4315,
      "▁pissed": 4316,
      "vey": 4317,
      "▁development": 4318,
      "▁aug": 4319,
      "▁rehab": 4320,
      "acting": 4321,
      "▁vib": 4322,
      "▁brid": 4323,
      "ologist": 4324,
      "▁replace": 4325,
      "▁mutual": 4326,
      "▁vulnerable": 4327,
      "▁biz": 4328,
      "▁nons": 4329,
      "▁allows": 4330,
      "iel": 4331,
      "▁wis": 4332,
      "▁ham": 4333,
      "▁jac": 4334,
      "▁comfort": 4335,
      "▁talent": 4336,
      "▁related": 4337,
      "▁serve": 4338,
      "▁lesson": 4339,
      "▁valuable": 4340,
      "dollar": 4341,
      "▁boxing": 4342,
      "▁october": 4343,
      "▁chain": 4344,
      "▁dece": 4345,
      "▁suit": 4346,
      "▁deli": 4347,
      "▁mentally": 4348,
      "▁routine": 4349,
      "▁conflict": 4350,
      "▁picking": 4351,
      "▁anyways": 4352,
      "▁huh": 4353,
      "▁desper": 4354,
      "▁conserv": 4355,
      "board": 4356,
      "▁toward": 4357,
      "▁guil": 4358,
      "▁bond": 4359,
      "▁clothes": 4360,
      "▁mcdavid": 4361,
      "▁conspiracy": 4362,
      "▁congrat": 4363,
      "bl": 4364,
      "ique": 4365,
      "inc": 4366,
      "▁ego": 4367,
      "▁jose": 4368,
      "icient": 4369,
      "▁stressed": 4370,
      "weight": 4371,
      "▁facts": 4372,
      "▁demon": 4373,
      "▁argue": 4374,
      "▁russia": 4375,
      "▁taylor": 4376,
      "fo": 4377,
      "▁fighter": 4378,
      "▁suddenly": 4379,
      "▁finished": 4380,
      "▁bottle": 4381,
      "▁disgusting": 4382,
      "▁wrap": 4383,
      "▁loving": 4384,
      "▁nowhere": 4385,
      "▁warm": 4386,
      "▁achieve": 4387,
      "▁goddam": 4388,
      "▁settle": 4389,
      "▁sponsors": 4390,
      "▁designed": 4391,
      "▁stomach": 4392,
      "▁oce": 4393,
      "arre": 4394,
      "▁ramseysolutions": 4395,
      "▁expected": 4396,
      "▁politic": 4397,
      "▁possibility": 4398,
      "▁dynam": 4399,
      "▁anxious": 4400,
      "▁official": 4401,
      "▁religion": 4402,
      "▁wheel": 4403,
      "▁guilty": 4404,
      "▁wave": 4405,
      "▁jake": 4406,
      "▁encourage": 4407,
      "▁knee": 4408,
      "▁repor": 4409,
      "▁hom": 4410,
      "▁craz": 4411,
      "▁decades": 4412,
      "▁camer": 4413,
      "▁establish": 4414,
      "▁influence": 4415,
      "▁structure": 4416,
      "80s": 4417,
      "▁ack": 4418,
      "▁bert": 4419,
      "▁rush": 4420,
      "▁guard": 4421,
      "ulated": 4422,
      "▁offensive": 4423,
      "▁appl": 4424,
      "▁warshaw": 4425,
      "▁occas": 4426,
      "▁religious": 4427,
      "▁honor": 4428,
      "ceed": 4429,
      "▁linked": 4430,
      "▁spoke": 4431,
      "reprene": 4432,
      "▁nonsense": 4433,
      "reg": 4434,
      "▁drove": 4435,
      "▁chest": 4436,
      "▁interact": 4437,
      "▁entreprene": 4438,
      "▁messages": 4439,
      "▁micro": 4440,
      "▁tav": 4441,
      "omen": 4442,
      "▁arms": 4443,
      "▁smith": 4444,
      "▁swear": 4445,
      "▁mission": 4446,
      "▁symptom": 4447,
      "nn": 4448,
      "ustain": 4449,
      "▁unh": 4450,
      "▁bright": 4451,
      "▁relative": 4452,
      "▁source": 4453,
      "▁lift": 4454,
      "▁shower": 4455,
      "▁coron": 4456,
      "elle": 4457,
      "uff": 4458,
      "▁len": 4459,
      "▁cities": 4460,
      "ipe": 4461,
      "▁indic": 4462,
      "▁represent": 4463,
      "▁franc": 4464,
      "▁chemical": 4465,
      "▁goddamn": 4466,
      "▁acknow": 4467,
      "▁crack": 4468,
      "▁tavares": 4469,
      "ened": 4470,
      "ows": 4471,
      "▁upd": 4472,
      "▁formula": 4473,
      "▁considered": 4474,
      "▁status": 4475,
      "▁bowl": 4476,
      "▁excellent": 4477,
      "▁bizarre": 4478,
      "▁ox": 4479,
      "▁sunday": 4480,
      "osity": 4481,
      "▁attempt": 4482,
      "▁swim": 4483,
      "▁normally": 4484,
      "▁stone": 4485,
      "▁whereas": 4486,
      "▁below": 4487,
      "▁cutting": 4488,
      "▁counter": 4489,
      "▁athletes": 4490,
      "bble": 4491,
      "ica": 4492,
      "▁align": 4493,
      "agn": 4494,
      "ront": 4495,
      "▁empt": 4496,
      "▁minds": 4497,
      "▁camel": 4498,
      "▁subst": 4499,
      "▁chances": 4500,
      "▁phen": 4501,
      "▁grass": 4502,
      "▁seal": 4503,
      "▁dar": 4504,
      "▁hollywood": 4505,
      "▁august": 4506,
      "rick": 4507,
      "▁pap": 4508,
      "▁mary": 4509,
      "▁highest": 4510,
      "▁couch": 4511,
      "▁confir": 4512,
      "▁laws": 4513,
      "▁developed": 4514,
      "▁german": 4515,
      "▁congratulations": 4516,
      "▁mode": 4517,
      "▁campbell": 4518,
      "▁mitch": 4519,
      "▁item": 4520,
      "ota": 4521,
      "▁ancient": 4522,
      "▁discussion": 4523,
      "▁pregnant": 4524,
      "▁circumst": 4525,
      "jitsu": 4526,
      "pro": 4527,
      "▁categ": 4528,
      "▁shel": 4529,
      "▁idiot": 4530,
      "▁defensive": 4531,
      "▁connor": 4532,
      "▁woods": 4533,
      "▁regardless": 4534,
      "▁shared": 4535,
      "▁cong": 4536,
      "▁overtime": 4537,
      "▁acad": 4538,
      "▁afterwards": 4539,
      "▁traff": 4540,
      "▁album": 4541,
      "▁cro": 4542,
      "▁coc": 4543,
      "▁owner": 4544,
      "▁attached": 4545,
      "▁mexico": 4546,
      "▁assessment": 4547,
      "zen": 4548,
      "▁soph": 4549,
      "▁alarm": 4550,
      "eline": 4551,
      "▁necessary": 4552,
      "▁healing": 4553,
      "▁pun": 4554,
      "ste": 4555,
      "iles": 4556,
      "▁belt": 4557,
      "▁trusted": 4558,
      "▁drag": 4559,
      "▁sar": 4560,
      "stic": 4561,
      "vest": 4562,
      "▁sees": 4563,
      "gger": 4564,
      "▁ske": 4565,
      "▁boring": 4566,
      "▁actions": 4567,
      "▁circle": 4568,
      "▁wolf": 4569,
      "▁mob": 4570,
      "emy": 4571,
      "▁creative": 4572,
      "▁authent": 4573,
      "force": 4574,
      "▁discipline": 4575,
      "▁francis": 4576,
      "▁kim": 4577,
      "▁span": 4578,
      "▁lauren": 4579,
      "▁stretch": 4580,
      "▁wrestling": 4581,
      "▁station": 4582,
      "▁upgr": 4583,
      "▁afric": 4584,
      "▁creates": 4585,
      "▁christina": 4586,
      "▁virgin": 4587,
      "dom": 4588,
      "ume": 4589,
      "cher": 4590,
      "▁engage": 4591,
      "▁decade": 4592,
      "▁scored": 4593,
      "▁motivation": 4594,
      "▁annoying": 4595,
      "▁equal": 4596,
      "ification": 4597,
      "▁assuming": 4598,
      "▁motherfuckers": 4599,
      "▁fingers": 4600,
      "▁surprise": 4601,
      "▁site": 4602,
      "▁fal": 4603,
      "▁kitch": 4604,
      "▁plenty": 4605,
      "▁ramsaysolutions": 4606,
      "pr": 4607,
      "rees": 4608,
      "▁pow": 4609,
      "igning": 4610,
      "ables": 4611,
      "▁believed": 4612,
      "▁lone": 4613,
      "ief": 4614,
      "tting": 4615,
      "▁suic": 4616,
      "▁edge": 4617,
      "▁sacrifice": 4618,
      "▁conservative": 4619,
      "▁sustain": 4620,
      "▁pin": 4621,
      "roll": 4622,
      "▁active": 4623,
      "ifying": 4624,
      "▁brit": 4625,
      "▁profession": 4626,
      "▁mushrooms": 4627,
      "egr": 4628,
      "rated": 4629,
      "▁slight": 4630,
      "▁deeply": 4631,
      "▁opinions": 4632,
      "apt": 4633,
      "▁thom": 4634,
      "▁gard": 4635,
      "itiz": 4636,
      "▁rein": 4637,
      "aming": 4638,
      "aph": 4639,
      "aker": 4640,
      "▁promo": 4641,
      "▁rolling": 4642,
      "▁phenomen": 4643,
      "▁filled": 4644,
      "▁prepared": 4645,
      "▁arrested": 4646,
      "zona": 4647,
      "▁ted": 4648,
      "▁threw": 4649,
      "▁wit": 4650,
      "itor": 4651,
      "itar": 4652,
      "▁rum": 4653,
      "▁neu": 4654,
      "▁impro": 4655,
      "▁strang": 4656,
      "▁definition": 4657,
      "▁hyd": 4658,
      "▁arizona": 4659,
      "▁execut": 4660,
      "▁stanley": 4661,
      "▁crisis": 4662,
      "▁heat": 4663,
      "▁abuse": 4664,
      "▁clar": 4665,
      "▁compared": 4666,
      "▁experiment": 4667,
      "▁costs": 4668,
      "▁tie": 4669,
      "ato": 4670,
      "▁rat": 4671,
      "ucking": 4672,
      "gend": 4673,
      "▁kevin": 4674,
      "▁inspir": 4675,
      "▁basis": 4676,
      "▁sharon": 4677,
      "▁boundaries": 4678,
      "mate": 4679,
      "▁guilt": 4680,
      "ils": 4681,
      "▁drives": 4682,
      "uction": 4683,
      "▁colorado": 4684,
      "ham": 4685,
      "list": 4686,
      "otic": 4687,
      "▁justice": 4688,
      "▁donald": 4689,
      "ousing": 4690,
      "▁aftern": 4691,
      "▁opposed": 4692,
      "▁accurate": 4693,
      "▁december": 4694,
      "ailed": 4695,
      "▁highlight": 4696,
      "▁beauty": 4697,
      "keting": 4698,
      "▁load": 4699,
      "▁testing": 4700,
      "▁psyched": 4701,
      "▁staff": 4702,
      "▁anth": 4703,
      "athy": 4704,
      "▁kitchen": 4705,
      "▁whis": 4706,
      "▁plants": 4707,
      "▁legend": 4708,
      "▁drama": 4709,
      "▁glob": 4710,
      "▁wars": 4711,
      "▁communication": 4712,
      "▁scratch": 4713,
      "▁empty": 4714,
      "▁q": 4715,
      "▁shake": 4716,
      "▁quarant": 4717,
      "▁unf": 4718,
      "▁remo": 4719,
      "▁cheating": 4720,
      "▁medicine": 4721,
      "▁millionaires": 4722,
      "▁delicious": 4723,
      "▁instr": 4724,
      "▁naturally": 4725,
      "▁causes": 4726,
      "▁capable": 4727,
      "▁biological": 4728,
      "▁injury": 4729,
      "iar": 4730,
      "▁eric": 4731,
      "▁thumb": 4732,
      "▁cart": 4733,
      "▁disney": 4734,
      "▁provide": 4735,
      "▁sixt": 4736,
      "amine": 4737,
      "▁shoulder": 4738,
      "▁flames": 4739,
      "▁element": 4740,
      "▁campa": 4741,
      "▁evolution": 4742,
      "▁criminal": 4743,
      "▁bump": 4744,
      "tery": 4745,
      "▁roy": 4746,
      "▁fighters": 4747,
      "▁walks": 4748,
      "▁adjust": 4749,
      "▁cruise": 4750,
      "he": 4751,
      "uced": 4752,
      "▁asleep": 4753,
      "▁workout": 4754,
      "▁pair": 4755,
      "box": 4756,
      "▁comedian": 4757,
      "fast": 4758,
      "▁beating": 4759,
      "▁allowing": 4760,
      "▁restaurants": 4761,
      "▁whose": 4762,
      "▁everydollar": 4763,
      "▁vill": 4764,
      "asty": 4765,
      "▁prices": 4766,
      "▁desire": 4767,
      "▁posted": 4768,
      "▁classic": 4769,
      "ls": 4770,
      "▁parties": 4771,
      "▁arri": 4772,
      "ception": 4773,
      "▁engaged": 4774,
      "▁sweat": 4775,
      "▁photos": 4776,
      "▁production": 4777,
      "▁alien": 4778,
      "▁basketball": 4779,
      "▁afternoon": 4780,
      "▁tatt": 4781,
      "nda": 4782,
      "▁breaks": 4783,
      "▁teachers": 4784,
      "▁domi": 4785,
      "▁athletic": 4786,
      "▁began": 4787,
      "▁experts": 4788,
      "▁invested": 4789,
      "▁eleven": 4790,
      "▁central": 4791,
      "▁effects": 4792,
      "▁modern": 4793,
      "▁suspect": 4794,
      "▁tamp": 4795,
      "▁prosec": 4796,
      "▁administ": 4797,
      "▁headline": 4798,
      "▁equip": 4799,
      "▁ocean": 4800,
      "▁campaign": 4801,
      "▁housing": 4802,
      "▁reward": 4803,
      "oper": 4804,
      "▁robert": 4805,
      "▁image": 4806,
      "ifs": 4807,
      "▁revol": 4808,
      "▁ped": 4809,
      "▁jap": 4810,
      "▁myster": 4811,
      "▁amy": 4812,
      "▁species": 4813,
      "▁traveling": 4814,
      "cra": 4815,
      "cles": 4816,
      "anes": 4817,
      "▁copy": 4818,
      "ophy": 4819,
      "▁laying": 4820,
      "▁trend": 4821,
      "▁angeles": 4822,
      "▁waste": 4823,
      "▁leifs": 4824,
      "▁lineup": 4825,
      "▁scientists": 4826,
      "▁aliens": 4827,
      "▁bomb": 4828,
      "▁authentic": 4829,
      "▁psychedel": 4830,
      "▁mail": 4831,
      "▁haw": 4832,
      "▁deer": 4833,
      "▁trigger": 4834,
      "▁leads": 4835,
      "▁english": 4836,
      "▁athlete": 4837,
      "ndon": 4838,
      "▁arena": 4839,
      "▁chase": 4840,
      "▁answers": 4841,
      "▁gifts": 4842,
      "▁fraud": 4843,
      "▁harry": 4844,
      "▁bread": 4845,
      "▁joey": 4846,
      "▁corporate": 4847,
      "▁fer": 4848,
      "lla": 4849,
      "▁lee": 4850,
      "▁instit": 4851,
      "▁coaching": 4852,
      "mar": 4853,
      "▁theater": 4854,
      "bers": 4855,
      "▁despite": 4856,
      "bon": 4857,
      "gu": 4858,
      "▁hen": 4859,
      "▁cb": 4860,
      "▁pump": 4861,
      "▁shipping": 4862,
      "▁veget": 4863,
      "▁management": 4864,
      "▁suffering": 4865,
      "▁era": 4866,
      "▁hide": 4867,
      "▁pure": 4868,
      "▁sept": 4869,
      "▁sexy": 4870,
      "▁protection": 4871,
      "▁masks": 4872,
      "night": 4873,
      "▁treatment": 4874,
      "▁nurse": 4875,
      "▁tig": 4876,
      "▁yog": 4877,
      "▁cock": 4878,
      "▁apolog": 4879,
      "▁ray": 4880,
      "▁unp": 4881,
      "▁renting": 4882,
      "▁determ": 4883,
      "field": 4884,
      "isf": 4885,
      "▁jury": 4886,
      "▁chair": 4887,
      "▁hardest": 4888,
      "▁canucks": 4889,
      "▁spring": 4890,
      "▁brothers": 4891,
      "▁exclus": 4892,
      "▁refer": 4893,
      "▁painful": 4894,
      "▁wealthy": 4895,
      "▁primary": 4896,
      "▁equipment": 4897,
      "▁ber": 4898,
      "▁exists": 4899,
      "▁marketing": 4900,
      "▁followed": 4901,
      "▁jimmy": 4902,
      "▁ly": 4903,
      "▁py": 4904,
      "▁comedians": 4905,
      "▁ding": 4906,
      "▁roof": 4907,
      "▁disp": 4908,
      "▁moral": 4909,
      "▁deliver": 4910,
      "▁sentence": 4911,
      "ustral": 4912,
      "▁austral": 4913,
      "▁makeover": 4914,
      "▁listener": 4915,
      "▁fundament": 4916,
      "▁martial": 4917,
      "▁citiz": 4918,
      "▁gary": 4919,
      "imp": 4920,
      "▁finance": 4921,
      "▁identify": 4922,
      "▁traditional": 4923,
      "jo": 4924,
      "sides": 4925,
      "igate": 4926,
      "▁prime": 4927,
      "▁figuring": 4928,
      "▁sorts": 4929,
      "▁jumping": 4930,
      "▁tort": 4931,
      "▁ol": 4932,
      "▁dub": 4933,
      "▁cooking": 4934,
      "▁arts": 4935,
      "▁decent": 4936,
      "▁breakfast": 4937,
      "▁technically": 4938,
      "▁vibe": 4939,
      "▁ultimate": 4940,
      "▁predict": 4941,
      "▁teenag": 4942,
      "▁cave": 4943,
      "acity": 4944,
      "▁supple": 4945,
      "▁division": 4946,
      "▁yelling": 4947,
      "▁bonus": 4948,
      "▁convinced": 4949,
      "▁congress": 4950,
      "▁cream": 4951,
      "▁expand": 4952,
      "▁added": 4953,
      "▁thro": 4954,
      "▁gap": 4955,
      "▁20s": 4956,
      "podcast": 4957,
      "▁tank": 4958,
      "see": 4959,
      "▁understood": 4960,
      "▁deals": 4961,
      "▁singing": 4962,
      "70s": 4963,
      "90s": 4964,
      "gers": 4965,
      "uild": 4966,
      "▁mit": 4967,
      "▁nu": 4968,
      "▁phase": 4969,
      "▁fixed": 4970,
      "▁brutal": 4971,
      "vis": 4972,
      "inting": 4973,
      "▁anderson": 4974,
      "▁pil": 4975,
      "ealous": 4976,
      "▁terror": 4977,
      "phone": 4978,
      "▁privacy": 4979,
      "▁influen": 4980,
      "▁rab": 4981,
      "▁impressive": 4982,
      "▁psychology": 4983,
      "▁described": 4984,
      "▁nearly": 4985,
      "▁terrified": 4986,
      "▁inher": 4987,
      "▁reci": 4988,
      "▁realizing": 4989,
      "▁failure": 4990,
      "stein": 4991,
      "▁ah": 4992,
      "▁london": 4993,
      "▁bankrupt": 4994,
      "▁chapter": 4995,
      "fill": 4996,
      "▁june": 4997,
      "▁shocked": 4998,
      "▁friendly": 4999,
      "▁owned": 5000,
      "▁attitude": 5001,
      "▁nightm": 5002,
      "▁streets": 5003,
      "▁produce": 5004,
      "▁pushed": 5005,
      "▁baseball": 5006,
      "▁robin": 5007,
      "stream": 5008,
      "▁stayed": 5009,
      "▁lessons": 5010,
      "▁competitive": 5011,
      "▁manifest": 5012,
      "▁bell": 5013,
      "▁jealous": 5014,
      "▁forty": 5015,
      "▁hugh": 5016,
      "▁panic": 5017,
      "▁fifteen": 5018,
      "▁grocery": 5019,
      "▁dive": 5020,
      "▁whist": 5021,
      "▁advert": 5022,
      "▁hug": 5023,
      "▁obama": 5024,
      "▁signs": 5025,
      "▁views": 5026,
      "▁intelligent": 5027,
      "▁snowball": 5028,
      "▁zoom": 5029,
      "▁cocaine": 5030,
      "▁tampa": 5031,
      "mon": 5032,
      "▁mast": 5033,
      "▁lake": 5034,
      "▁fab": 5035,
      "vere": 5036,
      "▁jon": 5037,
      "▁integr": 5038,
      "▁coast": 5039,
      "▁clock": 5040,
      "▁rogen": 5041,
      "▁transfer": 5042,
      "▁hurts": 5043,
      "▁psychological": 5044,
      "▁treated": 5045,
      "▁millionaire": 5046,
      "▁union": 5047,
      "izes": 5048,
      "▁fuckin": 5049,
      "▁officer": 5050,
      "▁investigators": 5051,
      "▁consumer": 5052,
      "uzzi": 5053,
      "erable": 5054,
      "▁bite": 5055,
      "uting": 5056,
      "▁mood": 5057,
      "▁actor": 5058,
      "▁obs": 5059,
      "▁iron": 5060,
      "▁golden": 5061,
      "ropri": 5062,
      "▁construction": 5063,
      "▁cous": 5064,
      "▁belong": 5065,
      "▁paint": 5066,
      "▁reached": 5067,
      "▁daniel": 5068,
      "▁pour": 5069,
      "▁kyle": 5070,
      "▁reject": 5071,
      "▁poll": 5072,
      "▁spotify": 5073,
      "▁milk": 5074,
      "▁hustle": 5075,
      "oh": 5076,
      "ties": 5077,
      "▁july": 5078,
      "▁shown": 5079,
      "▁miller": 5080,
      "▁elev": 5081,
      "▁histor": 5082,
      "▁microph": 5083,
      "▁combined": 5084,
      "▁strike": 5085,
      "▁patterns": 5086,
      "▁license": 5087,
      "▁temper": 5088,
      "▁fortun": 5089,
      "▁hunter": 5090,
      "▁premium": 5091,
      "▁tick": 5092,
      "▁cros": 5093,
      "▁french": 5094,
      "▁jun": 5095,
      "▁proven": 5096,
      "▁amb": 5097,
      "▁uncle": 5098,
      "▁corn": 5099,
      "▁corrupt": 5100,
      "▁bench": 5101,
      "▁enjoying": 5102,
      "▁magn": 5103,
      "▁bone": 5104,
      "▁pee": 5105,
      "▁consequences": 5106,
      "▁trem": 5107,
      "alo": 5108,
      "▁doors": 5109,
      "▁asse": 5110,
      "▁county": 5111,
      "▁explained": 5112,
      "▁fifth": 5113,
      "▁celebrate": 5114,
      "▁consistent": 5115,
      "▁embarrass": 5116,
      "bal": 5117,
      "ancy": 5118,
      "▁jul": 5119,
      "olic": 5120,
      "▁investments": 5121,
      "apping": 5122,
      "▁astrid": 5123,
      "▁bernie": 5124,
      "▁causing": 5125,
      "cies": 5126,
      "aren": 5127,
      "▁prefer": 5128,
      "▁blown": 5129,
      "▁marry": 5130,
      "▁hurric": 5131,
      "▁interviews": 5132,
      "▁basement": 5133,
      "▁addiction": 5134,
      "▁symptoms": 5135,
      "haps": 5136,
      "rom": 5137,
      "▁nove": 5138,
      "▁vip": 5139,
      "▁bug": 5140,
      "▁sla": 5141,
      "▁instinct": 5142,
      "▁entirely": 5143,
      "▁challenges": 5144,
      "▁cells": 5145,
      "▁independent": 5146,
      "▁shady": 5147,
      "▁diagn": 5148,
      "▁perhaps": 5149,
      "▁factors": 5150,
      "▁concert": 5151,
      "▁narcissistic": 5152,
      "kward": 5153,
      "▁pile": 5154,
      "▁ate": 5155,
      "ilet": 5156,
      "▁awkward": 5157,
      "▁particip": 5158,
      "▁guests": 5159,
      "▁november": 5160,
      "▁andrew": 5161,
      "essed": 5162,
      "▁ree": 5163,
      "▁rod": 5164,
      "▁fucks": 5165,
      "▁interp": 5166,
      "▁grade": 5167,
      "▁grabb": 5168,
      "▁stronger": 5169,
      "▁ug": 5170,
      "osis": 5171,
      "onscious": 5172,
      "▁typically": 5173,
      "can": 5174,
      "hand": 5175,
      "ware": 5176,
      "▁tow": 5177,
      "▁offered": 5178,
      "▁enorm": 5179,
      "▁compass": 5180,
      "while": 5181,
      "▁surround": 5182,
      "▁innoc": 5183,
      "▁hughes": 5184,
      "iable": 5185,
      "uries": 5186,
      "▁river": 5187,
      "▁fees": 5188,
      "▁veter": 5189,
      "▁airport": 5190,
      "▁candid": 5191,
      "hen": 5192,
      "▁cooper": 5193,
      "▁smile": 5194,
      "play": 5195,
      "place": 5196,
      "▁essential": 5197,
      "▁canadians": 5198,
      "▁hungry": 5199,
      "▁false": 5200,
      "▁wast": 5201,
      "▁yards": 5202,
      "eds": 5203,
      "icem": 5204,
      "▁stab": 5205,
      "▁blo": 5206,
      "▁controvers": 5207,
      "conn": 5208,
      "▁larger": 5209,
      "▁satisf": 5210,
      "▁occasion": 5211,
      "ez": 5212,
      "sion": 5213,
      "▁bother": 5214,
      "anda": 5215,
      "well": 5216,
      "▁courage": 5217,
      "▁sneak": 5218,
      "▁wolves": 5219,
      "▁graduate": 5220,
      "▁sess": 5221,
      "▁las": 5222,
      "▁lord": 5223,
      "uted": 5224,
      "▁greater": 5225,
      "▁advis": 5226,
      "▁generous": 5227,
      "▁clubs": 5228,
      "▁horrific": 5229,
      "▁piss": 5230,
      "▁besides": 5231,
      "▁butter": 5232,
      "▁classes": 5233,
      "▁hired": 5234,
      "▁listened": 5235,
      "ocol": 5236,
      "▁adding": 5237,
      "▁falls": 5238,
      "nesday": 5239,
      "▁wednesday": 5240,
      "▁shopping": 5241,
      "▁global": 5242,
      "tent": 5243,
      "▁gor": 5244,
      "▁exch": 5245,
      "▁pleasure": 5246,
      "▁agency": 5247,
      "▁boot": 5248,
      "▁debts": 5249,
      "▁pale": 5250,
      "▁recover": 5251,
      "▁jujitsu": 5252,
      "▁philos": 5253,
      "▁entertainment": 5254,
      "▁circumstances": 5255,
      "mates": 5256,
      "rate": 5257,
      "▁6": 5258,
      "▁sau": 5259,
      "▁lion": 5260,
      "▁ing": 5261,
      "▁neut": 5262,
      "▁coy": 5263,
      "▁acid": 5264,
      "uba": 5265,
      "▁deser": 5266,
      "▁frequ": 5267,
      "▁penis": 5268,
      "▁addicted": 5269,
      "▁creepy": 5270,
      "▁insecure": 5271,
      "han": 5272,
      "oles": 5273,
      "anch": 5274,
      "roit": 5275,
      "ppy": 5276,
      "▁bobby": 5277,
      "ished": 5278,
      "▁eddie": 5279,
      "▁swing": 5280,
      "▁detroit": 5281,
      "▁location": 5282,
      "▁hyper": 5283,
      "▁texting": 5284,
      "▁cheese": 5285,
      "▁bridge": 5286,
      "▁september": 5287,
      "▁hou": 5288,
      "▁dun": 5289,
      "▁web": 5290,
      "▁remove": 5291,
      "▁sets": 5292,
      "▁detail": 5293,
      "▁liberal": 5294,
      "lear": 5295,
      "inated": 5296,
      "▁acce": 5297,
      "▁measure": 5298,
      "▁dated": 5299,
      "▁elimin": 5300,
      "▁transl": 5301,
      "▁constant": 5302,
      "bruary": 5303,
      "▁salt": 5304,
      "▁economic": 5305,
      "▁spiritual": 5306,
      "▁buc": 5307,
      "▁nuc": 5308,
      "▁additional": 5309,
      "▁trees": 5310,
      "▁legitimate": 5311,
      "▁frustrated": 5312,
      "▁yield": 5313,
      "▁luc": 5314,
      "idents": 5315,
      "▁lobby": 5316,
      "▁driven": 5317,
      "▁distur": 5318,
      "▁concerns": 5319,
      "▁hypoth": 5320,
      "▁bertuzzi": 5321,
      "▁cbd": 5322,
      "nces": 5323,
      "▁dut": 5324,
      "▁kam": 5325,
      "▁february": 5326,
      "▁climate": 5327,
      "▁rober": 5328,
      "▁coverage": 5329,
      "▁genuinely": 5330,
      "▁linkedin": 5331,
      "▁bones": 5332,
      "▁rise": 5333,
      "▁sevent": 5334,
      "▁joint": 5335,
      "▁adapt": 5336,
      "▁monster": 5337,
      "▁obl": 5338,
      "▁regret": 5339,
      "▁artific": 5340,
      "▁walls": 5341,
      "▁degrees": 5342,
      "▁defenseman": 5343,
      "▁intentional": 5344,
      "▁gear": 5345,
      "▁hamm": 5346,
      "▁ideal": 5347,
      "▁crew": 5348,
      "▁pasta": 5349,
      "▁miserable": 5350,
      "▁burning": 5351,
      "▁employees": 5352,
      "▁familiar": 5353,
      "▁disappear": 5354,
      "▁cage": 5355,
      "▁steak": 5356,
      "▁temp": 5357,
      "▁backwards": 5358,
      "▁joking": 5359,
      "▁rocket": 5360,
      "▁emails": 5361,
      "▁photograph": 5362,
      "annah": 5363,
      "▁wra": 5364,
      "▁ny": 5365,
      "ala": 5366,
      "▁sher": 5367,
      "▁ups": 5368,
      "▁activity": 5369,
      "▁elon": 5370,
      "▁minor": 5371,
      "▁glasses": 5372,
      "▁depressed": 5373,
      "▁convince": 5374,
      "▁tcbpodcast": 5375,
      "▁russian": 5376,
      "rum": 5377,
      "▁bum": 5378,
      "▁toler": 5379,
      "▁nasty": 5380,
      "▁sean": 5381,
      "▁noise": 5382,
      "▁spr": 5383,
      "what": 5384,
      "▁voicem": 5385,
      "▁dangle": 5386,
      "▁encoura": 5387,
      "▁overwhelming": 5388,
      "▁gloves": 5389,
      "▁buffalo": 5390,
      "▁slightly": 5391,
      "▁acqu": 5392,
      "▁explaining": 5393,
      "▁carrying": 5394,
      "▁consciousness": 5395,
      "▁dedic": 5396,
      "ij": 5397,
      "▁pac": 5398,
      "▁picks": 5399,
      "▁craft": 5400,
      "▁crush": 5401,
      "▁stands": 5402,
      "▁parking": 5403,
      "▁largest": 5404,
      "▁footage": 5405,
      "▁violent": 5406,
      "▁occur": 5407,
      "▁civilization": 5408,
      "▁complaining": 5409,
      "▁cancel": 5410,
      "▁enormous": 5411,
      "ivers": 5412,
      "▁hated": 5413,
      "▁cats": 5414,
      "▁pitch": 5415,
      "▁naz": 5416,
      "▁poison": 5417,
      "▁prevent": 5418,
      "▁elite": 5419,
      "▁morbid": 5420,
      "▁thomas": 5421,
      "▁tremend": 5422,
      "lan": 5423,
      "▁dent": 5424,
      "▁joins": 5425,
      "▁marsh": 5426,
      "▁relate": 5427,
      "▁arrow": 5428,
      "▁signal": 5429,
      "▁capacity": 5430,
      "▁motherfucking": 5431,
      "▁sponsored": 5432,
      "▁closing": 5433,
      "▁murdered": 5434,
      "▁vel": 5435,
      "▁dates": 5436,
      "▁embr": 5437,
      "▁kills": 5438,
      "▁conditions": 5439,
      "▁failed": 5440,
      "▁scientific": 5441,
      "▁weapons": 5442,
      "▁quarantine": 5443,
      "iven": 5444,
      "▁tues": 5445,
      "▁dancing": 5446,
      "istry": 5447,
      "▁leaders": 5448,
      "▁cameras": 5449,
      "▁tuesday": 5450,
      "▁signing": 5451,
      "▁dm": 5452,
      "▁dna": 5453,
      "▁weigh": 5454,
      "▁guide": 5455,
      "agon": 5456,
      "▁fool": 5457,
      "▁retired": 5458,
      "▁smallest": 5459,
      "▁seasons": 5460,
      "▁foreign": 5461,
      "▁toilet": 5462,
      "▁chose": 5463,
      "▁chip": 5464,
      "▁army": 5465,
      "▁resent": 5466,
      "▁elk": 5467,
      "▁snap": 5468,
      "▁magaz": 5469,
      "▁bitches": 5470,
      "▁charlie": 5471,
      "▁inspired": 5472,
      "▁francisco": 5473,
      "▁gaz": 5474,
      "▁stocks": 5475,
      "▁anger": 5476,
      "▁concent": 5477,
      "▁drinks": 5478,
      "▁homeless": 5479,
      "▁supply": 5480,
      "▁gray": 5481,
      "▁desk": 5482,
      "▁columb": 5483,
      "▁roughly": 5484,
      "▁customers": 5485,
      "▁climbing": 5486,
      "▁lifetime": 5487,
      "break": 5488,
      "▁whistle": 5489,
      "da": 5490,
      "parent": 5491,
      "▁border": 5492,
      "▁nope": 5493,
      "▁knees": 5494,
      "▁chuck": 5495,
      "▁quant": 5496,
      "istics": 5497,
      "▁adm": 5498,
      "▁instance": 5499,
      "▁grat": 5500,
      "▁grant": 5501,
      "▁surface": 5502,
      "▁peter": 5503,
      "▁digital": 5504,
      "ounced": 5505,
      "▁acknowledge": 5506,
      "▁roberts": 5507,
      "▁gall": 5508,
      "▁beef": 5509,
      "▁isol": 5510,
      "ashing": 5511,
      "▁compound": 5512,
      "▁grandma": 5513,
      "▁braz": 5514,
      "▁extraord": 5515,
      "▁judgment": 5516,
      "▁reported": 5517,
      "levant": 5518,
      "▁yoga": 5519,
      "vity": 5520,
      "▁storm": 5521,
      "▁neither": 5522,
      "ada": 5523,
      "▁agreement": 5524,
      "▁feedback": 5525,
      "iers": 5526,
      "▁tes": 5527,
      "igan": 5528,
      "rogen": 5529,
      "▁makeup": 5530,
      "athan": 5531,
      "▁dish": 5532,
      "▁winter": 5533,
      "oyd": 5534,
      "▁morgan": 5535,
      "▁swift": 5536,
      "▁expecting": 5537,
      "▁suicide": 5538,
      "▁drain": 5539,
      "arn": 5540,
      "▁segment": 5541,
      "quote": 5542,
      "▁dism": 5543,
      "▁exposed": 5544,
      "▁decl": 5545,
      "▁confusing": 5546,
      "▁delay": 5547,
      "▁hurting": 5548,
      "▁gambling": 5549,
      "▁captain": 5550,
      "▁traffic": 5551,
      "▁microphone": 5552,
      "▁whit": 5553,
      "▁jet": 5554,
      "usion": 5555,
      "▁compare": 5556,
      "avir": 5557,
      "▁skate": 5558,
      "▁route": 5559,
      "iation": 5560,
      "▁wired": 5561,
      "star": 5562,
      "▁lies": 5563,
      "▁remote": 5564,
      "clock": 5565,
      "▁facing": 5566,
      "▁houston": 5567,
      "▁voicemail": 5568,
      "fit": 5569,
      "▁stam": 5570,
      "▁sev": 5571,
      "▁bubble": 5572,
      "▁advanced": 5573,
      "▁lightning": 5574,
      "▁correctly": 5575,
      "▁neighborly": 5576,
      "▁western": 5577,
      "▁investigation": 5578,
      "▁montreal": 5579,
      "▁innov": 5580,
      "▁weapon": 5581,
      "▁coronavir": 5582,
      "father": 5583,
      "▁bored": 5584,
      "▁uber": 5585,
      "oken": 5586,
      "▁smarter": 5587,
      "▁tries": 5588,
      "▁pursu": 5589,
      "▁fairly": 5590,
      "▁injured": 5591,
      "▁tact": 5592,
      "erer": 5593,
      "▁proces": 5594,
      "▁lovely": 5595,
      "▁sucked": 5596,
      "▁tennes": 5597,
      "▁angle": 5598,
      "▁throat": 5599,
      "▁tennessee": 5600,
      "▁tast": 5601,
      "▁bike": 5602,
      "▁ital": 5603,
      "asy": 5604,
      "▁rice": 5605,
      "▁metal": 5606,
      "▁brief": 5607,
      "▁intellect": 5608,
      "▁prepare": 5609,
      "▁disappoint": 5610,
      "▁ignore": 5611,
      "▁properly": 5612,
      "▁nuclear": 5613,
      "val": 5614,
      "▁mac": 5615,
      "▁reve": 5616,
      "andon": 5617,
      "▁meanwhile": 5618,
      "▁internal": 5619,
      "▁properties": 5620,
      "▁escape": 5621,
      "▁seventy": 5622,
      "bage": 5623,
      "▁dare": 5624,
      "▁offense": 5625,
      "▁adop": 5626,
      "▁various": 5627,
      "▁dynamic": 5628,
      "eed": 5629,
      "iots": 5630,
      "aters": 5631,
      "▁bachel": 5632,
      "▁lit": 5633,
      "▁jess": 5634,
      "▁reven": 5635,
      "▁greatness": 5636,
      "iley": 5637,
      "▁friendship": 5638,
      "▁depth": 5639,
      "▁officers": 5640,
      "▁ninet": 5641,
      "▁australia": 5642,
      "▁sle": 5643,
      "▁naked": 5644,
      "▁stable": 5645,
      "▁passing": 5646,
      "▁bears": 5647,
      "▁tack": 5648,
      "▁thick": 5649,
      "▁pad": 5650,
      "▁coke": 5651,
      "▁georg": 5652,
      "▁recording": 5653,
      "▁gifted": 5654,
      "▁checks": 5655,
      "forms": 5656,
      "▁roman": 5657,
      "▁administration": 5658,
      "▁meas": 5659,
      "▁lately": 5660,
      "▁forces": 5661,
      "▁abandon": 5662,
      "▁myth": 5663,
      "▁sem": 5664,
      "▁plastic": 5665,
      "abe": 5666,
      "▁vent": 5667,
      "▁print": 5668,
      "▁floyd": 5669,
      "▁bush": 5670,
      "▁rooms": 5671,
      "▁johnson": 5672,
      "▁shock": 5673,
      "▁ruin": 5674,
      "▁focusing": 5675,
      "▁experiencing": 5676,
      "▁waking": 5677,
      "▁mand": 5678,
      "▁weather": 5679,
      "▁altern": 5680,
      "▁shoulders": 5681,
      "▁stops": 5682,
      "▁foundation": 5683,
      "▁cultural": 5684,
      "▁trading": 5685,
      "▁divorced": 5686,
      "▁initially": 5687,
      "▁cigarettes": 5688,
      "▁wisdom": 5689,
      "▁removed": 5690,
      "0k": 5691,
      "ga": 5692,
      "▁lon": 5693,
      "▁dirt": 5694,
      "▁fuel": 5695,
      "▁kar": 5696,
      "▁rely": 5697,
      "▁intim": 5698,
      "▁proof": 5699,
      "▁evening": 5700,
      "▁dram": 5701,
      "▁serving": 5702,
      "▁tons": 5703,
      "▁supporting": 5704,
      "▁lazy": 5705,
      "▁maple": 5706,
      "▁compete": 5707,
      "▁screwed": 5708,
      "▁blew": 5709,
      "burgh": 5710,
      "▁gal": 5711,
      "▁gree": 5712,
      "▁tooth": 5713,
      "▁fri": 5714,
      "▁timeline": 5715,
      "▁traded": 5716,
      "▁edmond": 5717,
      "▁thrown": 5718,
      "▁aim": 5719,
      "▁gather": 5720,
      "sters": 5721,
      "▁rational": 5722,
      "▁intent": 5723,
      "▁pharm": 5724,
      "ologists": 5725,
      "▁existed": 5726,
      "▁tune": 5727,
      "▁bay": 5728,
      "▁lill": 5729,
      "▁kicks": 5730,
      "▁kelly": 5731,
      "▁underne": 5732,
      "ologically": 5733,
      "▁riding": 5734,
      "▁robbins": 5735,
      "foot": 5736,
      "▁underneath": 5737,
      "gary": 5738,
      "icious": 5739,
      "▁calgary": 5740,
      "▁eighty": 5741,
      "▁patient": 5742,
      "▁director": 5743,
      "▁mentality": 5744,
      "▁discover": 5745,
      "▁garden": 5746,
      "▁mck": 5747,
      "▁file": 5748,
      "▁pra": 5749,
      "stairs": 5750,
      "sell": 5751,
      "▁dope": 5752,
      "ams": 5753,
      "rog": 5754,
      "▁trash": 5755,
      "▁stopping": 5756,
      "▁grind": 5757,
      "▁arguing": 5758,
      "▁originally": 5759,
      "▁priority": 5760,
      "▁oxy": 5761,
      "▁hamas": 5762,
      "▁flash": 5763,
      "icted": 5764,
      "ups": 5765,
      "▁deadline": 5766,
      "▁include": 5767,
      "▁interviewed": 5768,
      "▁eggs": 5769,
      "▁exhausted": 5770,
      "▁tiger": 5771,
      "ropriate": 5772,
      "yd": 5773,
      "▁hiding": 5774,
      "inger": 5775,
      "encies": 5776,
      "ita": 5777,
      "▁kicking": 5778,
      "▁reverse": 5779,
      "▁analy": 5780,
      "▁spar": 5781,
      "▁minus": 5782,
      "▁drivers": 5783,
      "▁studying": 5784,
      "ramsey": 5785,
      "▁brains": 5786,
      "lander": 5787,
      "▁smooth": 5788,
      "▁fitness": 5789,
      "▁richard": 5790,
      "▁yellow": 5791,
      "▁dim": 5792,
      "▁cnn": 5793,
      "▁eve": 5794,
      "▁therefore": 5795,
      "▁actors": 5796,
      "ysis": 5797,
      "▁explan": 5798,
      "▁bullet": 5799,
      "▁penn": 5800,
      "▁checked": 5801,
      "▁junior": 5802,
      "▁artificial": 5803,
      "▁les": 5804,
      "▁dome": 5805,
      "▁kat": 5806,
      "▁outcome": 5807,
      "▁funn": 5808,
      "▁solar": 5809,
      "▁radical": 5810,
      "▁windows": 5811,
      "▁embarrassed": 5812,
      "▁compassion": 5813,
      "mother": 5814,
      "▁sight": 5815,
      "itate": 5816,
      "▁hay": 5817,
      "▁shocking": 5818,
      "▁orgas": 5819,
      "▁chea": 5820,
      "▁guid": 5821,
      "▁guessing": 5822,
      "▁labor": 5823,
      "▁ideology": 5824,
      "▁thurs": 5825,
      "▁yard": 5826,
      "▁cham": 5827,
      "▁greg": 5828,
      "▁collap": 5829,
      "▁choosing": 5830,
      "▁governor": 5831,
      "▁url": 5832,
      "▁resistance": 5833,
      "▁neutral": 5834,
      "▁tesla": 5835,
      "▁thursday": 5836,
      "pet": 5837,
      "▁mall": 5838,
      "▁raw": 5839,
      "▁loose": 5840,
      "▁chasing": 5841,
      "▁hosting": 5842,
      "ashion": 5843,
      "▁attacked": 5844,
      "▁sett": 5845,
      "▁budd": 5846,
      "▁racism": 5847,
      "▁climb": 5848,
      "fact": 5849,
      "uous": 5850,
      "▁sib": 5851,
      "onic": 5852,
      "▁knife": 5853,
      "the": 5854,
      "▁neur": 5855,
      "ache": 5856,
      "▁controlled": 5857,
      "▁staring": 5858,
      "▁pitts": 5859,
      "▁ugly": 5860,
      "▁dys": 5861,
      "▁ful": 5862,
      "▁nfl": 5863,
      "▁upper": 5864,
      "ogy": 5865,
      "▁ending": 5866,
      "▁expectations": 5867,
      "▁ferr": 5868,
      "▁cheaper": 5869,
      "aled": 5870,
      "ford": 5871,
      "▁tag": 5872,
      "▁wings": 5873,
      "▁dow": 5874,
      "allow": 5875,
      "▁neil": 5876,
      "▁sup": 5877,
      "▁humor": 5878,
      "▁studied": 5879,
      "▁extent": 5880,
      "▁jackson": 5881,
      "▁ninety": 5882,
      "▁flexible": 5883,
      "▁pittsburgh": 5884,
      "ka": 5885,
      "law": 5886,
      "tcb": 5887,
      "▁5": 5888,
      "▁ta": 5889,
      "▁ba": 5890,
      "▁wet": 5891,
      "▁alt": 5892,
      "ortion": 5893,
      "▁talented": 5894,
      "▁indian": 5895,
      "▁accepted": 5896,
      "▁managed": 5897,
      "▁garbage": 5898,
      "▁motivated": 5899,
      "▁aspects": 5900,
      "▁henry": 5901,
      "▁sibling": 5902,
      "eer": 5903,
      "▁inner": 5904,
      "icial": 5905,
      "▁lew": 5906,
      "▁profound": 5907,
      "▁consistently": 5908,
      "▁delivery": 5909,
      "▁politicians": 5910,
      "▁tremendous": 5911,
      "eter": 5912,
      "▁rig": 5913,
      "▁enforce": 5914,
      "▁planned": 5915,
      "▁victims": 5916,
      "▁olympics": 5917,
      "connect": 5918,
      "▁robertson": 5919,
      "cue": 5920,
      "nis": 5921,
      "▁holes": 5922,
      "▁instant": 5923,
      "▁publicly": 5924,
      "▁motor": 5925,
      "▁stealing": 5926,
      "ini": 5927,
      "▁map": 5928,
      "▁sha": 5929,
      "▁vari": 5930,
      "▁lease": 5931,
      "▁generosity": 5932,
      "▁viral": 5933,
      "▁silver": 5934,
      "▁fulfill": 5935,
      "▁bible": 5936,
      "lection": 5937,
      "ivered": 5938,
      "▁babe": 5939,
      "▁scenes": 5940,
      "▁discount": 5941,
      "▁anthony": 5942,
      "sm": 5943,
      "▁cens": 5944,
      "▁rick": 5945,
      "▁stack": 5946,
      "▁upside": 5947,
      "▁twist": 5948,
      "▁blocked": 5949,
      "▁cheated": 5950,
      "▁delivered": 5951,
      "▁navigate": 5952,
      "▁nightmare": 5953,
      "raine": 5954,
      "▁offering": 5955,
      "resses": 5956,
      "▁competing": 5957,
      "▁rounds": 5958,
      "▁blowing": 5959,
      "bye": 5960,
      "▁frankly": 5961,
      "▁meals": 5962,
      "▁santa": 5963,
      "▁mama": 5964,
      "▁lane": 5965,
      "▁outrage": 5966,
      "▁chop": 5967,
      "▁fold": 5968,
      "▁factory": 5969,
      "▁sends": 5970,
      "▁reflect": 5971,
      "▁forest": 5972,
      "▁challenging": 5973,
      "anned": 5974,
      "▁claimed": 5975,
      "▁churchill": 5976,
      "▁ufo": 5977,
      "▁medication": 5978,
      "▁attracted": 5979,
      "▁brazil": 5980,
      "aire": 5981,
      "boy": 5982,
      "lines": 5983,
      "▁bacter": 5984,
      "▁dum": 5985,
      "onent": 5986,
      "▁stim": 5987,
      "▁succeed": 5988,
      "▁coaches": 5989,
      "▁maxim": 5990,
      "▁policies": 5991,
      "▁operate": 5992,
      "▁assistant": 5993,
      "▁coronavirus": 5994,
      "bow": 5995,
      "▁lap": 5996,
      "terson": 5997,
      "ulating": 5998,
      "▁scott": 5999,
      "▁apps": 6000,
      "▁uses": 6001,
      "▁humanity": 6002,
      "▁operation": 6003,
      "▁virginia": 6004,
      "▁tempor": 6005,
      "zing": 6006,
      "▁somewhat": 6007,
      "▁muscles": 6008,
      "▁continued": 6009,
      "▁loser": 6010,
      "▁destroyed": 6011,
      "▁virtual": 6012,
      "bor": 6013,
      "ken": 6014,
      "▁junk": 6015,
      "▁ohio": 6016,
      "▁spray": 6017,
      "▁cheat": 6018,
      "▁spec": 6019,
      "ahu": 6020,
      "▁painting": 6021,
      "▁treating": 6022,
      "▁considering": 6023,
      "▁frustrating": 6024,
      "▁district": 6025,
      "▁category": 6026,
      "pper": 6027,
      "▁pays": 6028,
      "▁charged": 6029,
      "▁injuries": 6030,
      "▁individuals": 6031,
      "▁customer": 6032,
      "▁nerd": 6033,
      "wide": 6034,
      "▁toy": 6035,
      "▁alle": 6036,
      "usive": 6037,
      "▁firm": 6038,
      "▁commission": 6039,
      "formed": 6040,
      "▁secure": 6041,
      "apped": 6042,
      "▁nutr": 6043,
      "▁sharp": 6044,
      "resh": 6045,
      "eding": 6046,
      "▁jar": 6047,
      "▁reilly": 6048,
      "▁dop": 6049,
      "▁stood": 6050,
      "olar": 6051,
      "urb": 6052,
      "▁agents": 6053,
      "▁carbon": 6054,
      "▁owns": 6055,
      "▁charity": 6056,
      "▁grandmother": 6057,
      "▁memories": 6058,
      "▁cleaning": 6059,
      "▁apologize": 6060,
      "▁italian": 6061,
      "▁fashion": 6062,
      "▁jason": 6063,
      "▁trigg": 6064,
      "▁india": 6065,
      "▁steven": 6066,
      "▁unlike": 6067,
      "▁reporters": 6068,
      "▁assets": 6069,
      "▁section": 6070,
      "▁sheld": 6071,
      "▁dial": 6072,
      "bled": 6073,
      "▁charles": 6074,
      "▁dropping": 6075,
      "▁blessing": 6076,
      "▁joseph": 6077,
      "▁entrepreneur": 6078,
      "▁fortunate": 6079,
      "▁embarrassing": 6080,
      "ias": 6081,
      "▁bry": 6082,
      "ensed": 6083,
      "▁vall": 6084,
      "isters": 6085,
      "▁figures": 6086,
      "▁johnny": 6087,
      "▁description": 6088,
      "▁juice": 6089,
      "rant": 6090,
      "▁lat": 6091,
      "eable": 6092,
      "▁seattle": 6093,
      "▁severe": 6094,
      "▁chunk": 6095,
      "▁mayor": 6096,
      "▁phra": 6097,
      "▁arche": 6098,
      "▁greens": 6099,
      "▁prescri": 6100,
      "▁funding": 6101,
      "▁patrick": 6102,
      "▁jumped": 6103,
      "▁sticker": 6104,
      "▁discussed": 6105,
      "▁initial": 6106,
      "▁broadcast": 6107,
      "▁spanish": 6108,
      "▁ast": 6109,
      "itals": 6110,
      "▁sof": 6111,
      "▁fruit": 6112,
      "▁unit": 6113,
      "▁scores": 6114,
      "▁covering": 6115,
      "▁combination": 6116,
      "▁awareness": 6117,
      "▁broker": 6118,
      "▁edmondson": 6119,
      "put": 6120,
      "ux": 6121,
      "rey": 6122,
      "acing": 6123,
      "▁nest": 6124,
      "▁cloud": 6125,
      "▁pride": 6126,
      "▁comprom": 6127,
      "▁instantly": 6128,
      "▁calcul": 6129,
      "▁filming": 6130,
      "▁organized": 6131,
      "▁inflation": 6132,
      "▁mathem": 6133,
      "▁racing": 6134,
      "bc": 6135,
      "van": 6136,
      "▁pod": 6137,
      "▁boards": 6138,
      "ensity": 6139,
      "▁trapped": 6140,
      "▁conclus": 6141,
      "▁requires": 6142,
      "▁fishing": 6143,
      "▁senior": 6144,
      "▁frozen": 6145,
      "▁vagina": 6146,
      "▁africa": 6147,
      "▁aunt": 6148,
      "▁dust": 6149,
      "▁cale": 6150,
      "onom": 6151,
      "▁beans": 6152,
      "omb": 6153,
      "▁rit": 6154,
      "▁anch": 6155,
      "▁overcome": 6156,
      "▁buildings": 6157,
      "▁behave": 6158,
      "▁distrib": 6159,
      "▁operating": 6160,
      "▁murders": 6161,
      "▁ronald": 6162,
      "▁sdp": 6163,
      "▁lonely": 6164,
      "▁hes": 6165,
      "▁jane": 6166,
      "▁prepar": 6167,
      "▁disaster": 6168,
      "osure": 6169,
      "▁stores": 6170,
      "▁sponsor": 6171,
      "▁utah": 6172,
      "▁relatively": 6173,
      "▁temperature": 6174,
      "▁georgia": 6175,
      "▁lewis": 6176,
      "uk": 6177,
      "▁tan": 6178,
      "▁award": 6179,
      "stal": 6180,
      "▁jets": 6181,
      "▁workers": 6182,
      "▁communities": 6183,
      "▁technique": 6184,
      "▁nicole": 6185,
      "sd": 6186,
      "▁cere": 6187,
      "▁rot": 6188,
      "▁enemy": 6189,
      "▁permission": 6190,
      "▁contain": 6191,
      "▁checkout": 6192,
      "▁luckily": 6193,
      "▁request": 6194,
      "▁tournam": 6195,
      "▁repeat": 6196,
      "▁exchange": 6197,
      "cking": 6198,
      "yard": 6199,
      "ndy": 6200,
      "▁fra": 6201,
      "▁fbi": 6202,
      "▁unquote": 6203,
      "▁define": 6204,
      "▁winner": 6205,
      "▁restr": 6206,
      "▁reference": 6207,
      "▁tests": 6208,
      "▁increasing": 6209,
      "suite": 6210,
      "▁democrats": 6211,
      "▁package": 6212,
      "▁romantic": 6213,
      "▁revolution": 6214,
      "iter": 6215,
      "▁org": 6216,
      "▁glut": 6217,
      "▁weekly": 6218,
      "▁stays": 6219,
      "▁invited": 6220,
      "respect": 6221,
      "▁neighbors": 6222,
      "commercial": 6223,
      "▁voting": 6224,
      "▁passionate": 6225,
      "pal": 6226,
      "▁gate": 6227,
      "▁lied": 6228,
      "acle": 6229,
      "▁guitar": 6230,
      "▁manu": 6231,
      "employ": 6232,
      "▁artists": 6233,
      "▁programs": 6234,
      "▁vaccines": 6235,
      "▁received": 6236,
      "▁reeves": 6237,
      "▁oblig": 6238,
      "▁dj": 6239,
      "▁cath": 6240,
      "▁shad": 6241,
      "▁shane": 6242,
      "▁vice": 6243,
      "▁flavor": 6244,
      "▁vehicles": 6245,
      "▁graduated": 6246,
      "osterone": 6247,
      "▁sdpn": 6248,
      "▁wrapped": 6249,
      "▁dopamine": 6250,
      "▁sheldon": 6251,
      "▁hip": 6252,
      "inge": 6253,
      "stin": 6254,
      "▁plug": 6255,
      "▁lets": 6256,
      "▁attacking": 6257,
      "▁testosterone": 6258,
      "▁records": 6259,
      "▁heav": 6260,
      "▁lockdown": 6261,
      "etera": 6262,
      "rial": 6263,
      "▁ours": 6264,
      "▁netsuite": 6265,
      "▁therapists": 6266,
      "▁century": 6267,
      "▁motion": 6268,
      "▁writer": 6269,
      "▁xander": 6270,
      "▁required": 6271,
      "▁southern": 6272,
      "▁automatically": 6273,
      "▁published": 6274,
      "vestor": 6275,
      "▁ko": 6276,
      "▁preach": 6277,
      "▁hooked": 6278,
      "▁halfway": 6279,
      "▁international": 6280,
      "▁protecting": 6281,
      "▁counsel": 6282,
      "▁portion": 6283,
      "▁bacteria": 6284,
      "kn": 6285,
      "▁lip": 6286,
      "▁betting": 6287,
      "▁alert": 6288,
      "ili": 6289,
      "▁vast": 6290,
      "▁believes": 6291,
      "▁counting": 6292,
      "▁standup": 6293,
      "▁holds": 6294,
      "▁commitment": 6295,
      "▁devil": 6296,
      "▁streaming": 6297,
      "▁associated": 6298,
      "▁republican": 6299,
      "▁oxygen": 6300,
      "▁downt": 6301,
      "▁manufact": 6302,
      "lers": 6303,
      "ua": 6304,
      "▁aid": 6305,
      "▁fame": 6306,
      "▁native": 6307,
      "alk": 6308,
      "▁goodbye": 6309,
      "ansas": 6310,
      "ocate": 6311,
      "▁couples": 6312,
      "▁assault": 6313,
      "cedes": 6314,
      "▁recru": 6315,
      "▁sharks": 6316,
      "▁whiskey": 6317,
      "▁sin": 6318,
      "▁dressed": 6319,
      "▁gm": 6320,
      "▁plate": 6321,
      "▁theme": 6322,
      "inton": 6323,
      "aped": 6324,
      "▁applic": 6325,
      "▁breakdown": 6326,
      "▁affected": 6327,
      "▁engineering": 6328,
      "▁williams": 6329,
      "▁ferrari": 6330,
      "▁tips": 6331,
      "rets": 6332,
      "▁hid": 6333,
      "▁lam": 6334,
      "▁dor": 6335,
      "▁rew": 6336,
      "icip": 6337,
      "▁loses": 6338,
      "izations": 6339,
      "aneously": 6340,
      "▁patients": 6341,
      "▁universal": 6342,
      "▁survival": 6343,
      "▁islanders": 6344,
      "▁craziest": 6345,
      "▁lung": 6346,
      "▁spike": 6347,
      "▁blast": 6348,
      "▁emily": 6349,
      "▁oldest": 6350,
      "▁standards": 6351,
      "▁simpl": 6352,
      "▁raising": 6353,
      "▁annual": 6354,
      "▁included": 6355,
      "▁jewish": 6356,
      "▁tattoo": 6357,
      "▁gratitude": 6358,
      "gun": 6359,
      "gie": 6360,
      "right": 6361,
      "vard": 6362,
      "▁dict": 6363,
      "▁ducks": 6364,
      "oria": 6365,
      "▁orange": 6366,
      "▁disrespect": 6367,
      "▁worthy": 6368,
      "nesses": 6369,
      "hus": 6370,
      "rising": 6371,
      "▁sticking": 6372,
      "▁asset": 6373,
      "▁client": 6374,
      "ptions": 6375,
      "▁pointed": 6376,
      "▁ownership": 6377,
      "▁bars": 6378,
      "▁smartvestor": 6379,
      "▁protected": 6380,
      "▁hormone": 6381,
      "▁hurricanes": 6382,
      "bes": 6383,
      "lam": 6384,
      "▁iphone": 6385,
      "▁theories": 6386,
      "coin": 6387,
      "▁slide": 6388,
      "▁momentum": 6389,
      "▁spots": 6390,
      "▁professor": 6391,
      "▁reports": 6392,
      "outs": 6393,
      "▁timing": 6394,
      "▁fee": 6395,
      "▁perman": 6396,
      "▁earned": 6397,
      "▁repair": 6398,
      "gged": 6399,
      "▁touching": 6400,
      "▁iraq": 6401,
      "▁navy": 6402,
      "▁comparison": 6403,
      "▁upgrade": 6404,
      "▁sheriff": 6405,
      "giving": 6406,
      "hear": 6407,
      "iat": 6408,
      "▁tension": 6409,
      "▁stats": 6410,
      "▁examples": 6411,
      "▁equation": 6412,
      "▁managing": 6413,
      "▁celebrity": 6414,
      "▁gentlemen": 6415,
      "cked": 6416,
      "ko": 6417,
      "uition": 6418,
      "▁miam": 6419,
      "▁haunt": 6420,
      "▁forms": 6421,
      "▁feat": 6422,
      "▁queen": 6423,
      "▁realistic": 6424,
      "▁positions": 6425,
      "▁personalities": 6426,
      "▁tongue": 6427,
      "▁includes": 6428,
      "▁flew": 6429,
      "▁pyram": 6430,
      "iveness": 6431,
      "▁magazine": 6432,
      "▁orgasm": 6433,
      "▁faces": 6434,
      "anas": 6435,
      "▁hipp": 6436,
      "▁earning": 6437,
      "▁synd": 6438,
      "▁reput": 6439,
      "▁advent": 6440,
      "▁deaths": 6441,
      "▁potato": 6442,
      "space": 6443,
      "▁digging": 6444,
      "▁exclusive": 6445,
      "hib": 6446,
      "ene": 6447,
      "▁soc": 6448,
      "rix": 6449,
      "▁trap": 6450,
      "▁propag": 6451,
      "▁pengu": 6452,
      "▁qualified": 6453,
      "▁penalties": 6454,
      "▁mercedes": 6455,
      "▁intentionally": 6456,
      "▁montana": 6457,
      "▁sarah": 6458,
      "▁explanation": 6459,
      "▁miami": 6460,
      "▁height": 6461,
      "▁mole": 6462,
      "ushing": 6463,
      "▁uns": 6464,
      "▁bitcoin": 6465,
      "▁disconnect": 6466,
      "▁interrupt": 6467,
      "▁survey": 6468,
      "▁eaten": 6469,
      "▁amounts": 6470,
      "▁horses": 6471,
      "▁refere": 6472,
      "▁describing": 6473,
      "▁robot": 6474,
      "▁meaningful": 6475,
      "▁licensed": 6476,
      "▁innocent": 6477,
      "▁alleged": 6478,
      "ek": 6479,
      "rad": 6480,
      "sue": 6481,
      "▁sisters": 6482,
      "▁poop": 6483,
      "▁harvard": 6484,
      "▁reson": 6485,
      "▁interaction": 6486,
      "▁invite": 6487,
      "▁explore": 6488,
      "▁surprising": 6489,
      "cut": 6490,
      "uana": 6491,
      "▁lav": 6492,
      "▁dear": 6493,
      "shot": 6494,
      "▁excuses": 6495,
      "phere": 6496,
      "▁vegan": 6497,
      "▁followers": 6498,
      "▁performing": 6499,
      "▁rhy": 6500,
      "▁sixty": 6501,
      "▁pilot": 6502,
      "ijuana": 6503,
      "▁cert": 6504,
      "▁pages": 6505,
      "irts": 6506,
      "tte": 6507,
      "▁ads": 6508,
      "▁grace": 6509,
      "▁anticip": 6510,
      "▁platforms": 6511,
      "▁desperate": 6512,
      "ca": 6513,
      "core": 6514,
      "li": 6515,
      "▁tail": 6516,
      "▁na": 6517,
      "▁algor": 6518,
      "▁digest": 6519,
      "▁pointing": 6520,
      "▁incor": 6521,
      "azz": 6522,
      "▁entit": 6523,
      "▁funded": 6524,
      "▁constit": 6525,
      "▁illness": 6526,
      "▁matched": 6527,
      "▁ingred": 6528,
      "▁algorith": 6529,
      "▁bles": 6530,
      "▁banned": 6531,
      "▁pace": 6532,
      "▁heck": 6533,
      "▁rip": 6534,
      "▁chart": 6535,
      "▁fest": 6536,
      "ending": 6537,
      "▁flaw": 6538,
      "▁lawn": 6539,
      "▁daughters": 6540,
      "▁inflamm": 6541,
      "▁garage": 6542,
      "▁engineer": 6543,
      "▁attractive": 6544,
      "▁rebuild": 6545,
      "▁der": 6546,
      "▁oftent": 6547,
      "season": 6548,
      "▁kore": 6549,
      "▁sober": 6550,
      "▁stole": 6551,
      "▁whatso": 6552,
      "▁shr": 6553,
      "▁divid": 6554,
      "▁marijuana": 6555,
      "ibilities": 6556,
      "▁tyler": 6557,
      "▁metaph": 6558,
      "▁progressive": 6559,
      "▁mcm": 6560,
      "▁peaceful": 6561,
      "▁mcdon": 6562,
      "▁mccabe": 6563,
      "▁instruct": 6564,
      "▁inherit": 6565,
      "▁occasionally": 6566,
      "▁oftentimes": 6567,
      "▁wre": 6568,
      "▁hiring": 6569,
      "aron": 6570,
      "ghan": 6571,
      "▁atm": 6572,
      "▁cogn": 6573,
      "ucker": 6574,
      "▁syn": 6575,
      "▁collea": 6576,
      "▁announced": 6577,
      "▁existence": 6578,
      "▁heaven": 6579,
      "▁heavyweight": 6580,
      "▁distract": 6581,
      "▁controversial": 6582,
      "▁whatsoever": 6583,
      "▁ay": 6584,
      "▁sket": 6585,
      "▁hack": 6586,
      "▁crimes": 6587,
      "▁walter": 6588,
      "▁reads": 6589,
      "▁pursue": 6590,
      "▁strip": 6591,
      "▁protests": 6592,
      "▁tuning": 6593,
      "▁introduced": 6594,
      "▁ukraine": 6595,
      "▁analysis": 6596,
      "▁bankruptcy": 6597,
      "▁ritual": 6598,
      "▁appeal": 6599,
      "▁accent": 6600,
      "▁natal": 6601,
      "▁recorded": 6602,
      "▁meantime": 6603,
      "▁volunt": 6604,
      "▁canceled": 6605,
      "▁alternative": 6606,
      "▁blessed": 6607,
      "rome": 6608,
      "under": 6609,
      "zer": 6610,
      "▁harris": 6611,
      "▁profile": 6612,
      "▁kenned": 6613,
      "▁manifesting": 6614,
      "▁luke": 6615,
      "▁coyotes": 6616,
      "▁bucket": 6617,
      "▁ps": 6618,
      "▁scholar": 6619,
      "▁standpoint": 6620,
      "▁controlling": 6621,
      "▁legally": 6622,
      "▁boxes": 6623,
      "▁fancy": 6624,
      "▁stressful": 6625,
      "▁claims": 6626,
      "▁rebound": 6627,
      "▁principles": 6628,
      "▁oz": 6629,
      "▁deck": 6630,
      "▁conven": 6631,
      "▁manson": 6632,
      "▁owners": 6633,
      "▁chew": 6634,
      "▁handed": 6635,
      "▁articles": 6636,
      "▁connections": 6637,
      "▁periods": 6638,
      "▁audible": 6639,
      "▁memberships": 6640,
      "▁contribute": 6641,
      "▁vegetables": 6642,
      "▁fabulous": 6643,
      "▁duty": 6644,
      "ih": 6645,
      "nel": 6646,
      "▁iv": 6647,
      "▁lem": 6648,
      "▁riley": 6649,
      "istically": 6650,
      "▁incent": 6651,
      "▁michigan": 6652,
      "▁pretending": 6653,
      "▁trailer": 6654,
      "iors": 6655,
      "▁gum": 6656,
      "sted": 6657,
      "▁joan": 6658,
      "▁healthier": 6659,
      "▁charges": 6660,
      "▁throws": 6661,
      "▁reduce": 6662,
      "▁practices": 6663,
      "▁empathy": 6664,
      "▁software": 6665,
      "▁british": 6666,
      "▁nineteen": 6667,
      "life": 6668,
      "▁boun": 6669,
      "▁cort": 6670,
      "ara": 6671,
      "▁outdo": 6672,
      "▁boost": 6673,
      "▁sites": 6674,
      "▁opens": 6675,
      "rency": 6676,
      "▁legacy": 6677,
      "▁pulls": 6678,
      "▁paras": 6679,
      "▁privile": 6680,
      "▁soldiers": 6681,
      "▁objective": 6682,
      "▁kennedy": 6683,
      "pting": 6684,
      "▁task": 6685,
      "oma": 6686,
      "ett": 6687,
      "iments": 6688,
      "▁quotes": 6689,
      "▁willy": 6690,
      "▁scare": 6691,
      "▁insight": 6692,
      "▁awake": 6693,
      "▁accountability": 6694,
      "▁calories": 6695,
      "▁grandfather": 6696,
      "▁thanksgiving": 6697,
      "▁nursing": 6698,
      "▁hormones": 6699,
      "▁fundamental": 6700,
      "reh": 6701,
      "▁dc": 6702,
      "selling": 6703,
      "▁sticks": 6704,
      "▁tracking": 6705,
      "▁backyard": 6706,
      "agger": 6707,
      "▁resol": 6708,
      "▁cheer": 6709,
      "▁advance": 6710,
      "▁patri": 6711,
      "▁forgive": 6712,
      "▁sensitive": 6713,
      "▁absor": 6714,
      "▁underwater": 6715,
      "▁supplement": 6716,
      "▁rhyth": 6717,
      "▁gates": 6718,
      "rier": 6719,
      "▁clue": 6720,
      "▁happier": 6721,
      "▁finds": 6722,
      "▁breast": 6723,
      "▁arguments": 6724,
      "▁feeding": 6725,
      "▁bananas": 6726,
      "▁assholes": 6727,
      "▁leaning": 6728,
      "worth": 6729,
      "▁natalie": 6730,
      "▁rif": 6731,
      "▁rope": 6732,
      "▁ank": 6733,
      "▁hood": 6734,
      "easing": 6735,
      "ressing": 6736,
      "ashed": 6737,
      "▁glove": 6738,
      "▁roommate": 6739,
      "▁membership": 6740,
      "▁squee": 6741,
      "▁confirm": 6742,
      "▁disturbing": 6743,
      "▁quantum": 6744,
      "▁bachelor": 6745,
      "▁enforcement": 6746,
      "ano": 6747,
      "stone": 6748,
      "▁justify": 6749,
      "▁covers": 6750,
      "▁actively": 6751,
      "▁unus": 6752,
      "▁appoint": 6753,
      "▁trill": 6754,
      "▁addition": 6755,
      "▁psycho": 6756,
      "▁doug": 6757,
      "▁organic": 6758,
      "▁typical": 6759,
      "▁burned": 6760,
      "▁hawai": 6761,
      "▁syndrome": 6762,
      "▁thir": 6763,
      "▁batt": 6764,
      "▁lsd": 6765,
      "▁chocol": 6766,
      "▁fellow": 6767,
      "▁presence": 6768,
      "▁developing": 6769,
      "minute": 6770,
      "▁employee": 6771,
      "▁links": 6772,
      "▁mechanism": 6773,
      "▁update": 6774,
      "▁advisor": 6775,
      "front": 6776,
      "gm": 6777,
      "wich": 6778,
      "▁80s": 6779,
      "▁tent": 6780,
      "▁sid": 6781,
      "enn": 6782,
      "ays": 6783,
      "lyn": 6784,
      "iped": 6785,
      "▁leon": 6786,
      "▁blocks": 6787,
      "▁beliefs": 6788,
      "▁practicing": 6789,
      "▁touched": 6790,
      "▁struggled": 6791,
      "▁jerry": 6792,
      "▁capitalism": 6793,
      "▁columbus": 6794,
      "▁domestic": 6795,
      "▁mcdonald": 6796,
      "gues": 6797,
      "▁relevant": 6798,
      "▁ruth": 6799,
      "▁shaking": 6800,
      "▁spaces": 6801,
      "▁letters": 6802,
      "▁clips": 6803,
      "▁keys": 6804,
      "▁brush": 6805,
      "▁confront": 6806,
      "▁superior": 6807,
      "▁warning": 6808,
      "▁submit": 6809,
      "▁grandparent": 6810,
      "▁madness": 6811,
      "▁forgotten": 6812,
      "▁amongst": 6813,
      "▁intellectual": 6814,
      "▁phrase": 6815,
      "home": 6816,
      "▁tits": 6817,
      "▁hannah": 6818,
      "itable": 6819,
      "▁select": 6820,
      "▁posting": 6821,
      "▁clients": 6822,
      "▁roster": 6823,
      "ifting": 6824,
      "▁ears": 6825,
      "▁charac": 6826,
      "▁lawsu": 6827,
      "▁vitamins": 6828,
      "▁cabin": 6829,
      "▁length": 6830,
      "lvan": 6831,
      "ani": 6832,
      "▁stead": 6833,
      "▁poly": 6834,
      "▁expression": 6835,
      "▁continuing": 6836,
      "▁latest": 6837,
      "▁fantasy": 6838,
      "▁ranch": 6839,
      "▁professionals": 6840,
      "▁cousin": 6841,
      "▁deserves": 6842,
      "▁extraordinary": 6843,
      "▁hidden": 6844,
      "▁soccer": 6845,
      "▁characters": 6846,
      "▁aaron": 6847,
      "▁cetera": 6848,
      "alf": 6849,
      "▁rings": 6850,
      "▁loop": 6851,
      "▁sauce": 6852,
      "▁spit": 6853,
      "▁zander": 6854,
      "▁genetic": 6855,
      "▁diego": 6856,
      "▁attacks": 6857,
      "▁overwhelmed": 6858,
      "▁introduce": 6859,
      "▁punish": 6860,
      "known": 6861,
      "lord": 6862,
      "▁wil": 6863,
      "▁cuz": 6864,
      "icy": 6865,
      "▁bits": 6866,
      "▁served": 6867,
      "▁supposedly": 6868,
      "▁drops": 6869,
      "▁mainstream": 6870,
      "▁antib": 6871,
      "▁auto": 6872,
      "▁sustainable": 6873,
      "▁anchor": 6874,
      "uki": 6875,
      "▁messed": 6876,
      "▁italy": 6877,
      "▁inch": 6878,
      "▁inject": 6879,
      "oting": 6880,
      "▁plain": 6881,
      "▁voc": 6882,
      "▁divers": 6883,
      "▁helic": 6884,
      "▁useful": 6885,
      "▁interf": 6886,
      "▁graph": 6887,
      "▁stephen": 6888,
      "▁immigr": 6889,
      "▁scientist": 6890,
      "scape": 6891,
      "▁admitted": 6892,
      "▁neuro": 6893,
      "▁session": 6894,
      "▁tastes": 6895,
      "▁chocolate": 6896,
      "cu": 6897,
      "▁tone": 6898,
      "imony": 6899,
      "▁trips": 6900,
      "▁confess": 6901,
      "▁england": 6902,
      "▁faced": 6903,
      "▁reminds": 6904,
      "▁democrat": 6905,
      "▁symb": 6906,
      "▁detectives": 6907,
      "▁demonstr": 6908,
      "▁established": 6909,
      "▁teenager": 6910,
      "▁gorge": 6911,
      "▁helicop": 6912,
      "gar": 6913,
      "▁toe": 6914,
      "▁peak": 6915,
      "▁kings": 6916,
      "▁logan": 6917,
      "ctional": 6918,
      "▁novel": 6919,
      "▁dies": 6920,
      "▁booth": 6921,
      "▁monkey": 6922,
      "▁grid": 6923,
      "▁transport": 6924,
      "▁answered": 6925,
      "▁musk": 6926,
      "▁ceo": 6927,
      "▁bias": 6928,
      "▁contributing": 6929,
      "lvania": 6930,
      "eem": 6931,
      "esis": 6932,
      "▁egy": 6933,
      "acular": 6934,
      "aded": 6935,
      "▁meditation": 6936,
      "▁valent": 6937,
      "sylvania": 6938,
      "▁meetings": 6939,
      "▁refund": 6940,
      "▁lapt": 6941,
      "▁sooner": 6942,
      "▁rolls": 6943,
      "▁burden": 6944,
      "▁underwear": 6945,
      "▁chemicals": 6946,
      "▁japan": 6947,
      "▁psychedelic": 6948,
      "▁pennsylvania": 6949,
      "▁egypt": 6950,
      "bin": 6951,
      "nie": 6952,
      "▁fence": 6953,
      "▁liver": 6954,
      "▁lips": 6955,
      "▁belly": 6956,
      "aus": 6957,
      "▁acts": 6958,
      "▁imple": 6959,
      "▁unemploy": 6960,
      "▁sits": 6961,
      "▁disorder": 6962,
      "▁believing": 6963,
      "▁entry": 6964,
      "▁billions": 6965,
      "▁cuts": 6966,
      "▁straw": 6967,
      "▁autop": 6968,
      "▁unfortunate": 6969,
      "▁chickens": 6970,
      "▁holidays": 6971,
      "▁dedicated": 6972,
      "▁velma": 6973,
      "▁revenue": 6974,
      "▁cd": 6975,
      "▁pink": 6976,
      "geon": 6977,
      "▁alph": 6978,
      "▁clinton": 6979,
      "▁blake": 6980,
      "▁badass": 6981,
      "▁gravity": 6982,
      "▁continues": 6983,
      "▁fears": 6984,
      "▁speaks": 6985,
      "▁flowers": 6986,
      "▁sandwich": 6987,
      "▁jews": 6988,
      "▁spectrum": 6989,
      "▁unusual": 6990,
      "vention": 6991,
      "▁ax": 6992,
      "▁pier": 6993,
      "▁packed": 6994,
      "stand": 6995,
      "store": 6996,
      "▁bean": 6997,
      "▁prince": 6998,
      "ifer": 6999,
      "▁edit": 7000,
      "▁closet": 7001,
      "▁dreaming": 7002,
      "▁announce": 7003,
      "▁weekends": 7004,
      "▁streams": 7005,
      "▁valley": 7006,
      "▁catholic": 7007,
      "hyd": 7008,
      "rics": 7009,
      "▁thor": 7010,
      "alu": 7011,
      "▁asian": 7012,
      "uls": 7013,
      "▁adh": 7014,
      "▁cheering": 7015,
      "▁graham": 7016,
      "▁excite": 7017,
      "phones": 7018,
      "▁airpl": 7019,
      "▁devast": 7020,
      "▁diseases": 7021,
      "▁sources": 7022,
      "▁entertaining": 7023,
      "▁electricity": 7024,
      "▁scripture": 7025,
      "▁implement": 7026,
      "power": 7027,
      "zed": 7028,
      "▁cake": 7029,
      "▁offend": 7030,
      "▁ric": 7031,
      "opause": 7032,
      "▁outfit": 7033,
      "▁partn": 7034,
      "ints": 7035,
      "▁flood": 7036,
      "▁enthus": 7037,
      "▁cardio": 7038,
      "▁ruined": 7039,
      "▁texted": 7040,
      "▁11": 7041,
      "▁returned": 7042,
      "▁banks": 7043,
      "▁lux": 7044,
      "▁germany": 7045,
      "▁crosby": 7046,
      "▁ms": 7047,
      "illa": 7048,
      "▁coole": 7049,
      "▁disrupt": 7050,
      "▁stepped": 7051,
      "▁selfish": 7052,
      "▁decides": 7053,
      "▁nutri": 7054,
      "▁massage": 7055,
      "▁pigs": 7056,
      "▁tock": 7057,
      "utor": 7058,
      "▁kit": 7059,
      "▁shave": 7060,
      "▁destruct": 7061,
      "ques": 7062,
      "anese": 7063,
      "▁images": 7064,
      "▁viet": 7065,
      "▁risks": 7066,
      "▁grief": 7067,
      "▁authority": 7068,
      "▁manipulate": 7069,
      "▁calend": 7070,
      "▁grandparents": 7071,
      "▁bam": 7072,
      "▁pension": 7073,
      "▁kansas": 7074,
      "▁badly": 7075,
      "▁voices": 7076,
      "▁combat": 7077,
      "▁narcissism": 7078,
      "▁mixed": 7079,
      "▁championship": 7080,
      "▁village": 7081,
      "▁citizens": 7082,
      "▁interpret": 7083,
      "▁processed": 7084,
      "▁sketch": 7085,
      "dd": 7086,
      "kers": 7087,
      "▁wanna": 7088,
      "▁wipe": 7089,
      "▁bol": 7090,
      "ller": 7091,
      "▁craw": 7092,
      "▁heading": 7093,
      "▁desert": 7094,
      "▁extension": 7095,
      "▁simulation": 7096,
      "coming": 7097,
      "▁barbe": 7098,
      "▁reaching": 7099,
      "▁occup": 7100,
      "▁bags": 7101,
      "▁inspiring": 7102,
      "▁rabbit": 7103,
      "▁tournament": 7104,
      "ns": 7105,
      "▁90s": 7106,
      "▁ech": 7107,
      "▁stun": 7108,
      "▁seats": 7109,
      "▁franch": 7110,
      "▁appropriate": 7111,
      "▁impression": 7112,
      "▁suppose": 7113,
      "▁invent": 7114,
      "▁filter": 7115,
      "▁immediate": 7116,
      "▁documents": 7117,
      "▁initi": 7118,
      "▁odds": 7119,
      "▁70s": 7120,
      "▁gust": 7121,
      "▁sty": 7122,
      "▁butcher": 7123,
      "ola": 7124,
      "▁cliff": 7125,
      "▁marie": 7126,
      "osen": 7127,
      "▁skull": 7128,
      "▁landed": 7129,
      "▁label": 7130,
      "▁swimming": 7131,
      "▁items": 7132,
      "onym": 7133,
      "eday": 7134,
      "▁chips": 7135,
      "▁coinc": 7136,
      "▁someday": 7137,
      "▁partners": 7138,
      "▁sco": 7139,
      "▁waited": 7140,
      "▁sideways": 7141,
      "▁skip": 7142,
      "▁psychiat": 7143,
      "▁frankie": 7144,
      "▁tricky": 7145,
      "▁spectacular": 7146,
      "▁papers": 7147,
      "▁mystery": 7148,
      "▁determine": 7149,
      "▁chamber": 7150,
      "▁reputation": 7151,
      "▁11th": 7152,
      "▁wore": 7153,
      "▁bul": 7154,
      "▁beats": 7155,
      "▁tele": 7156,
      "▁incident": 7157,
      "▁slim": 7158,
      "▁handling": 7159,
      "▁answering": 7160,
      "▁burns": 7161,
      "▁accidentally": 7162,
      "▁applied": 7163,
      "▁unhealth": 7164,
      "mart": 7165,
      "▁nerve": 7166,
      "▁stea": 7167,
      "▁buried": 7168,
      "▁flore": 7169,
      "▁quicker": 7170,
      "▁barbar": 7171,
      "▁silence": 7172,
      "▁joshua": 7173,
      "▁gluten": 7174,
      "▁horn": 7175,
      "▁dana": 7176,
      "▁fart": 7177,
      "▁knocking": 7178,
      "▁chimp": 7179,
      "abor": 7180,
      "ilton": 7181,
      "▁seeking": 7182,
      "▁drum": 7183,
      "osphere": 7184,
      "▁tribe": 7185,
      "▁warri": 7186,
      "▁prize": 7187,
      "▁larry": 7188,
      "▁condo": 7189,
      "▁officially": 7190,
      "▁heroin": 7191,
      "▁renov": 7192,
      "▁groceries": 7193,
      "▁gorgeous": 7194,
      "af": 7195,
      "ggin": 7196,
      "mark": 7197,
      "nip": 7198,
      "uits": 7199,
      "▁tab": 7200,
      "rete": 7201,
      "▁bust": 7202,
      "arian": 7203,
      "▁rude": 7204,
      "▁quiz": 7205,
      "ples": 7206,
      "▁brook": 7207,
      "▁moron": 7208,
      "▁invented": 7209,
      "▁squir": 7210,
      "▁catching": 7211,
      "▁rarely": 7212,
      "▁venez": 7213,
      "▁fiber": 7214,
      "▁downtown": 7215,
      "▁venezuel": 7216,
      "ener": 7217,
      "stop": 7218,
      "ceive": 7219,
      "▁marath": 7220,
      "▁drown": 7221,
      "▁hardcore": 7222,
      "▁polar": 7223,
      "▁technical": 7224,
      "▁produced": 7225,
      "▁increased": 7226,
      "▁democratic": 7227,
      "▁principal": 7228,
      "▁tweeted": 7229,
      "▁spinning": 7230,
      "▁shelter": 7231,
      "▁executive": 7232,
      "▁thumbs": 7233,
      "▁slavery": 7234,
      "▁philosophy": 7235,
      "▁cognitive": 7236,
      "▁wig": 7237,
      "▁sake": 7238,
      "▁ott": 7239,
      "▁hind": 7240,
      "▁cub": 7241,
      "▁procra": 7242,
      "▁dip": 7243,
      "▁keef": 7244,
      "▁helm": 7245,
      "▁elbow": 7246,
      "▁waves": 7247,
      "phia": 7248,
      "▁generations": 7249,
      "▁currency": 7250,
      "▁lowest": 7251,
      "▁immun": 7252,
      "▁crypt": 7253,
      "▁legitimately": 7254,
      "▁thrilled": 7255,
      "▁disappointed": 7256,
      "▁dramatic": 7257,
      "▁nutrition": 7258,
      "gi": 7259,
      "▁tiss": 7260,
      "▁hates": 7261,
      "▁bail": 7262,
      "anny": 7263,
      "igm": 7264,
      "▁coord": 7265,
      "ipes": 7266,
      "angle": 7267,
      "▁eats": 7268,
      "▁practical": 7269,
      "▁identified": 7270,
      "▁contracts": 7271,
      "▁democracy": 7272,
      "fall": 7273,
      "vor": 7274,
      "▁yarn": 7275,
      "▁bounce": 7276,
      "▁mouse": 7277,
      "▁dil": 7278,
      "▁bend": 7279,
      "olis": 7280,
      "▁intimate": 7281,
      "▁spoken": 7282,
      "▁ens": 7283,
      "▁scan": 7284,
      "▁impl": 7285,
      "▁decre": 7286,
      "▁wond": 7287,
      "▁sexually": 7288,
      "▁menu": 7289,
      "▁purple": 7290,
      "▁horror": 7291,
      "▁landlord": 7292,
      "▁flyers": 7293,
      "▁beneficial": 7294,
      "▁weights": 7295,
      "▁marty": 7296,
      "▁infin": 7297,
      "▁hills": 7298,
      "works": 7299,
      "▁clinic": 7300,
      "▁arrived": 7301,
      "craft": 7302,
      "▁buddies": 7303,
      "▁laptop": 7304,
      "ban": 7305,
      "pes": 7306,
      "▁lions": 7307,
      "owing": 7308,
      "▁beast": 7309,
      "omp": 7310,
      "aco": 7311,
      "▁knux": 7312,
      "▁trophy": 7313,
      "▁sheet": 7314,
      "▁perception": 7315,
      "▁debit": 7316,
      "▁attrib": 7317,
      "▁steel": 7318,
      "▁ceiling": 7319,
      "▁campus": 7320,
      "▁deciding": 7321,
      "▁birds": 7322,
      "▁reporter": 7323,
      "▁valentine": 7324,
      "▁unhealthy": 7325,
      "ded": 7326,
      "dra": 7327,
      "fish": 7328,
      "lc": 7329,
      "▁filed": 7330,
      "▁nba": 7331,
      "ici": 7332,
      "▁rage": 7333,
      "▁abusive": 7334,
      "▁quinn": 7335,
      "▁enh": 7336,
      "▁blan": 7337,
      "▁bruce": 7338,
      "▁phd": 7339,
      "▁remark": 7340,
      "▁discom": 7341,
      "▁hitler": 7342,
      "▁depos": 7343,
      "▁chronic": 7344,
      "▁counse": 7345,
      "▁clothing": 7346,
      "▁unhapp": 7347,
      "▁sauna": 7348,
      "▁greek": 7349,
      "▁siblings": 7350,
      "▁rhythm": 7351,
      "kins": 7352,
      "▁icon": 7353,
      "atable": 7354,
      "isms": 7355,
      "▁eld": 7356,
      "▁rib": 7357,
      "illion": 7358,
      "▁seek": 7359,
      "▁bron": 7360,
      "▁appeared": 7361,
      "▁skating": 7362,
      "▁crystal": 7363,
      "▁recommended": 7364,
      "▁frustration": 7365,
      "▁prospect": 7366,
      "▁encouraging": 7367,
      "mo": 7368,
      "▁pm": 7369,
      "▁krist": 7370,
      "roke": 7371,
      "▁defe": 7372,
      "▁manner": 7373,
      "▁offers": 7374,
      "▁correl": 7375,
      "▁explos": 7376,
      "▁stepping": 7377,
      "▁deter": 7378,
      "▁fires": 7379,
      "▁effectively": 7380,
      "session": 7381,
      "▁corey": 7382,
      "▁dylan": 7383,
      "▁lawyers": 7384,
      "▁uncertain": 7385,
      "aska": 7386,
      "▁acceler": 7387,
      "▁metaphor": 7388,
      "▁partnership": 7389,
      "▁calendar": 7390,
      "case": 7391,
      "▁ought": 7392,
      "▁jaw": 7393,
      "▁kent": 7394,
      "alled": 7395,
      "▁chin": 7396,
      "▁saves": 7397,
      "▁pron": 7398,
      "emb": 7399,
      "▁goaltend": 7400,
      "▁dealt": 7401,
      "▁grapp": 7402,
      "ahon": 7403,
      "▁supportive": 7404,
      "▁tradition": 7405,
      "▁combine": 7406,
      "▁limits": 7407,
      "▁journalist": 7408,
      "▁wheels": 7409,
      "▁consequence": 7410,
      "▁psychedelics": 7411,
      "▁mcmahon": 7412,
      "▁franchise": 7413,
      "▁ward": 7414,
      "▁wire": 7415,
      "▁mu": 7416,
      "▁passes": 7417,
      "▁beth": 7418,
      "verty": 7419,
      "roid": 7420,
      "▁backst": 7421,
      "▁rocks": 7422,
      "ulture": 7423,
      "▁genet": 7424,
      "▁gluc": 7425,
      "▁swallow": 7426,
      "▁choke": 7427,
      "▁elements": 7428,
      "▁popped": 7429,
      "▁subscription": 7430,
      "▁eastern": 7431,
      "▁ordered": 7432,
      "▁phenomenal": 7433,
      "▁neuros": 7434,
      "▁tas": 7435,
      "▁cough": 7436,
      "▁heather": 7437,
      "▁dele": 7438,
      "▁poverty": 7439,
      "▁overnight": 7440,
      "▁roast": 7441,
      "▁blank": 7442,
      "▁craig": 7443,
      "▁implic": 7444,
      "ucky": 7445,
      "▁command": 7446,
      "ictions": 7447,
      "▁headed": 7448,
      "ocy": 7449,
      "▁importantly": 7450,
      "▁agenda": 7451,
      "▁silent": 7452,
      "▁evolved": 7453,
      "▁chemistry": 7454,
      "▁gigantic": 7455,
      "▁squarespace": 7456,
      "▁fiance": 7457,
      "▁aligned": 7458,
      "▁longest": 7459,
      "▁counseling": 7460,
      "▁toys": 7461,
      "▁stem": 7462,
      "▁allerg": 7463,
      "ched": 7464,
      "▁france": 7465,
      "▁everyday": 7466,
      "▁understands": 7467,
      "▁easiest": 7468,
      "▁indo": 7469,
      "▁sounded": 7470,
      "▁memor": 7471,
      "▁mortg": 7472,
      "▁supported": 7473,
      "▁physic": 7474,
      "▁narrow": 7475,
      "▁electron": 7476,
      "▁projects": 7477,
      "▁purchased": 7478,
      "▁suffer": 7479,
      "▁mountains": 7480,
      "ivalent": 7481,
      "▁audiobook": 7482,
      "▁grabbed": 7483,
      "▁wasting": 7484,
      "▁jessie": 7485,
      "commercialbreak": 7486,
      "▁propaganda": 7487,
      "ios": 7488,
      "instein": 7489,
      "▁grain": 7490,
      "opath": 7491,
      "▁clown": 7492,
      "ogen": 7493,
      "▁schem": 7494,
      "▁chef": 7495,
      "▁winnip": 7496,
      "▁behalf": 7497,
      "▁freaked": 7498,
      "resp": 7499,
      "▁airb": 7500,
      "▁blows": 7501,
      "▁garland": 7502,
      "▁searching": 7503,
      "▁logical": 7504,
      "▁granted": 7505,
      "▁censor": 7506,
      "▁triggered": 7507,
      "▁bryan": 7508,
      "▁winnipeg": 7509,
      "▁mud": 7510,
      "▁lump": 7511,
      "▁cass": 7512,
      "▁nail": 7513,
      "▁suz": 7514,
      "▁unw": 7515,
      "athers": 7516,
      "▁reliable": 7517,
      "▁brandon": 7518,
      "▁samson": 7519,
      "▁survived": 7520,
      "▁automatic": 7521,
      "▁conclusion": 7522,
      "▁allegedly": 7523,
      "▁ingredients": 7524,
      "like": 7525,
      "▁cj": 7526,
      "▁nas": 7527,
      "▁inches": 7528,
      "chool": 7529,
      "▁proceed": 7530,
      "▁ramp": 7531,
      "▁assign": 7532,
      "▁paris": 7533,
      "▁pastor": 7534,
      "▁reset": 7535,
      "▁researchers": 7536,
      "▁grie": 7537,
      "▁portland": 7538,
      "mberg": 7539,
      "▁smells": 7540,
      "▁volume": 7541,
      "▁tears": 7542,
      "▁japanese": 7543,
      "gle": 7544,
      "zo": 7545,
      "▁dea": 7546,
      "▁nap": 7547,
      "izer": 7548,
      "▁hooking": 7549,
      "▁compell": 7550,
      "▁accused": 7551,
      "▁territ": 7552,
      "▁gras": 7553,
      "renal": 7554,
      "▁iran": 7555,
      "▁recovery": 7556,
      "▁affordable": 7557,
      "▁holmberg": 7558,
      "▁logic": 7559,
      "▁functioning": 7560,
      "▁witness": 7561,
      "▁glucose": 7562,
      "00": 7563,
      "conscious": 7564,
      "orter": 7565,
      "▁noah": 7566,
      "▁vpn": 7567,
      "istan": 7568,
      "akers": 7569,
      "▁careers": 7570,
      "orders": 7571,
      "▁thankful": 7572,
      "▁sucking": 7573,
      "▁shovel": 7574,
      "ugged": 7575,
      "▁writes": 7576,
      "▁efficient": 7577,
      "▁employer": 7578,
      "▁detective": 7579,
      "▁republicans": 7580,
      "▁cigarette": 7581,
      "▁julian": 7582,
      "▁candidate": 7583,
      "▁embrace": 7584,
      "▁stamps": 7585,
      "▁intimid": 7586,
      "▁excitement": 7587,
      "▁marathon": 7588,
      "win": 7589,
      "▁andre": 7590,
      "▁dose": 7591,
      "▁strain": 7592,
      "▁intensity": 7593,
      "▁agric": 7594,
      "▁acne": 7595,
      "▁drill": 7596,
      "▁retain": 7597,
      "▁christie": 7598,
      "▁menopause": 7599,
      "▁spreading": 7600,
      "▁variety": 7601,
      "▁clarity": 7602,
      "▁citizen": 7603,
      "▁advertising": 7604,
      "▁nazi": 7605,
      "▁shadow": 7606,
      "iu": 7607,
      "▁ot": 7608,
      "▁oak": 7609,
      "▁pi": 7610,
      "▁lisa": 7611,
      "▁inev": 7612,
      "oded": 7613,
      "ucing": 7614,
      "▁pel": 7615,
      "olen": 7616,
      "▁bigfoot": 7617,
      "▁monit": 7618,
      "▁questioning": 7619,
      "▁strict": 7620,
      "▁goalies": 7621,
      "▁accountable": 7622,
      "▁closest": 7623,
      "▁fastest": 7624,
      "▁versions": 7625,
      "▁concrete": 7626,
      "▁brave": 7627,
      "▁starb": 7628,
      "▁expectation": 7629,
      "▁biology": 7630,
      "▁journalists": 7631,
      "▁guaranteed": 7632,
      "▁visualize": 7633,
      "▁improv": 7634,
      "▁torture": 7635,
      "▁atmosphere": 7636,
      "▁wack": 7637,
      "cend": 7638,
      "▁brody": 7639,
      "▁arr": 7640,
      "▁default": 7641,
      "▁swed": 7642,
      "▁bark": 7643,
      "▁irre": 7644,
      "▁affects": 7645,
      "▁empower": 7646,
      "▁heavily": 7647,
      "▁hawaii": 7648,
      "▁nutrients": 7649,
      "▁discomfort": 7650,
      "tim": 7651,
      "▁bia": 7652,
      "▁stew": 7653,
      "cest": 7654,
      "term": 7655,
      "▁sue": 7656,
      "▁scro": 7657,
      "▁drank": 7658,
      "▁homeown": 7659,
      "▁connecting": 7660,
      "▁estrogen": 7661,
      "▁begins": 7662,
      "▁girlfriends": 7663,
      "ography": 7664,
      "▁corporations": 7665,
      "▁teenage": 7666,
      "▁relaxed": 7667,
      "▁gentleman": 7668,
      "▁vibr": 7669,
      "▁mortgages": 7670,
      "5th": 7671,
      "hard": 7672,
      "inal": 7673,
      "▁oreg": 7674,
      "▁bot": 7675,
      "sty": 7676,
      "omo": 7677,
      "▁jiu": 7678,
      "▁races": 7679,
      "adel": 7680,
      "▁mold": 7681,
      "▁impressed": 7682,
      "▁weirdest": 7683,
      "rence": 7684,
      "awa": 7685,
      "▁youngest": 7686,
      "▁messy": 7687,
      "▁hypn": 7688,
      "▁visiting": 7689,
      "▁irs": 7690,
      "▁affir": 7691,
      "▁convention": 7692,
      "▁statistics": 7693,
      "▁voted": 7694,
      "▁orders": 7695,
      "▁evolutionary": 7696,
      "▁settled": 7697,
      "▁permanent": 7698,
      "▁starbucks": 7699,
      "▁oregon": 7700,
      "west": 7701,
      "za": 7702,
      "▁fits": 7703,
      "▁dod": 7704,
      "▁anonym": 7705,
      "▁abund": 7706,
      "▁outs": 7707,
      "ppers": 7708,
      "cience": 7709,
      "▁amen": 7710,
      "▁freeze": 7711,
      "▁handled": 7712,
      "▁secrets": 7713,
      "▁physi": 7714,
      "▁shoots": 7715,
      "▁viruses": 7716,
      "▁producers": 7717,
      "▁norther": 7718,
      "▁avoiding": 7719,
      "▁presented": 7720,
      "▁drawing": 7721,
      "▁carlos": 7722,
      "▁collapse": 7723,
      "▁rifle": 7724,
      "oons": 7725,
      "▁nails": 7726,
      "▁shifts": 7727,
      "gender": 7728,
      "▁placed": 7729,
      "acks": 7730,
      "ila": 7731,
      "▁intended": 7732,
      "▁wells": 7733,
      "▁diss": 7734,
      "▁entered": 7735,
      "▁openly": 7736,
      "▁estim": 7737,
      "▁worrying": 7738,
      "▁mattress": 7739,
      "▁unconscious": 7740,
      "▁jenn": 7741,
      "▁pouring": 7742,
      "▁penguins": 7743,
      "7th": 7744,
      "game": 7745,
      "▁tang": 7746,
      "orse": 7747,
      "▁ell": 7748,
      "othy": 7749,
      "▁scam": 7750,
      "▁billy": 7751,
      "▁interests": 7752,
      "▁cultures": 7753,
      "▁skinner": 7754,
      "▁criticism": 7755,
      "▁confirmed": 7756,
      "▁academic": 7757,
      "▁eliminate": 7758,
      "▁slept": 7759,
      "▁vietnam": 7760,
      "▁northern": 7761,
      "gent": 7762,
      "▁tale": 7763,
      "▁dav": 7764,
      "▁gh": 7765,
      "▁dean": 7766,
      "▁diaz": 7767,
      "▁unknown": 7768,
      "▁greed": 7769,
      "▁singer": 7770,
      "▁detailed": 7771,
      "▁universities": 7772,
      "▁ultra": 7773,
      "▁jeans": 7774,
      "▁strategies": 7775,
      "▁nicer": 7776,
      "▁rapid": 7777,
      "▁european": 7778,
      "▁activities": 7779,
      "▁casual": 7780,
      "▁unfair": 7781,
      "▁preparing": 7782,
      "ales": 7783,
      "me": 7784,
      "oos": 7785,
      "▁tire": 7786,
      "▁toes": 7787,
      "▁furn": 7788,
      "anche": 7789,
      "keys": 7790,
      "veled": 7791,
      "▁rape": 7792,
      "abet": 7793,
      "▁sued": 7794,
      "▁scares": 7795,
      "▁giveaway": 7796,
      "▁markets": 7797,
      "uckle": 7798,
      "▁humble": 7799,
      "▁calc": 7800,
      "▁rolled": 7801,
      "▁models": 7802,
      "▁dependent": 7803,
      "▁receiving": 7804,
      "▁hustles": 7805,
      "▁seventh": 7806,
      "fr": 7807,
      "▁fiction": 7808,
      "▁upstairs": 7809,
      "▁alan": 7810,
      "▁daycare": 7811,
      "osition": 7812,
      "▁symp": 7813,
      "▁charging": 7814,
      "▁lighting": 7815,
      "▁magical": 7816,
      "▁societ": 7817,
      "clip": 7818,
      "▁layers": 7819,
      "▁assumed": 7820,
      "▁discussing": 7821,
      "▁communicating": 7822,
      "▁floating": 7823,
      "▁fascinated": 7824,
      "▁escal": 7825,
      "▁battery": 7826,
      "▁skept": 7827,
      "▁highlights": 7828,
      "▁innovation": 7829,
      "▁funniest": 7830,
      "▁outrageous": 7831,
      "▁temporary": 7832,
      "▁pyramid": 7833,
      "gic": 7834,
      "oen": 7835,
      "rimin": 7836,
      "llo": 7837,
      "▁eg": 7838,
      "aria": 7839,
      "ided": 7840,
      "▁prox": 7841,
      "▁amend": 7842,
      "▁marg": 7843,
      "athetic": 7844,
      "▁zip": 7845,
      "▁jerk": 7846,
      "▁encoun": 7847,
      "▁machines": 7848,
      "▁creep": 7849,
      "▁criminals": 7850,
      "▁wounds": 7851,
      "▁suspicious": 7852,
      "▁interactions": 7853,
      "▁inspiration": 7854,
      "▁masturb": 7855,
      "▁resentment": 7856,
      "▁katie": 7857,
      "embered": 7858,
      "mies": 7859,
      "ura": 7860,
      "oms": 7861,
      "uman": 7862,
      "▁stero": 7863,
      "acon": 7864,
      "▁allen": 7865,
      "▁noble": 7866,
      "▁cleared": 7867,
      "▁mature": 7868,
      "aware": 7869,
      "▁transgender": 7870,
      "▁creator": 7871,
      "▁speaker": 7872,
      "▁regularly": 7873,
      "▁deny": 7874,
      "▁ladder": 7875,
      "▁pills": 7876,
      "▁olympic": 7877,
      "▁exhausting": 7878,
      "▁rumors": 7879,
      "▁teenagers": 7880,
      "▁grabbing": 7881,
      "▁60s": 7882,
      "▁adventure": 7883,
      "adelphia": 7884,
      "agh": 7885,
      "bie": 7886,
      "fight": 7887,
      "▁aven": 7888,
      "▁sway": 7889,
      "▁han": 7890,
      "▁youth": 7891,
      "▁cable": 7892,
      "▁todd": 7893,
      "▁chosen": 7894,
      "▁buzz": 7895,
      "▁leverage": 7896,
      "▁unex": 7897,
      "▁cruc": 7898,
      "▁slam": 7899,
      "▁sword": 7900,
      "▁landing": 7901,
      "▁maddie": 7902,
      "▁satan": 7903,
      "▁denver": 7904,
      "▁flowing": 7905,
      "▁philadelphia": 7906,
      "nett": 7907,
      "▁duncan": 7908,
      "not": 7909,
      "▁bio": 7910,
      "▁dud": 7911,
      "uts": 7912,
      "adium": 7913,
      "▁chim": 7914,
      "▁precise": 7915,
      "▁afghan": 7916,
      "▁questionna": 7917,
      "▁fallen": 7918,
      "▁passive": 7919,
      "▁engaging": 7920,
      "going": 7921,
      "▁reporting": 7922,
      "▁operations": 7923,
      "▁circles": 7924,
      "▁hillary": 7925,
      "▁murderer": 7926,
      "paper": 7927,
      "▁nerves": 7928,
      "▁jacob": 7929,
      "▁sophistic": 7930,
      "▁mobile": 7931,
      "▁corruption": 7932,
      "▁isolated": 7933,
      "▁inflammation": 7934,
      "▁airplane": 7935,
      "city": 7936,
      "pm": 7937,
      "sight": 7938,
      "▁tens": 7939,
      "▁ooh": 7940,
      "▁backed": 7941,
      "▁dere": 7942,
      "isc": 7943,
      "▁jee": 7944,
      "▁stink": 7945,
      "▁forcing": 7946,
      "▁coal": 7947,
      "▁spark": 7948,
      "aret": 7949,
      "▁prec": 7950,
      "▁keith": 7951,
      "▁shitting": 7952,
      "▁priz": 7953,
      "saysolutions": 7954,
      "▁mainly": 7955,
      "▁irrit": 7956,
      "▁commercials": 7957,
      "▁organizations": 7958,
      "▁approved": 7959,
      "▁predators": 7960,
      "▁candy": 7961,
      "▁30s": 7962,
      "▁remains": 7963,
      "▁clinical": 7964,
      "▁stranger": 7965,
      "cons": 7966,
      "▁osc": 7967,
      "▁mant": 7968,
      "▁nik": 7969,
      "orbid": 7970,
      "▁ripped": 7971,
      "▁sect": 7972,
      "▁chief": 7973,
      "▁trace": 7974,
      "▁diam": 7975,
      "▁friendships": 7976,
      "ishing": 7977,
      "▁brock": 7978,
      "▁grows": 7979,
      "▁torn": 7980,
      "▁burger": 7981,
      "asca": 7982,
      "▁randomly": 7983,
      "▁angel": 7984,
      "▁owed": 7985,
      "▁airbn": 7986,
      "rical": 7987,
      "▁witch": 7988,
      "▁fried": 7989,
      "onin": 7990,
      "▁hallow": 7991,
      "oted": 7992,
      "▁jt": 7993,
      "▁rear": 7994,
      "▁rating": 7995,
      "umble": 7996,
      "ads": 7997,
      "rie": 7998,
      "▁minnes": 7999,
      "aughter": 8000,
      "▁midnight": 8001,
      "▁recon": 8002,
      "▁refin": 8003,
      "archy": 8004,
      "▁equivalent": 8005,
      "▁appreciation": 8006,
      "▁producing": 8007,
      "▁beaten": 8008,
      "▁cleaned": 8009,
      "▁existing": 8010,
      "▁multi": 8011,
      "▁productive": 8012,
      "▁celebrities": 8013,
      "▁attachment": 8014,
      "▁carlson": 8015,
      "▁unpack": 8016,
      "▁hypothet": 8017,
      "ahuasca": 8018,
      "▁ayahuasca": 8019,
      "▁florence": 8020,
      "iac": 8021,
      "ette": 8022,
      "▁seeds": 8023,
      "▁chir": 8024,
      "▁fruits": 8025,
      "ffe": 8026,
      "ulting": 8027,
      "▁boots": 8028,
      "▁adrenal": 8029,
      "▁underrated": 8030,
      "▁inspect": 8031,
      "▁shoe": 8032,
      "▁eighth": 8033,
      "▁promote": 8034,
      "▁insanely": 8035,
      "▁recognizing": 8036,
      "▁merry": 8037,
      "▁materials": 8038,
      "▁votes": 8039,
      "▁papa": 8040,
      "▁steady": 8041,
      "▁coolest": 8042,
      "▁barbecue": 8043,
      "▁tissue": 8044,
      "▁minnesota": 8045,
      "oke": 8046,
      "inch": 8047,
      "▁sung": 8048,
      "▁worries": 8049,
      "▁extern": 8050,
      "ilocy": 8051,
      "▁que": 8052,
      "▁blur": 8053,
      "▁slap": 8054,
      "▁topics": 8055,
      "▁transform": 8056,
      "▁testimony": 8057,
      "▁involve": 8058,
      "opher": 8059,
      "▁facetime": 8060,
      "holm": 8061,
      "▁billionaire": 8062,
      "▁cows": 8063,
      "▁disciplined": 8064,
      "▁deduct": 8065,
      "▁vibes": 8066,
      "▁substant": 8067,
      "▁jennifer": 8068,
      "▁margaret": 8069,
      "tr": 8070,
      "▁dicks": 8071,
      "▁jung": 8072,
      "▁kr": 8073,
      "▁anne": 8074,
      "▁plot": 8075,
      "inder": 8076,
      "▁ages": 8077,
      "▁rook": 8078,
      "▁realm": 8079,
      "▁caring": 8080,
      "▁blues": 8081,
      "▁stunt": 8082,
      "▁slipp": 8083,
      "▁regulation": 8084,
      "▁trainer": 8085,
      "▁communist": 8086,
      "▁equally": 8087,
      "▁environmental": 8088,
      "▁merch": 8089,
      "▁computers": 8090,
      "▁bombing": 8091,
      "▁appears": 8092,
      "▁infection": 8093,
      "▁unhappy": 8094,
      "▁questionnaire": 8095,
      "liness": 8096,
      "▁tucker": 8097,
      "▁gab": 8098,
      "ena": 8099,
      "▁eclip": 8100,
      "▁socially": 8101,
      "▁stadium": 8102,
      "▁seed": 8103,
      "▁manh": 8104,
      "▁joel": 8105,
      "▁ross": 8106,
      "▁leather": 8107,
      "▁scand": 8108,
      "▁carn": 8109,
      "▁monsters": 8110,
      "▁differences": 8111,
      "▁relief": 8112,
      "▁smiling": 8113,
      "▁slave": 8114,
      "▁dealer": 8115,
      "▁patterson": 8116,
      "▁turkey": 8117,
      "▁boundary": 8118,
      "▁dominant": 8119,
      "▁etc": 8120,
      "▁savage": 8121,
      "▁surrounded": 8122,
      "▁dismiss": 8123,
      "▁tackle": 8124,
      "▁convenient": 8125,
      "iance": 8126,
      "wa": 8127,
      "erved": 8128,
      "▁nathan": 8129,
      "▁hal": 8130,
      "▁jere": 8131,
      "verted": 8132,
      "▁shark": 8133,
      "lying": 8134,
      "▁neural": 8135,
      "raged": 8136,
      "▁truba": 8137,
      "osaur": 8138,
      "▁thankfully": 8139,
      "ews": 8140,
      "tsd": 8141,
      "▁travis": 8142,
      "▁creativity": 8143,
      "▁pops": 8144,
      "▁tracks": 8145,
      "▁gains": 8146,
      "▁jonathan": 8147,
      "▁features": 8148,
      "▁jeez": 8149,
      "▁halloween": 8150,
      "cil": 8151,
      "fol": 8152,
      "pu": 8153,
      "ouri": 8154,
      "inum": 8155,
      "▁sink": 8156,
      "▁gy": 8157,
      "▁pul": 8158,
      "▁liking": 8159,
      "▁beard": 8160,
      "▁goof": 8161,
      "▁stability": 8162,
      "▁stolen": 8163,
      "▁withdra": 8164,
      "▁alab": 8165,
      "▁experiments": 8166,
      "▁grams": 8167,
      "▁sixth": 8168,
      "ervation": 8169,
      "▁handsome": 8170,
      "▁cups": 8171,
      "▁recognized": 8172,
      "▁danny": 8173,
      "▁failing": 8174,
      "▁bombs": 8175,
      "▁hunters": 8176,
      "▁flags": 8177,
      "▁provided": 8178,
      "▁application": 8179,
      "▁squeeze": 8180,
      "▁lawsuit": 8181,
      "▁immunity": 8182,
      "based": 8183,
      "sen": 8184,
      "▁ties": 8185,
      "onents": 8186,
      "▁struck": 8187,
      "▁retreat": 8188,
      "▁editing": 8189,
      "▁patience": 8190,
      "▁filmed": 8191,
      "▁interviewing": 8192,
      "▁compliment": 8193,
      "▁destination": 8194,
      "▁replay": 8195,
      "▁institutions": 8196,
      "▁psilocy": 8197,
      "8th": 8198,
      "col": 8199,
      "▁rats": 8200,
      "▁abused": 8201,
      "ading": 8202,
      "▁asks": 8203,
      "▁moose": 8204,
      "elines": 8205,
      "▁femin": 8206,
      "▁roles": 8207,
      "▁hog": 8208,
      "▁idiots": 8209,
      "▁olds": 8210,
      "▁breakup": 8211,
      "▁warrant": 8212,
      "▁filing": 8213,
      "▁elected": 8214,
      "▁collection": 8215,
      "▁blend": 8216,
      "▁hallway": 8217,
      "▁reviews": 8218,
      "▁ashamed": 8219,
      "▁mexican": 8220,
      "▁analogy": 8221,
      "▁obligation": 8222,
      "▁inheritance": 8223,
      "▁colleagues": 8224,
      "▁wacky": 8225,
      "cers": 8226,
      "▁wrist": 8227,
      "▁cord": 8228,
      "▁intro": 8229,
      "▁drone": 8230,
      "▁gene": 8231,
      "▁entering": 8232,
      "lessly": 8233,
      "▁solo": 8234,
      "▁barry": 8235,
      "▁michelle": 8236,
      "▁grip": 8237,
      "▁celebrating": 8238,
      "▁tunnel": 8239,
      "▁supplements": 8240,
      "▁helicopter": 8241,
      "▁cure": 8242,
      "▁patch": 8243,
      "enced": 8244,
      "berry": 8245,
      "opes": 8246,
      "▁notion": 8247,
      "rape": 8248,
      "▁plag": 8249,
      "▁pleas": 8250,
      "▁users": 8251,
      "best": 8252,
      "aping": 8253,
      "▁phoen": 8254,
      "▁moms": 8255,
      "▁medium": 8256,
      "▁importance": 8257,
      "▁eleph": 8258,
      "▁statements": 8259,
      "▁horny": 8260,
      "▁posts": 8261,
      "▁bottles": 8262,
      "▁tables": 8263,
      "▁behaviors": 8264,
      "▁separated": 8265,
      "▁caroline": 8266,
      "▁priorit": 8267,
      "▁accepting": 8268,
      "▁hammer": 8269,
      "▁ankle": 8270,
      "▁ottawa": 8271,
      "▁elder": 8272,
      "▁derek": 8273,
      "▁airbnb": 8274,
      "▁phoenix": 8275,
      "lies": 8276,
      "lah": 8277,
      "inent": 8278,
      "▁cad": 8279,
      "arms": 8280,
      "▁ford": 8281,
      "▁ancest": 8282,
      "▁lottery": 8283,
      "▁kend": 8284,
      "▁carter": 8285,
      "▁hearts": 8286,
      "▁exposure": 8287,
      "▁crushing": 8288,
      "▁simult": 8289,
      "▁index": 8290,
      "▁gregor": 8291,
      "▁sweating": 8292,
      "▁smoked": 8293,
      "cca": 8294,
      "▁piggy": 8295,
      "▁association": 8296,
      "▁promoting": 8297,
      "▁officials": 8298,
      "▁african": 8299,
      "▁recipe": 8300,
      "▁robinhood": 8301,
      "▁slaves": 8302,
      "▁entitled": 8303,
      "1st": 8304,
      "lie": 8305,
      "made": 8306,
      "vable": 8307,
      "▁icing": 8308,
      "▁sab": 8309,
      "▁sna": 8310,
      "▁hers": 8311,
      "▁caut": 8312,
      "▁nailed": 8313,
      "▁kate": 8314,
      "▁dol": 8315,
      "▁sov": 8316,
      "▁stare": 8317,
      "urd": 8318,
      "active": 8319,
      "aceut": 8320,
      "▁scroll": 8321,
      "▁fuckers": 8322,
      "apers": 8323,
      "▁contag": 8324,
      "▁resign": 8325,
      "▁insist": 8326,
      "▁podcasting": 8327,
      "ahan": 8328,
      "▁eighteen": 8329,
      "▁bennett": 8330,
      "▁laund": 8331,
      "▁device": 8332,
      "▁caffe": 8333,
      "▁defending": 8334,
      "▁replacement": 8335,
      "▁academy": 8336,
      "▁sophia": 8337,
      "▁trillion": 8338,
      "▁withdraw": 8339,
      "fun": 8340,
      "job": 8341,
      "ounder": 8342,
      "▁wendy": 8343,
      "▁riots": 8344,
      "▁stitch": 8345,
      "uci": 8346,
      "▁anna": 8347,
      "▁fever": 8348,
      "▁homework": 8349,
      "▁resid": 8350,
      "▁mini": 8351,
      "▁walmart": 8352,
      "▁zomb": 8353,
      "▁extended": 8354,
      "tenance": 8355,
      "cycle": 8356,
      "inson": 8357,
      "▁maintenance": 8358,
      "▁illustr": 8359,
      "▁claiming": 8360,
      "▁kickbox": 8361,
      "▁denied": 8362,
      "▁infra": 8363,
      "▁punches": 8364,
      "▁threats": 8365,
      "▁robbed": 8366,
      "breaking": 8367,
      "innon": 8368,
      "▁palm": 8369,
      "▁accomplished": 8370,
      "▁elevator": 8371,
      "▁bugs": 8372,
      "▁tolerate": 8373,
      "▁lemon": 8374,
      "▁adhd": 8375,
      "▁psilocybin": 8376,
      "aceutical": 8377,
      "inate": 8378,
      "▁sed": 8379,
      "▁hbo": 8380,
      "▁cod": 8381,
      "▁cents": 8382,
      "▁android": 8383,
      "itating": 8384,
      "▁jared": 8385,
      "oline": 8386,
      "oky": 8387,
      "▁goods": 8388,
      "▁sperm": 8389,
      "▁downs": 8390,
      "▁compreh": 8391,
      "▁watches": 8392,
      "▁highway": 8393,
      "▁gee": 8394,
      "▁metab": 8395,
      "▁mentor": 8396,
      "▁struggles": 8397,
      "▁layer": 8398,
      "▁applying": 8399,
      "▁wasted": 8400,
      "▁speculation": 8401,
      "▁lungs": 8402,
      "▁afghanistan": 8403,
      "▁sophisticated": 8404,
      "▁alabama": 8405,
      "och": 8406,
      "▁tub": 8407,
      "▁ip": 8408,
      "▁lance": 8409,
      "anne": 8410,
      "oty": 8411,
      "arin": 8412,
      "▁chess": 8413,
      "igration": 8414,
      "▁backp": 8415,
      "▁needing": 8416,
      "▁worker": 8417,
      "▁hollow": 8418,
      "▁remembered": 8419,
      "▁emma": 8420,
      "▁builds": 8421,
      "▁adds": 8422,
      "▁regist": 8423,
      "▁snake": 8424,
      "▁audi": 8425,
      "▁judging": 8426,
      "▁dinosaur": 8427,
      "▁autonom": 8428,
      "obia": 8429,
      "▁filling": 8430,
      "▁hospitals": 8431,
      "▁educated": 8432,
      "▁seals": 8433,
      "▁rejected": 8434,
      "▁candidates": 8435,
      "▁adopt": 8436,
      "▁stimul": 8437,
      "dit": 8438,
      "iques": 8439,
      "▁theft": 8440,
      "keep": 8441,
      "isl": 8442,
      "▁rant": 8443,
      "▁rapp": 8444,
      "▁exagger": 8445,
      "iefs": 8446,
      "cock": 8447,
      "▁intervention": 8448,
      "▁handful": 8449,
      "▁serial": 8450,
      "▁sells": 8451,
      "▁region": 8452,
      "▁missouri": 8453,
      "▁sunlight": 8454,
      "▁20th": 8455,
      "▁traumatic": 8456,
      "▁fields": 8457,
      "▁reminded": 8458,
      "▁shifted": 8459,
      "▁tweets": 8460,
      "▁absurd": 8461,
      "▁insecurity": 8462,
      "▁launched": 8463,
      "▁phenomenon": 8464,
      "▁gaza": 8465,
      "▁pharmaceutical": 8466,
      "▁mckinnon": 8467,
      "▁brokerage": 8468,
      "▁counselor": 8469,
      "▁symbol": 8470,
      "dl": 8471,
      "▁mma": 8472,
      "▁soil": 8473,
      "▁shield": 8474,
      "ulum": 8475,
      "▁mansion": 8476,
      "idem": 8477,
      "▁overd": 8478,
      "▁partly": 8479,
      "▁scot": 8480,
      "▁carr": 8481,
      "▁fucker": 8482,
      "▁breed": 8483,
      "issions": 8484,
      "▁minded": 8485,
      "▁basics": 8486,
      "▁nicest": 8487,
      "▁solved": 8488,
      "▁drawn": 8489,
      "▁laughed": 8490,
      "▁affair": 8491,
      "▁balanced": 8492,
      "▁affecting": 8493,
      "▁puppy": 8494,
      "▁lifting": 8495,
      "▁determined": 8496,
      "▁cousins": 8497,
      "▁reveal": 8498,
      "▁divided": 8499,
      "▁autopsy": 8500,
      "▁tires": 8501,
      "▁nom": 8502,
      "oral": 8503,
      "▁libr": 8504,
      "ito": 8505,
      "omy": 8506,
      "▁stroke": 8507,
      "▁oklah": 8508,
      "▁imper": 8509,
      "she": 8510,
      "▁flies": 8511,
      "▁decor": 8512,
      "▁attend": 8513,
      "▁farming": 8514,
      "▁parenting": 8515,
      "▁possibilities": 8516,
      "▁paran": 8517,
      "▁fasting": 8518,
      "▁physics": 8519,
      "▁colon": 8520,
      "▁rising": 8521,
      "▁pete": 8522,
      "▁ignor": 8523,
      "▁heroes": 8524,
      "▁suggested": 8525,
      "▁drafted": 8526,
      "▁praying": 8527,
      "▁veteran": 8528,
      "▁whitney": 8529,
      "▁pierre": 8530,
      "▁territory": 8531,
      "▁manhatt": 8532,
      "▁caffeine": 8533,
      "lasses": 8534,
      "mons": 8535,
      "▁dak": 8536,
      "▁fet": 8537,
      "second": 8538,
      "▁eco": 8539,
      "▁stages": 8540,
      "▁forbid": 8541,
      "▁deploy": 8542,
      "gesting": 8543,
      "▁tricks": 8544,
      "shop": 8545,
      "shirt": 8546,
      "▁kel": 8547,
      "▁emph": 8548,
      "▁specul": 8549,
      "rams": 8550,
      "▁healthcare": 8551,
      "ushkin": 8552,
      "▁epidem": 8553,
      "▁truths": 8554,
      "▁politically": 8555,
      "▁annivers": 8556,
      "▁divide": 8557,
      "▁respected": 8558,
      "▁devils": 8559,
      "▁russell": 8560,
      "▁replaced": 8561,
      "▁preposter": 8562,
      "▁consideration": 8563,
      "▁freddie": 8564,
      "▁infected": 8565,
      "▁hamilton": 8566,
      "▁algorithm": 8567,
      "▁privilege": 8568,
      "▁agriculture": 8569,
      "hardt": 8570,
      "nat": 8571,
      "tail": 8572,
      "ativity": 8573,
      "▁busted": 8574,
      "▁lens": 8575,
      "▁inex": 8576,
      "idal": 8577,
      "▁upload": 8578,
      "rous": 8579,
      "▁ket": 8580,
      "▁funeral": 8581,
      "▁advocate": 8582,
      "▁barrel": 8583,
      "▁grandpa": 8584,
      "▁streak": 8585,
      "▁boxer": 8586,
      "▁fixing": 8587,
      "▁grizz": 8588,
      "iotics": 8589,
      "▁desperately": 8590,
      "▁diagnosed": 8591,
      "▁pursuing": 8592,
      "▁maximum": 8593,
      "▁compelling": 8594,
      "▁adrenaline": 8595,
      "▁manhattan": 8596,
      "log": 8597,
      "mond": 8598,
      "pay": 8599,
      "▁tread": 8600,
      "▁bing": 8601,
      "▁mah": 8602,
      "lle": 8603,
      "▁alaska": 8604,
      "urkin": 8605,
      "▁congo": 8606,
      "▁blocking": 8607,
      "▁monitor": 8608,
      "▁hier": 8609,
      "▁flav": 8610,
      "▁roommates": 8611,
      "▁starter": 8612,
      "▁mcl": 8613,
      "▁industrial": 8614,
      "▁threatening": 8615,
      "▁farmers": 8616,
      "▁ethical": 8617,
      "▁haunted": 8618,
      "▁alpha": 8619,
      "▁luxury": 8620,
      "60s": 8621,
      "aid": 8622,
      "tical": 8623,
      "▁bass": 8624,
      "▁md": 8625,
      "▁shast": 8626,
      "▁exit": 8627,
      "▁putin": 8628,
      "▁cared": 8629,
      "▁headlines": 8630,
      "▁evan": 8631,
      "▁genoc": 8632,
      "▁grabs": 8633,
      "▁investor": 8634,
      "▁refs": 8635,
      "▁penny": 8636,
      "▁starving": 8637,
      "balls": 8638,
      "▁marketplace": 8639,
      "▁irish": 8640,
      "▁10th": 8641,
      "▁fisher": 8642,
      "▁bands": 8643,
      "▁schedu": 8644,
      "▁journalism": 8645,
      "▁tattoos": 8646,
      "▁frequently": 8647,
      "▁squirrel": 8648,
      "▁anniversary": 8649,
      "▁preposterous": 8650,
      "lim": 8651,
      "rors": 8652,
      "▁ian": 8653,
      "▁ove": 8654,
      "▁bure": 8655,
      "▁cav": 8656,
      "▁nipp": 8657,
      "▁sole": 8658,
      "ulsion": 8659,
      "astroph": 8660,
      "▁overse": 8661,
      "▁pricing": 8662,
      "▁firing": 8663,
      "▁unif": 8664,
      "▁string": 8665,
      "▁evalu": 8666,
      "▁bothers": 8667,
      "neys": 8668,
      "▁repairs": 8669,
      "▁imagination": 8670,
      "▁recall": 8671,
      "ifications": 8672,
      "▁madison": 8673,
      "ribly": 8674,
      "▁skinny": 8675,
      "▁exerci": 8676,
      "▁catastroph": 8677,
      "▁40s": 8678,
      "herent": 8679,
      "▁negotiate": 8680,
      "▁comparing": 8681,
      "▁scrolling": 8682,
      "▁eclipse": 8683,
      "▁simultaneously": 8684,
      "▁oklahoma": 8685,
      "build": 8686,
      "mont": 8687,
      "oe": 8688,
      "rup": 8689,
      "test": 8690,
      "va": 8691,
      "▁bunk": 8692,
      "isa": 8693,
      "▁kin": 8694,
      "▁stairs": 8695,
      "illing": 8696,
      "▁unreal": 8697,
      "▁brick": 8698,
      "▁smash": 8699,
      "▁surve": 8700,
      "▁hyman": 8701,
      "▁existential": 8702,
      "▁salad": 8703,
      "▁alexander": 8704,
      "▁writers": 8705,
      "▁exception": 8706,
      "▁structures": 8707,
      "▁royal": 8708,
      "▁veterans": 8709,
      "▁hypothesis": 8710,
      "▁intentions": 8711,
      "▁urlramsey": 8712,
      "▁amendment": 8713,
      "▁diamond": 8714,
      "▁external": 8715,
      "ckets": 8716,
      "iate": 8717,
      "inations": 8718,
      "▁bun": 8719,
      "▁fist": 8720,
      "▁fpu": 8721,
      "▁pam": 8722,
      "step": 8723,
      "▁myers": 8724,
      "▁delete": 8725,
      "▁wellness": 8726,
      "iece": 8727,
      "▁mane": 8728,
      "▁carried": 8729,
      "▁flower": 8730,
      "▁surf": 8731,
      "▁weekday": 8732,
      "▁signals": 8733,
      "▁transformation": 8734,
      "▁creatures": 8735,
      "▁newspaper": 8736,
      "▁paperwork": 8737,
      "▁losses": 8738,
      "▁consume": 8739,
      "▁improvement": 8740,
      "▁optimistic": 8741,
      "▁pedoph": 8742,
      "▁echo": 8743,
      "▁warrior": 8744,
      "cal": 8745,
      "fi": 8746,
      "▁wat": 8747,
      "▁wid": 8748,
      "▁gath": 8749,
      "▁fu": 8750,
      "▁ptsd": 8751,
      "▁liability": 8752,
      "umer": 8753,
      "▁stor": 8754,
      "▁shirts": 8755,
      "▁knucks": 8756,
      "▁comd": 8757,
      "ilize": 8758,
      "ifies": 8759,
      "▁listed": 8760,
      "▁apples": 8761,
      "▁sitcom": 8762,
      "▁trials": 8763,
      "▁tripping": 8764,
      "▁vet": 8765,
      "▁refused": 8766,
      "▁reddit": 8767,
      "▁films": 8768,
      "▁defensemen": 8769,
      "▁addictive": 8770,
      "▁bleeding": 8771,
      "▁annoyed": 8772,
      "▁festival": 8773,
      "etti": 8774,
      "▁decrease": 8775,
      "▁remarkable": 8776,
      "▁cassie": 8777,
      "▁sunglasses": 8778,
      "iant": 8779,
      "ras": 8780,
      "rating": 8781,
      "▁thread": 8782,
      "▁wand": 8783,
      "▁lun": 8784,
      "▁por": 8785,
      "state": 8786,
      "kel": 8787,
      "▁hend": 8788,
      "▁jacked": 8789,
      "oker": 8790,
      "orted": 8791,
      "▁marks": 8792,
      "▁perceive": 8793,
      "▁commorbid": 8794,
      "▁defund": 8795,
      "▁superh": 8796,
      "▁subconscious": 8797,
      "▁psychologically": 8798,
      "▁treas": 8799,
      "▁dennis": 8800,
      "▁investigate": 8801,
      "▁reminder": 8802,
      "▁discovery": 8803,
      "▁bonkers": 8804,
      "inois": 8805,
      "▁subjects": 8806,
      "▁gamble": 8807,
      "▁methods": 8808,
      "▁lyrics": 8809,
      "▁historically": 8810,
      "▁sparring": 8811,
      "▁transportation": 8812,
      "▁laundry": 8813,
      "ker": 8814,
      "mie": 8815,
      "▁hed": 8816,
      "▁bouch": 8817,
      "▁dimin": 8818,
      "▁gag": 8819,
      "▁piv": 8820,
      "iro": 8821,
      "abilities": 8822,
      "▁safer": 8823,
      "▁cosm": 8824,
      "▁slut": 8825,
      "▁dealership": 8826,
      "ologies": 8827,
      "▁traged": 8828,
      "▁collabor": 8829,
      "▁psychologist": 8830,
      "▁radiation": 8831,
      "▁forgiveness": 8832,
      "▁booked": 8833,
      "▁temple": 8834,
      "▁borrowing": 8835,
      "▁dressing": 8836,
      "▁occurred": 8837,
      "▁marshan": 8838,
      "▁concentrate": 8839,
      "▁destruction": 8840,
      "▁rookie": 8841,
      "word": 8842,
      "▁fid": 8843,
      "anity": 8844,
      "▁nah": 8845,
      "iture": 8846,
      "isons": 8847,
      "▁shy": 8848,
      "▁alter": 8849,
      "▁feature": 8850,
      "▁cooked": 8851,
      "▁wayne": 8852,
      "▁clay": 8853,
      "▁roots": 8854,
      "▁blu": 8855,
      "▁acres": 8856,
      "▁contest": 8857,
      "▁tragic": 8858,
      "ramsaysolutions": 8859,
      "▁assass": 8860,
      "▁subway": 8861,
      "▁priest": 8862,
      "▁colors": 8863,
      "▁wallet": 8864,
      "▁sammie": 8865,
      "▁gigs": 8866,
      "▁significantly": 8867,
      "▁thrive": 8868,
      "▁substance": 8869,
      "▁abandoned": 8870,
      "▁potatoes": 8871,
      "▁jeremy": 8872,
      "▁ivy": 8873,
      "▁nich": 8874,
      "▁ine": 8875,
      "▁goat": 8876,
      "▁islam": 8877,
      "acious": 8878,
      "▁donate": 8879,
      "▁howard": 8880,
      "oli": 8881,
      "ethear": 8882,
      "▁poke": 8883,
      "▁offside": 8884,
      "▁overth": 8885,
      "ardo": 8886,
      "▁blaming": 8887,
      "▁mommy": 8888,
      "▁slot": 8889,
      "▁slip": 8890,
      "▁centers": 8891,
      "▁sweethear": 8892,
      "▁programming": 8893,
      "▁finishing": 8894,
      "▁matches": 8895,
      "▁trades": 8896,
      "▁cyn": 8897,
      "▁cyber": 8898,
      "▁discussions": 8899,
      "▁honored": 8900,
      "▁pillow": 8901,
      "▁acknowled": 8902,
      "▁engagement": 8903,
      "▁ratio": 8904,
      "▁sneaky": 8905,
      "▁barbara": 8906,
      "▁kentucky": 8907,
      "▁dakota": 8908,
      "▁shasturkin": 8909,
      "eing": 8910,
      "hill": 8911,
      "xual": 8912,
      "inator": 8913,
      "▁muse": 8914,
      "▁input": 8915,
      "▁jazz": 8916,
      "▁stigm": 8917,
      "acco": 8918,
      "▁sequ": 8919,
      "▁proced": 8920,
      "▁payoff": 8921,
      "▁perpet": 8922,
      "▁crunch": 8923,
      "▁planes": 8924,
      "aneous": 8925,
      "▁horiz": 8926,
      "▁popping": 8927,
      "▁camping": 8928,
      "▁baltim": 8929,
      "▁blowjob": 8930,
      "▁punched": 8931,
      "iotic": 8932,
      "▁spoil": 8933,
      "▁conditioning": 8934,
      "▁historical": 8935,
      "▁swinging": 8936,
      "▁dentist": 8937,
      "▁outdoor": 8938,
      "▁vocal": 8939,
      "▁unemployment": 8940,
      "▁beanie": 8941,
      "▁steroids": 8942,
      "▁mclaren": 8943,
      "▁baltimore": 8944,
      "sions": 8945,
      "▁bacon": 8946,
      "▁lor": 8947,
      "▁cust": 8948,
      "▁pent": 8949,
      "▁numb": 8950,
      "▁informed": 8951,
      "▁raz": 8952,
      "idge": 8953,
      "▁stern": 8954,
      "▁allig": 8955,
      "▁chiefs": 8956,
      "▁fract": 8957,
      "▁pole": 8958,
      "▁caller": 8959,
      "▁comeback": 8960,
      "▁mars": 8961,
      "▁residence": 8962,
      "▁reserve": 8963,
      "▁accustom": 8964,
      "▁useless": 8965,
      "▁bothered": 8966,
      "▁legisl": 8967,
      "▁meme": 8968,
      "▁judges": 8969,
      "▁illinois": 8970,
      "▁darkness": 8971,
      "▁screens": 8972,
      "▁punching": 8973,
      "▁channels": 8974,
      "▁tuned": 8975,
      "▁previously": 8976,
      "▁repeated": 8977,
      "itarian": 8978,
      "iciency": 8979,
      "▁affirm": 8980,
      "▁scandal": 8981,
      "pan": 8982,
      "yal": 8983,
      "▁wives": 8984,
      "sect": 8985,
      "▁ish": 8986,
      "otine": 8987,
      "▁rural": 8988,
      "▁stal": 8989,
      "▁whatnot": 8990,
      "▁conqu": 8991,
      "uded": 8992,
      "▁agencies": 8993,
      "▁pref": 8994,
      "▁lefs": 8995,
      "▁unable": 8996,
      "▁blog": 8997,
      "▁harvest": 8998,
      "▁imposter": 8999,
      "▁resident": 9000,
      "▁insanity": 9001,
      "▁tribal": 9002,
      "pected": 9003,
      "▁processing": 9004,
      "▁demons": 9005,
[...]
