{
  "version": "1.0",
  "truncation": null,
  "padding": null,
  "added_tokens": [
    {
      "id": 0,
      "content": "[UNK]",
      "single_word": false,
      "lstrip": false,
      "rstrip": false,
      "normalized": false,
      "special": true
    },
    {
      "id": 1,
      "content": "[CLS]",
      "single_word": false,
      "lstrip": false,
      "rstrip": false,
      "normalized": false,
      "special": true
    },
    {
      "id": 2,
      "content": "[SEP]",
      "single_word": false,
      "lstrip": false,
      "rstrip": false,
      "normalized": false,
      "special": true
    },
    {
      "id": 3,
      "content": "[PAD]",
      "single_word": false,
      "lstrip": false,
      "rstrip": false,
      "normalized": false,
      "special": true
    },
    {
      "id": 4,
      "content": "[MASK]",
      "single_word": false,
      "lstrip": false,
      "rstrip": false,
      "normalized": false,
      "special": true
    }
  ],
  "normalizer": {
    "type": "Sequence",
    "normalizers": [
      {
        "type": "NFKC"
      },
      {
        "type": "Lowercase"
      }
    ]
  },
  "pre_tokenizer": {
    "type": "Sequence",
    "pretokenizers": [
      {
        "type": "Metaspace",
        "replacement": "▁",
        "prepend_scheme": "always",
        "split": true
      },
      {
        "type": "Punctuation",
        "behavior": "Isolated"
      }
    ]
  },
  "post_processor": null,
  "decoder": {
    "type": "Metaspace",
    "replacement": "▁",
    "prepend_scheme": "always",
    "split": true
  },
  "model": {
    "type": "BPE",
    "dropout": null,
    "unk_token": "[UNK]",
    "continuing_subword_prefix": null,
    "end_of_word_suffix": null,
    "fuse_unk": false,
    "byte_fallback": false,
    "ignore_merges": false,
    "vocab": {
      "[UNK]": 0,
      "[CLS]": 1,
      "[SEP]": 2,
      "[PAD]": 3,
      "[MASK]": 4,
      "!": 5,
      "\"": 6,
      "'": 7,
      ",": 8,
      "-": 9,
      ".": 10,
      "0": 11,
      "1": 12,
      "2": 13,
      "3": 14,
      "4": 15,
      "5": 16,
      "6": 17,
      "7": 18,
      "8": 19,
      "9": 20,
      "?": 21,
      "[": 22,
      "]": 23,
      "a": 24,
      "b": 25,
      "c": 26,
      "d": 27,
      "e": 28,
      "f": 29,
      "g": 30,
      "h": 31,
      "i": 32,
      "j": 33,
      "k": 34,
      "l": 35,
      "m": 36,
      "n": 37,
      "o": 38,
      "p": 39,
      "q": 40,
      "r": 41,
      "s": 42,
      "t": 43,
      "u": 44,
      "v": 45,
      "w": 46,
      "x": 47,
      "y": 48,
      "z": 49,
      "▁": 50,
      "▁t": 51,
      "▁th": 52,
      "▁a": 53,
      "▁i": 54,
      "▁the": 55,
      "on": 56,
      "re": 57,
      "at": 58,
      "▁w": 59,
      "▁s": 60,
      "▁o": 61,
      "er": 62,
      "in": 63,
      "nd": 64,
      "▁c": 65,
      "ou": 66,
      "en": 67,
      "▁p": 68,
      "▁b": 69,
      "▁of": 70,
      "▁to": 71,
      "▁and": 72,
      "▁h": 73,
      "▁m": 74,
      "es": 75,
      "ing": 76,
      "it": 77,
      "al": 78,
      "▁f": 79,
      "ion": 80,
      "▁d": 81,
      "or": 82,
      "▁in": 83,
      "an": 84,
      "▁n": 85,
      "ed": 86,
      "▁y": 87,
      "is": 88,
      "▁l": 89,
      "ar": 90,
      "▁g": 91,
      "ic": 92,
      "▁that": 93,
      "ve": 94,
      "▁you": 95,
      "om": 96,
      "▁re": 97,
      "le": 98,
      "st": 99,
      "▁e": 100,
      "▁it": 101,
      "ation": 102,
      "ent": 103,
      "▁be": 104,
      "ll": 105,
      "▁wh": 106,
      "▁we": 107,
      "as": 108,
      "ly": 109,
      "▁is": 110,
      "ut": 111,
      "se": 112,
      "um": 113,
      "▁u": 114,
      "ow": 115,
      "ot": 116,
      "ce": 117,
      "op": 118,
      "▁on": 119,
      "ri": 120,
      "ct": 121,
      "ber": 122,
      "ur": 123,
      "▁for": 124,
      "ke": 125,
      "ld": 126,
      "et": 127,
      "▁st": 128,
      "▁ha": 129,
      "▁con": 130,
      "ver": 131,
      "ay": 132,
      "▁li": 133,
      "gh": 134,
      "umber": 135,
      "▁de": 136,
      "ea": 137,
      "ro": 138,
      "id": 139,
      "▁so": 140,
      "ra": 141,
      "ment": 142,
      "▁this": 143,
      "▁as": 144,
      "▁go": 145,
      "th": 146,
      "ith": 147,
      "ir": 148,
      "ter": 149,
      "▁he": 150,
      "ch": 151,
      "▁with": 152,
      "ity": 153,
      "▁like": 154,
      "ol": 155,
      "ust": 156,
      "▁j": 157,
      "▁k": 158,
      "▁se": 159,
      "▁have": 160,
      "▁an": 161,
      "im": 162,
      "ght": 163,
      "▁are": 164,
      "▁cou": 165,
      "il": 166,
      "▁com": 167,
      "▁number": 168,
      "▁me": 169,
      "▁un": 170,
      "▁ne": 171,
      "ations": 172,
      "▁they": 173,
      "▁do": 174,
      "▁sh": 175,
      "ul": 176,
      "▁was": 177,
      "ate": 178,
      "nt": 179,
      "ess": 180,
      "▁pro": 181,
      "res": 182,
      "▁not": 183,
      "ill": 184,
      "▁at": 185,
      "▁all": 186,
      "ble": 187,
      "est": 188,
      "▁su": 189,
      "▁wor": 190,
      "▁or": 191,
      "ort": 192,
      "am": 193,
      "ive": 194,
      "▁but": 195,
      "ff": 196,
      "pp": 197,
      "ere": 198,
      "ore": 199,
      "ci": 200,
      "▁ex": 201,
      "▁pe": 202,
      "ist": 203,
      "▁our": 204,
      "ant": 205,
      "▁peop": 206,
      "od": 207,
      "ad": 208,
      "ally": 209,
      "▁what": 210,
      "▁ch": 211,
      "▁there": 212,
      "ck": 213,
      "ould": 214,
      "ain": 215,
      "▁al": 216,
      "▁by": 217,
      "▁kn": 218,
      "▁can": 219,
      "art": 220,
      "ge": 221,
      "▁just": 222,
      "ich": 223,
      "▁ri": 224,
      "au": 225,
      "▁know": 226,
      "▁inter": 227,
      "▁v": 228,
      "pe": 229,
      "ome": 230,
      "▁people": 231,
      "ational": 232,
      "▁ab": 233,
      "▁my": 234,
      "▁which": 235,
      "out": 236,
      "▁right": 237,
      "un": 238,
      "qu": 239,
      "ers": 240,
      "iz": 241,
      "ig": 242,
      "▁has": 243,
      "vel": 244,
      "number": 245,
      "▁res": 246,
      "rom": 247,
      "mp": 248,
      "▁count": 249,
      "▁bec": 250,
      "os": 251,
      "ited": 252,
      "ies": 253,
      "▁your": 254,
      "ie": 255,
      "▁intern": 256,
      "very": 257,
      "▁nations": 258,
      "and": 259,
      "▁if": 260,
      "▁will": 261,
      "▁united": 262,
      "▁int": 263,
      "ions": 264,
      "ause": 265,
      "us": 266,
      "ink": 267,
      "▁ag": 268,
      "eah": 269,
      "▁international": 270,
      "all": 271,
      "▁yeah": 272,
      "velop": 273,
      "▁out": 274,
      "▁their": 275,
      "▁its": 276,
      "▁develop": 277,
      "▁ma": 278,
      "ear": 279,
      "▁cont": 280,
      "rou": 281,
      "▁don": 282,
      "▁about": 283,
      "▁comm": 284,
      "▁from": 285,
      "▁because": 286,
      "▁en": 287,
      "ose": 288,
      "▁world": 289,
      "con": 290,
      "ard": 291,
      "▁one": 292,
      "ast": 293,
      "iv": 294,
      "ous": 295,
      "el": 296,
      "▁think": 297,
      "▁get": 298,
      "ru": 299,
      "reat": 300,
      "ab": 301,
      "▁part": 302,
      "▁up": 303,
      "▁lo": 304,
      "▁imp": 305,
      "▁no": 306,
      "ry": 307,
      "▁pea": 308,
      "▁peace": 309,
      "▁would": 310,
      "ure": 311,
      "ect": 312,
      "▁pl": 313,
      "▁going": 314,
      "▁co": 315,
      "king": 316,
      "ress": 317,
      "▁man": 318,
      "em": 319,
      "▁who": 320,
      "▁ad": 321,
      "ries": 322,
      "▁fu": 323,
      "ind": 324,
      "ther": 325,
      "ence": 326,
      "▁been": 327,
      "▁some": 328,
      "▁when": 329,
      "▁fa": 330,
      "▁ta": 331,
      "ong": 332,
      "▁act": 333,
      "▁sec": 334,
      "▁countries": 335,
      "▁tim": 336,
      "▁di": 337,
      "▁year": 338,
      "one": 339,
      "▁more": 340,
      "▁how": 341,
      "▁af": 342,
      "▁pr": 343,
      "ary": 344,
      "▁r": 345,
      "so": 346,
      "ance": 347,
      "cc": 348,
      "ical": 349,
      "▁well": 350,
      "ia": 351,
      "▁reg": 352,
      "▁am": 353,
      "ates": 354,
      "▁us": 355,
      "▁conf": 356,
      "▁mo": 357,
      "▁them": 358,
      "if": 359,
      "▁thing": 360,
      "▁now": 361,
      "lic": 362,
      "ree": 363,
      "▁say": 364,
      "our": 365,
      "ans": 366,
      "eth": 367,
      "▁dis": 368,
      "able": 369,
      "▁eff": 370,
      "▁gu": 371,
      "▁also": 372,
      "▁then": 373,
      "▁want": 374,
      "ok": 375,
      "conom": 376,
      "ish": 377,
      "▁sa": 378,
      "cial": 379,
      "ud": 380,
      "eral": 381,
      "▁econom": 382,
      "▁pol": 383,
      "▁development": 384,
      "▁ev": 385,
      "▁time": 386,
      "▁should": 387,
      "ap": 388,
      "ms": 389,
      "ult": 390,
      "▁exp": 391,
      "▁those": 392,
      "ack": 393,
      "▁any": 394,
      "▁every": 395,
      "ric": 396,
      "▁ind": 397,
      "ip": 398,
      "▁other": 399,
      "▁these": 400,
      "▁pre": 401,
      "lo": 402,
      "ine": 403,
      "ue": 404,
      "▁new": 405,
      "are": 406,
      "nder": 407,
      "ight": 408,
      "▁were": 409,
      "ame": 410,
      "▁le": 411,
      "▁gen": 412,
      "ces": 413,
      "▁had": 414,
      "▁states": 415,
      "ated": 416,
      "ign": 417,
      "og": 418,
      "▁rep": 419,
      "ens": 420,
      "▁his": 421,
      "▁comp": 422,
      "▁bet": 423,
      "urity": 424,
      "▁way": 425,
      "▁did": 426,
      "▁qu": 427,
      "ep": 428,
      "▁hum": 429,
      "▁sp": 430,
      "pport": 431,
      "▁security": 432,
      "pt": 433,
      "▁under": 434,
      "▁po": 435,
      "▁need": 436,
      "▁got": 437,
      "ization": 438,
      "▁fe": 439,
      "oth": 440,
      "▁inc": 441,
      "vern": 442,
      "ution": 443,
      "▁human": 444,
      "▁than": 445,
      "ial": 446,
      "les": 447,
      "gan": 448,
      "▁over": 449,
      "▁ar": 450,
      "▁tw": 451,
      "ice": 452,
      "oc": 453,
      "▁ter": 454,
      "▁economic": 455,
      "▁rec": 456,
      "end": 457,
      "ving": 458,
      "▁see": 459,
      "ons": 460,
      "▁per": 461,
      "itt": 462,
      "▁ra": 463,
      "ead": 464,
      "▁app": 465,
      "ide": 466,
      "▁govern": 467,
      "▁must": 468,
      "▁really": 469,
      "▁pres": 470,
      "▁dec": 471,
      "unity": 472,
      "▁good": 473,
      "▁great": 474,
      "▁rel": 475,
      "▁very": 476,
      "mb": 477,
      "ag": 478,
      "▁work": 479,
      "▁into": 480,
      "▁where": 481,
      "ious": 482,
      "▁again": 483,
      "▁contin": 484,
      "▁afric": 485,
      "▁ro": 486,
      "▁cl": 487,
      "ian": 488,
      "▁organ": 489,
      "lf": 490,
      "▁proble": 491,
      "▁te": 492,
      "ope": 493,
      "▁som": 494,
      "ful": 495,
      "▁tra": 496,
      "ction": 497,
      "▁government": 498,
      "cess": 499,
      "▁make": 500,
      "▁off": 501,
      "ire": 502,
      "▁only": 503,
      "we": 504,
      "pect": 505,
      "▁could": 506,
      "rough": 507,
      "ib": 508,
      "ub": 509,
      "▁pos": 510,
      "▁she": 511,
      "▁conc": 512,
      "▁fir": 513,
      "age": 514,
      "ility": 515,
      "▁cons": 516,
      "eration": 517,
      "▁years": 518,
      "▁here": 519,
      "ition": 520,
      "▁country": 521,
      "ach": 522,
      "▁real": 523,
      "▁through": 524,
      "de": 525,
      "▁tal": 526,
      "▁dem": 527,
      "ty": 528,
      "▁mean": 529,
      "du": 530,
      "igh": 531,
      "▁support": 532,
      "ism": 533,
      "ities": 534,
      "▁effort": 535,
      "▁tr": 536,
      "fe": 537,
      "▁let": 538,
      "▁fuck": 539,
      "cy": 540,
      "ite": 541,
      "▁sou": 542,
      "▁guy": 543,
      "ang": 544,
      "▁even": 545,
      "way": 546,
      "▁ob": 547,
      "▁bas": 548,
      "rat": 549,
      "ade": 550,
      "▁sol": 551,
      "▁asse": 552,
      "ory": 553,
      "▁call": 554,
      "▁two": 555,
      "▁att": 556,
      "orm": 557,
      "▁take": 558,
      "▁diff": 559,
      "▁rem": 560,
      "mber": 561,
      "itical": 562,
      "ved": 563,
      "der": 564,
      "int": 565,
      "own": 566,
      "▁being": 567,
      "▁back": 568,
      "lear": 569,
      "▁ref": 570,
      "▁ok": 571,
      "▁assemb": 572,
      "uch": 573,
      "▁community": 574,
      "▁assembly": 575,
      "▁oh": 576,
      "▁end": 577,
      "ves": 578,
      "fore": 579,
      "ieve": 580,
      "ild": 581,
      "lement": 582,
      "ody": 583,
      "▁most": 584,
      "▁may": 585,
      "▁general": 586,
      "▁partic": 587,
      "eren": 588,
      "▁look": 589,
      "▁bel": 590,
      "▁first": 591,
      "ren": 592,
      "▁jo": 593,
      "▁him": 594,
      "▁acc": 595,
      "ced": 596,
      "vers": 597,
      "ern": 598,
      "▁things": 599,
      "▁many": 600,
      "pend": 601,
      "ething": 602,
      "cil": 603,
      "▁something": 604,
      "day": 605,
      "ward": 606,
      "▁organization": 607,
      "▁sy": 608,
      "ath": 609,
      "hip": 610,
      "rib": 611,
      "▁war": 612,
      "▁prog": 613,
      "▁import": 614,
      "▁does": 615,
      "▁sit": 616,
      "▁member": 617,
      "ord": 618,
      "▁pers": 619,
      "act": 620,
      "▁such": 621,
      "▁terr": 622,
      "▁ass": 623,
      "ting": 624,
      "▁political": 625,
      "ween": 626,
      "▁resol": 627,
      "▁between": 628,
      "▁happ": 629,
      "▁much": 630,
      "ute": 631,
      "▁efforts": 632,
      "▁region": 633,
      "▁lot": 634,
      "▁why": 635,
      "ating": 636,
      "ession": 637,
      "ible": 638,
      "▁fin": 639,
      "▁ser": 640,
      "▁rights": 641,
      "▁bu": 642,
      "ile": 643,
      "me": 644,
      "ert": 645,
      "▁coun": 646,
      "▁said": 647,
      "min": 648,
      "ublic": 649,
      "ase": 650,
      "ret": 651,
      "red": 652,
      "▁des": 653,
      "wn": 654,
      "ention": 655,
      "▁feel": 656,
      "ass": 657,
      "ular": 658,
      "▁life": 659,
      "▁mar": 660,
      "▁okay": 661,
      "ually": 662,
      "erence": 663,
      "▁br": 664,
      "▁last": 665,
      "erest": 666,
      "ace": 667,
      "▁inst": 668,
      "ues": 669,
      "▁state": 670,
      "ative": 671,
      "▁put": 672,
      "▁her": 673,
      "▁spe": 674,
      "▁set": 675,
      "▁long": 676,
      "ak": 677,
      "uc": 678,
      "self": 679,
      "▁start": 680,
      "▁situ": 681,
      "round": 682,
      "▁doing": 683,
      "▁op": 684,
      "▁interest": 685,
      "ments": 686,
      "operation": 687,
      "▁africa": 688,
      "▁made": 689,
      "▁fo": 690,
      "▁resp": 691,
      "▁inde": 692,
      "▁bo": 693,
      "ident": 694,
      "als": 695,
      "▁day": 696,
      "▁inv": 697,
      "lict": 698,
      "cip": 699,
      "▁cent": 700,
      "▁quest": 701,
      "iss": 702,
      "ks": 703,
      "▁cr": 704,
      "▁social": 705,
      "▁show": 706,
      "utions": 707,
      "be": 708,
      "▁relations": 709,
      "xt": 710,
      "ise": 711,
      "▁council": 712,
      "▁play": 713,
      "▁glo": 714,
      "ound": 715,
      "▁against": 716,
      "ough": 717,
      "▁session": 718,
      "▁car": 719,
      "▁ach": 720,
      "▁today": 721,
      "ject": 722,
      "▁sc": 723,
      "lish": 724,
      "▁mon": 725,
      "▁still": 726,
      "▁conflict": 727,
      "▁high": 728,
      "ange": 729,
      "other": 730,
      "▁down": 731,
      "▁order": 732,
      "oney": 733,
      "▁prin": 734,
      "lect": 735,
      "row": 736,
      "▁democ": 737,
      "▁own": 738,
      "thing": 739,
      "▁est": 740,
      "▁fact": 741,
      "stem": 742,
      "▁la": 743,
      "▁effect": 744,
      "bal": 745,
      "▁pow": 746,
      "ized": 747,
      "▁hel": 748,
      "▁situation": 749,
      "▁mat": 750,
      "▁col": 751,
      "▁same": 752,
      "▁char": 753,
      "ether": 754,
      "▁lead": 755,
      "▁system": 756,
      "▁ke": 757,
      "▁full": 758,
      "▁pri": 759,
      "▁litt": 760,
      "▁princip": 761,
      "▁kind": 762,
      "ening": 763,
      "▁global": 764,
      "ize": 765,
      "▁concern": 766,
      "body": 767,
      "▁little": 768,
      "▁neg": 769,
      "bt": 770,
      "▁south": 771,
      "▁important": 772,
      "▁try": 773,
      "ning": 774,
      "▁national": 775,
      "▁developing": 776,
      "▁too": 777,
      "▁fucking": 778,
      "cept": 779,
      "ual": 780,
      "▁process": 781,
      "▁money": 782,
      "▁hope": 783,
      "▁problems": 784,
      "▁particular": 785,
      "▁ent": 786,
      "▁sub": 787,
      "▁sm": 788,
      "▁help": 789,
      "ron": 790,
      "▁str": 791,
      "arm": 792,
      "iew": 793,
      "▁iss": 794,
      "▁come": 795,
      "▁ho": 796,
      "ures": 797,
      "ily": 798,
      "ament": 799,
      "▁el": 800,
      "▁agree": 801,
      "▁republic": 802,
      "ors": 803,
      "▁never": 804,
      "ict": 805,
      "▁ext": 806,
      "▁peoples": 807,
      "▁add": 808,
      "▁lea": 809,
      "▁ac": 810,
      "▁const": 811,
      "olog": 812,
      "▁sin": 813,
      "▁problem": 814,
      "▁person": 815,
      "▁vi": 816,
      "eric": 817,
      "▁conv": 818,
      "▁point": 819,
      "amp": 820,
      "▁def": 821,
      "▁trans": 822,
      "erent": 823,
      "ives": 824,
      "▁pay": 825,
      "ick": 826,
      "ness": 827,
      "ablish": 828,
      "▁det": 829,
      "uclear": 830,
      "imate": 831,
      "stand": 832,
      "ways": 833,
      "▁prom": 834,
      "▁respect": 835,
      "lud": 836,
      "gen": 837,
      "▁actually": 838,
      "▁ph": 839,
      "▁prop": 840,
      "▁better": 841,
      "▁min": 842,
      "▁aff": 843,
      "ady": 844,
      "▁before": 845,
      "▁prov": 846,
      "▁poss": 847,
      "▁im": 848,
      "▁use": 849,
      "▁establish": 850,
      "▁since": 851,
      "▁after": 852,
      "▁love": 853,
      "riend": 854,
      "ically": 855,
      "▁find": 856,
      "▁nuclear": 857,
      "▁didn": 858,
      "ied": 859,
      "▁give": 860,
      "▁yes": 861,
      "▁tell": 862,
      "ents": 863,
      "▁polic": 864,
      "▁talk": 865,
      "▁americ": 866,
      "▁believe": 867,
      "up": 868,
      "ense": 869,
      "▁inf": 870,
      "uring": 871,
      "▁president": 872,
      "▁question": 873,
      "eri": 874,
      "▁always": 875,
      "▁sign": 876,
      "▁conference": 877,
      "▁equ": 878,
      "ird": 879,
      "▁stru": 880,
      "wards": 881,
      "ably": 882,
      "gg": 883,
      "▁secret": 884,
      "▁respons": 885,
      "ific": 886,
      "▁leg": 887,
      "▁guys": 888,
      "ram": 889,
      "▁bl": 890,
      "▁fore": 891,
      "▁both": 892,
      "▁continue": 893,
      "man": 894,
      "▁different": 895,
      "▁incre": 896,
      "▁free": 897,
      "reed": 898,
      "▁progress": 899,
      "leg": 900,
      "oti": 901,
      "ability": 902,
      "▁mill": 903,
      "▁negoti": 904,
      "ac": 905,
      "▁big": 906,
      "▁ear": 907,
      "▁law": 908,
      "▁z": 909,
      "▁independ": 910,
      "▁place": 911,
      "per": 912,
      "▁id": 913,
      "▁contrib": 914,
      "ount": 915,
      "▁friend": 916,
      "▁members": 917,
      "urn": 918,
      "▁without": 919,
      "▁meet": 920,
      "▁pur": 921,
      "▁tru": 922,
      "▁three": 923,
      "▁non": 924,
      "▁eur": 925,
      "▁while": 926,
      "▁prot": 927,
      "cond": 928,
      "ertain": 929,
      "com": 930,
      "ail": 931,
      "ened": 932,
      "▁recent": 933,
      "allen": 934,
      "▁wr": 935,
      "▁towards": 936,
      "▁wat": 937,
      "▁fut": 938,
      "▁east": 939,
      "▁europe": 940,
      "gth": 941,
      "▁pal": 942,
      "ason": 943,
      "▁fund": 944,
      "▁cap": 945,
      "▁threat": 946,
      "come": 947,
      "ered": 948,
      "▁implement": 949,
      "ought": 950,
      "med": 951,
      "▁succ": 952,
      "rael": 953,
      "▁whole": 954,
      "▁understand": 955,
      "land": 956,
      "▁cond": 957,
      "▁produ": 958,
      "▁among": 959,
      "▁regard": 960,
      "▁prev": 961,
      "ront": 962,
      "ever": 963,
      "▁around": 964,
      "▁power": 965,
      "▁ever": 966,
      "ural": 967,
      "▁hist": 968,
      "▁maj": 969,
      "▁future": 970,
      "ract": 971,
      "▁cour": 972,
      "ix": 973,
      "▁main": 974,
      "▁em": 975,
      "▁weap": 976,
      "▁success": 977,
      "na": 978,
      "▁challen": 979,
      "▁change": 980,
      "▁tak": 981,
      "ft": 982,
      "▁finan": 983,
      "▁stren": 984,
      "▁bring": 985,
      "▁secretary": 986,
      "ision": 987,
      "▁fl": 988,
      "ivers": 989,
      "let": 990,
      "gy": 991,
      "▁another": 992,
      "▁ins": 993,
      "▁african": 994,
      "▁list": 995,
      "▁strength": 996,
      "▁rest": 997,
      "▁mid": 998,
      "▁israel": 999,
      "▁wish": 1000,
      "▁mil": 1001,
      "▁terror": 1002,
      "▁ens": 1003,
      "ources": 1004,
      "iti": 1005,
      "▁major": 1006,
      "▁remain": 1007,
      "▁tog": 1008,
      "ality": 1009,
      "▁saying": 1010,
      "▁repres": 1011,
      "▁occ": 1012,
      "ner": 1013,
      "▁best": 1014,
      "▁action": 1015,
      "▁grow": 1016,
      "▁plan": 1017,
      "▁palest": 1018,
      "▁debt": 1019,
      "▁maybe": 1020,
      "▁includ": 1021,
      "▁result": 1022,
      "▁territ": 1023,
      "▁able": 1024,
      "▁cooperation": 1025,
      "not": 1026,
      "alth": 1027,
      "▁disc": 1028,
      "▁month": 1029,
      "▁view": 1030,
      "▁adv": 1031,
      "▁wel": 1032,
      "ene": 1033,
      "ibility": 1034,
      "▁done": 1035,
      "▁move": 1036,
      "▁within": 1037,
      "▁express": 1038,
      "▁means": 1039,
      "cing": 1040,
      "▁democrat": 1041,
      "led": 1042,
      "▁fun": 1043,
      "▁env": 1044,
      "▁experi": 1045,
      "▁level": 1046,
      "▁achieve": 1047,
      "▁gra": 1048,
      "▁together": 1049,
      "ork": 1050,
      "▁wom": 1051,
      "▁consid": 1052,
      "▁hard": 1053,
      "iter": 1054,
      "▁stand": 1055,
      "sel": 1056,
      "▁es": 1057,
      "mit": 1058,
      "▁cris": 1059,
      "ne": 1060,
      "▁weapons": 1061,
      "▁fam": 1062,
      "▁principles": 1063,
      "▁special": 1064,
      "▁sure": 1065,
      "▁necess": 1066,
      "ote": 1067,
      "▁role": 1068,
      "ost": 1069,
      "▁certain": 1070,
      "▁might": 1071,
      "▁dest": 1072,
      "li": 1073,
      "gin": 1074,
      "dle": 1075,
      "▁commit": 1076,
      "▁effective": 1077,
      "▁viol": 1078,
      "▁keep": 1079,
      "▁adop": 1080,
      "▁val": 1081,
      "▁clear": 1082,
      "▁cannot": 1083,
      "ices": 1084,
      "▁nat": 1085,
      "ges": 1086,
      "▁mr": 1087,
      "uth": 1088,
      "▁second": 1089,
      "▁found": 1090,
      "▁bit": 1091,
      "ouse": 1092,
      "▁charter": 1093,
      "▁small": 1094,
      "▁trying": 1095,
      "▁giv": 1096,
      "▁step": 1097,
      "ond": 1098,
      "▁form": 1099,
      "the": 1100,
      "▁solution": 1101,
      "▁opport": 1102,
      "▁therefore": 1103,
      "▁resources": 1104,
      "▁kid": 1105,
      "▁become": 1106,
      "ember": 1107,
      "▁middle": 1108,
      "▁next": 1109,
      "▁requ": 1110,
      "roup": 1111,
      "general": 1112,
      "▁hand": 1113,
      "ven": 1114,
      "vi": 1115,
      "▁live": 1116,
      "llow": 1117,
      "eg": 1118,
      "▁cur": 1119,
      "▁talking": 1120,
      "ogn": 1121,
      "hing": 1122,
      "▁build": 1123,
      "▁child": 1124,
      "wh": 1125,
      "▁nor": 1126,
      "▁meas": 1127,
      "less": 1128,
      "▁group": 1129,
      "ral": 1130,
      "▁mom": 1131,
      "▁possible": 1132,
      "▁represent": 1133,
      "▁assist": 1134,
      "▁adopt": 1135,
      "▁prob": 1136,
      "▁thought": 1137,
      "▁recogn": 1138,
      "selves": 1139,
      "tern": 1140,
      "▁sett": 1141,
      "uss": 1142,
      "▁everything": 1143,
      "ering": 1144,
      "onment": 1145,
      "vere": 1146,
      "itive": 1147,
      "ety": 1148,
      "▁peaceful": 1149,
      "▁beh": 1150,
      "air": 1151,
      "▁med": 1152,
      "▁envir": 1153,
      "uff": 1154,
      "▁sim": 1155,
      "▁head": 1156,
      "▁policy": 1157,
      "▁par": 1158,
      "▁resolution": 1159,
      "▁past": 1160,
      "rect": 1161,
      "▁self": 1162,
      "▁milit": 1163,
      "ude": 1164,
      "▁far": 1165,
      "▁fur": 1166,
      "▁however": 1167,
      "▁exist": 1168,
      "▁doesn": 1169,
      "▁soci": 1170,
      "▁environment": 1171,
      "▁home": 1172,
      "▁freed": 1173,
      "▁program": 1174,
      "par": 1175,
      "▁ur": 1176,
      "ready": 1177,
      "▁getting": 1178,
      "▁deal": 1179,
      "itions": 1180,
      "▁old": 1181,
      "▁already": 1182,
      "ph": 1183,
      "▁making": 1184,
      "▁probably": 1185,
      "▁lat": 1186,
      "▁protect": 1187,
      "▁reason": 1188,
      "▁deleg": 1189,
      "▁shit": 1190,
      "▁serious": 1191,
      "ee": 1192,
      "▁trade": 1193,
      "▁fight": 1194,
      "▁initi": 1195,
      "▁further": 1196,
      "▁treat": 1197,
      "ys": 1198,
      "▁freedom": 1199,
      "ermin": 1200,
      "▁present": 1201,
      "▁cor": 1202,
      "ket": 1203,
      "▁age": 1204,
      "▁god": 1205,
      "▁tea": 1206,
      "▁democratic": 1207,
      "iness": 1208,
      "▁hu": 1209,
      "▁cra": 1210,
      "▁during": 1211,
      "get": 1212,
      "▁sch": 1213,
      "▁once": 1214,
      "▁increas": 1215,
      "▁common": 1216,
      "rop": 1217,
      "▁house": 1218,
      "▁having": 1219,
      "ime": 1220,
      "▁independence": 1221,
      "▁matter": 1222,
      "▁four": 1223,
      "▁pret": 1224,
      "▁bro": 1225,
      "▁ago": 1226,
      "ten": 1227,
      "▁care": 1228,
      "▁cong": 1229,
      "▁foreign": 1230,
      "▁each": 1231,
      "▁nam": 1232,
      "ged": 1233,
      "▁financial": 1234,
      "pl": 1235,
      "▁mor": 1236,
      "atever": 1237,
      "▁sense": 1238,
      "▁follow": 1239,
      "▁whatever": 1240,
      "▁aw": 1241,
      "osed": 1242,
      "▁pop": 1243,
      "ull": 1244,
      "▁decl": 1245,
      "▁sur": 1246,
      "rab": 1247,
      "▁military": 1248,
      "cially": 1249,
      "alf": 1250,
      "▁issues": 1251,
      "ran": 1252,
      "▁cre": 1253,
      "▁five": 1254,
      "ission": 1255,
      "▁ide": 1256,
      "▁univers": 1257,
      "ensive": 1258,
      "▁rev": 1259,
      "▁particip": 1260,
      "rent": 1261,
      "▁course": 1262,
      "▁true": 1263,
      "ential": 1264,
      "▁tech": 1265,
      "▁allow": 1266,
      "▁disarm": 1267,
      "▁less": 1268,
      "▁creat": 1269,
      "▁committ": 1270,
      "▁regional": 1271,
      "▁taken": 1272,
      "▁mult": 1273,
      "▁fra": 1274,
      "▁delegation": 1275,
      "az": 1276,
      "▁crisis": 1277,
      "▁someone": 1278,
      "▁negotiations": 1279,
      "▁stuff": 1280,
      "ustain": 1281,
      "▁wee": 1282,
      "ital": 1283,
      "▁suff": 1284,
      "ided": 1285,
      "▁deep": 1286,
      "▁disarmament": 1287,
      "alog": 1288,
      "▁continu": 1289,
      "▁face": 1290,
      "▁agreement": 1291,
      "▁arab": 1292,
      "▁object": 1293,
      "▁strugg": 1294,
      "▁dist": 1295,
      "icult": 1296,
      "▁based": 1297,
      "ression": 1298,
      "▁pa": 1299,
      "▁working": 1300,
      "ash": 1301,
      "most": 1302,
      "▁watch": 1303,
      "▁difficult": 1304,
      "▁developed": 1305,
      "▁went": 1306,
      "ared": 1307,
      "▁techn": 1308,
      "▁meeting": 1309,
      "▁seem": 1310,
      "▁sustain": 1311,
      "▁integ": 1312,
      "▁women": 1313,
      "▁particularly": 1314,
      "▁tri": 1315,
      "▁complet": 1316,
      "ying": 1317,
      "▁few": 1318,
      "▁bra": 1319,
      "ina": 1320,
      "rol": 1321,
      "▁invest": 1322,
      "▁called": 1323,
      "ruct": 1324,
      "▁measures": 1325,
      "emp": 1326,
      "▁instit": 1327,
      "▁chang": 1328,
      "fic": 1329,
      "kes": 1330,
      "▁ensure": 1331,
      "▁including": 1332,
      "▁times": 1333,
      "▁palestin": 1334,
      "▁anything": 1335,
      "▁sovere": 1336,
      "ency": 1337,
      "▁force": 1338,
      "▁necessary": 1339,
      "pecially": 1340,
      "▁dialog": 1341,
      "ined": 1342,
      "▁leaders": 1343,
      "▁ret": 1344,
      "▁especially": 1345,
      "oking": 1346,
      "▁ask": 1347,
      "ger": 1348,
      "oura": 1349,
      "▁third": 1350,
      "▁job": 1351,
      "▁america": 1352,
      "ilat": 1353,
      "▁agg": 1354,
      "▁book": 1355,
      "▁bre": 1356,
      "ister": 1357,
      "▁upon": 1358,
      "▁strong": 1359,
      "utes": 1360,
      "▁bad": 1361,
      "ration": 1362,
      "ple": 1363,
      "▁address": 1364,
      "▁opportunity": 1365,
      "ros": 1366,
      "work": 1367,
      "▁current": 1368,
      "▁emp": 1369,
      "▁achie": 1370,
      "▁cult": 1371,
      "▁bus": 1372,
      "ather": 1373,
      "▁yet": 1374,
      "▁sl": 1375,
      "▁idea": 1376,
      "ics": 1377,
      "▁wa": 1378,
      "▁parties": 1379,
      "▁six": 1380,
      "▁liber": 1381,
      "▁lar": 1382,
      "▁turn": 1383,
      "▁welcome": 1384,
      "▁enc": 1385,
      "▁abs": 1386,
      "ield": 1387,
      "▁settlement": 1388,
      "▁stability": 1389,
      "racy": 1390,
      "▁pract": 1391,
      "▁ed": 1392,
      "▁mod": 1393,
      "▁justice": 1394,
      "ately": 1395,
      "▁assistance": 1396,
      "▁civ": 1397,
      "▁conflicts": 1398,
      "▁exact": 1399,
      "▁appro": 1400,
      "▁union": 1401,
      "▁terrorism": 1402,
      "▁mind": 1403,
      "▁dep": 1404,
      "▁taking": 1405,
      "ists": 1406,
      "its": 1407,
      "arch": 1408,
      "▁thank": 1409,
      "▁arms": 1410,
      "▁relationship": 1411,
      "▁responsibility": 1412,
      "▁ann": 1413,
      "▁friends": 1414,
      "▁open": 1415,
      "▁ge": 1416,
      "▁health": 1417,
      "▁everybody": 1418,
      "▁least": 1419,
      "▁away": 1420,
      "▁forces": 1421,
      "zy": 1422,
      "ilateral": 1423,
      "▁history": 1424,
      "ories": 1425,
      "▁er": 1426,
      "yp": 1427,
      "▁cri": 1428,
      "▁accept": 1429,
      "▁dom": 1430,
      "▁civil": 1431,
      "▁ess": 1432,
      "ority": 1433,
      "▁needs": 1434,
      "▁given": 1435,
      "verty": 1436,
      "ulation": 1437,
      "▁complete": 1438,
      "tain": 1439,
      "▁itself": 1440,
      "▁stop": 1441,
      "▁poverty": 1442,
      "▁family": 1443,
      "▁won": 1444,
      "▁challenges": 1445,
      "▁dang": 1446,
      "▁stud": 1447,
      "kind": 1448,
      "▁game": 1449,
      "▁hon": 1450,
      "▁dra": 1451,
      "▁interests": 1452,
      "lus": 1453,
      "ho": 1454,
      "ling": 1455,
      "▁experience": 1456,
      "▁implementation": 1457,
      "▁lear": 1458,
      "▁run": 1459,
      "ban": 1460,
      "▁case": 1461,
      "▁else": 1462,
      "ination": 1463,
      "▁basis": 1464,
      "▁commitment": 1465,
      "▁remember": 1466,
      "idence": 1467,
      "▁issue": 1468,
      "▁positive": 1469,
      "▁reform": 1470,
      "▁used": 1471,
      "▁reach": 1472,
      "▁accord": 1473,
      "▁ban": 1474,
      "▁ple": 1475,
      "▁occup": 1476,
      "▁constit": 1477,
      "▁ener": 1478,
      "▁fundament": 1479,
      "▁area": 1480,
      "▁var": 1481,
      "▁climate": 1482,
      "▁enough": 1483,
      "▁goals": 1484,
      "▁read": 1485,
      "▁sum": 1486,
      "form": 1487,
      "ired": 1488,
      "▁body": 1489,
      "ool": 1490,
      "▁started": 1491,
      "erial": 1492,
      "istan": 1493,
      "isions": 1494,
      "▁impro": 1495,
      "▁fully": 1496,
      "▁tot": 1497,
      "▁opp": 1498,
      "ruction": 1499,
      "▁examp": 1500,
      "▁redu": 1501,
      "▁bene": 1502,
      "lection": 1503,
      "▁word": 1504,
      "onna": 1505,
      "▁yourself": 1506,
      "ines": 1507,
      "▁coming": 1508,
      "▁nothing": 1509,
      "▁central": 1510,
      "ug": 1511,
      "ium": 1512,
      "▁makes": 1513,
      "▁gonna": 1514,
      "▁crazy": 1515,
      "▁cau": 1516,
      "▁held": 1517,
      "▁forward": 1518,
      "▁hey": 1519,
      "▁goes": 1520,
      "▁direct": 1521,
      "▁supp": 1522,
      "sh": 1523,
      "▁exactly": 1524,
      "▁children": 1525,
      "▁goal": 1526,
      "atives": 1527,
      "▁aim": 1528,
      "▁land": 1529,
      "▁attention": 1530,
      "ians": 1531,
      "▁struggle": 1532,
      "▁looking": 1533,
      "ermination": 1534,
      "▁strate": 1535,
      "▁invol": 1536,
      "▁palestinian": 1537,
      "▁begin": 1538,
      "▁dialogue": 1539,
      "▁activ": 1540,
      "sequ": 1541,
      "▁wal": 1542,
      "▁spir": 1543,
      "▁left": 1544,
      "▁side": 1545,
      "ins": 1546,
      "▁kids": 1547,
      "▁resolutions": 1548,
      "▁democracy": 1549,
      "▁listen": 1550,
      "ology": 1551,
      "▁emer": 1552,
      "▁spea": 1553,
      "▁million": 1554,
      "ave": 1555,
      "▁ira": 1556,
      "▁though": 1557,
      "▁hold": 1558,
      "reh": 1559,
      "▁blo": 1560,
      "▁themselves": 1561,
      "▁school": 1562,
      "▁che": 1563,
      "▁living": 1564,
      "▁pros": 1565,
      "▁auth": 1566,
      "▁belie": 1567,
      "▁av": 1568,
      "go": 1569,
      "▁frame": 1570,
      "▁ru": 1571,
      "▁almost": 1572,
      "ext": 1573,
      "▁island": 1574,
      "▁concerned": 1575,
      "▁fail": 1576,
      "▁entire": 1577,
      "▁months": 1578,
      "uck": 1579,
      "imes": 1580,
      "▁test": 1581,
      "▁congrat": 1582,
      "arent": 1583,
      "▁food": 1584,
      "▁ce": 1585,
      "ighb": 1586,
      "▁purp": 1587,
      "▁cause": 1588,
      "ross": 1589,
      "▁super": 1590,
      "▁close": 1591,
      "▁encoura": 1592,
      "▁sw": 1593,
      "reci": 1594,
      "▁account": 1595,
      "▁bal": 1596,
      "▁unt": 1597,
      "nda": 1598,
      "cast": 1599,
      "▁business": 1600,
      "▁congratul": 1601,
      "▁mal": 1602,
      "igned": 1603,
      "▁fundamental": 1604,
      "▁exc": 1605,
      "istic": 1606,
      "▁seen": 1607,
      "▁legit": 1608,
      "▁solid": 1609,
      "ently": 1610,
      "▁energy": 1611,
      "▁eng": 1612,
      "vious": 1613,
      "▁eas": 1614,
      "▁gener": 1615,
      "ury": 1616,
      "▁prof": 1617,
      "▁everyone": 1618,
      "▁name": 1619,
      "▁men": 1620,
      "ument": 1621,
      "▁dev": 1622,
      "▁thinking": 1623,
      "ension": 1624,
      "▁pretty": 1625,
      "▁thus": 1626,
      "▁economy": 1627,
      "▁came": 1628,
      "▁control": 1629,
      "▁appreci": 1630,
      "▁obvious": 1631,
      "ings": 1632,
      "▁spirit": 1633,
      "av": 1634,
      "cific": 1635,
      "ological": 1636,
      "▁youn": 1637,
      "▁example": 1638,
      "▁iraq": 1639,
      "▁importance": 1640,
      "▁elect": 1641,
      "▁namib": 1642,
      "▁moment": 1643,
      "▁front": 1644,
      "ging": 1645,
      "▁society": 1646,
      "▁kill": 1647,
      "ark": 1648,
      "▁agenda": 1649,
      "▁propos": 1650,
      "where": 1651,
      "ners": 1652,
      "ew": 1653,
      "▁conditions": 1654,
      "lex": 1655,
      "▁gir": 1656,
      "▁position": 1657,
      "▁european": 1658,
      "▁rea": 1659,
      "▁consequ": 1660,
      "rought": 1661,
      "arian": 1662,
      "ences": 1663,
      "▁mass": 1664,
      "▁consider": 1665,
      "jo": 1666,
      "ivid": 1667,
      "erv": 1668,
      "▁declar": 1669,
      "ilities": 1670,
      "▁discuss": 1671,
      "▁sustainable": 1672,
      "▁dri": 1673,
      "▁establishment": 1674,
      "▁promot": 1675,
      "enn": 1676,
      "▁growth": 1677,
      "ts": 1678,
      "thers": 1679,
      "▁indust": 1680,
      "▁neighb": 1681,
      "erc": 1682,
      "▁compreh": 1683,
      "ances": 1684,
      "▁terms": 1685,
      "▁learn": 1686,
      "▁bar": 1687,
      "▁colon": 1688,
      "▁sort": 1689,
      "airs": 1690,
      "▁story": 1691,
      "▁sing": 1692,
      "▁signific": 1693,
      "▁increasing": 1694,
      "▁took": 1695,
      "▁desp": 1696,
      "arity": 1697,
      "▁framework": 1698,
      "▁disp": 1699,
      "▁adopted": 1700,
      "▁convention": 1701,
      "ither": 1702,
      "▁press": 1703,
      "ream": 1704,
      "▁commun": 1705,
      "▁field": 1706,
      "fort": 1707,
      "▁market": 1708,
      "▁collect": 1709,
      "iod": 1710,
      "▁bill": 1711,
      "ours": 1712,
      "ump": 1713,
      "▁post": 1714,
      "▁continues": 1715,
      "▁areas": 1716,
      "▁public": 1717,
      "▁comes": 1718,
      "▁benef": 1719,
      "▁pod": 1720,
      "▁approach": 1721,
      "▁absol": 1722,
      "ock": 1723,
      "▁chr": 1724,
      "▁wanted": 1725,
      "▁danger": 1726,
      "▁night": 1727,
      "ively": 1728,
      "▁regime": 1729,
      "▁expect": 1730,
      "▁report": 1731,
      "▁sk": 1732,
      "▁treaty": 1733,
      "▁cred": 1734,
      "▁whether": 1735,
      "▁happened": 1736,
      "by": 1737,
      "▁rele": 1738,
      "▁solutions": 1739,
      "▁mankind": 1740,
      "▁hear": 1741,
      "ption": 1742,
      "eav": 1743,
      "ici": 1744,
      "rug": 1745,
      "▁gr": 1746,
      "▁expl": 1747,
      "▁purs": 1748,
      "▁american": 1749,
      "ignt": 1750,
      "▁comprehensive": 1751,
      "▁absolute": 1752,
      "atic": 1753,
      "▁vict": 1754,
      "ignty": 1755,
      "acy": 1756,
      "gic": 1757,
      "to": 1758,
      "▁caus": 1759,
      "▁afgh": 1760,
      "▁hop": 1761,
      "▁sovereignty": 1762,
      "▁kore": 1763,
      "▁break": 1764,
      "▁nation": 1765,
      "▁sci": 1766,
      "▁period": 1767,
      "ried": 1768,
      "izing": 1769,
      "▁maintain": 1770,
      "▁context": 1771,
      "▁various": 1772,
      "▁tas": 1773,
      "▁wasn": 1774,
      "▁greater": 1775,
      "▁election": 1776,
      "side": 1777,
      "▁pat": 1778,
      "▁prevent": 1779,
      "▁fav": 1780,
      "▁indeed": 1781,
      "iting": 1782,
      "ah": 1783,
      "sw": 1784,
      "▁create": 1785,
      "▁cho": 1786,
      "▁powers": 1787,
      "▁large": 1788,
      "▁struct": 1789,
      "ulf": 1790,
      "▁afghan": 1791,
      "▁interesting": 1792,
      "ides": 1793,
      "▁top": 1794,
      "▁podcast": 1795,
      "ants": 1796,
      "orn": 1797,
      "▁decision": 1798,
      "gn": 1799,
      "▁others": 1800,
      "▁affect": 1801,
      "▁partners": 1802,
      "ars": 1803,
      "he": 1804,
      "ified": 1805,
      "▁bur": 1806,
      "arant": 1807,
      "▁defin": 1808,
      "rated": 1809,
      "▁win": 1810,
      "oss": 1811,
      "ully": 1812,
      "▁days": 1813,
      "▁sat": 1814,
      "nect": 1815,
      "amb": 1816,
      "▁remains": 1817,
      "▁ap": 1818,
      "▁dou": 1819,
      "▁young": 1820,
      "▁whose": 1821,
      "▁fig": 1822,
      "eal": 1823,
      "▁universal": 1824,
      "▁wrong": 1825,
      "▁recon": 1826,
      "▁mut": 1827,
      "▁half": 1828,
      "▁declaration": 1829,
      "▁emb": 1830,
      "▁somebody": 1831,
      "fully": 1832,
      "▁foc": 1833,
      "▁girl": 1834,
      "▁individ": 1835,
      "ier": 1836,
      "ta": 1837,
      "▁recently": 1838,
      "▁pass": 1839,
      "▁imag": 1840,
      "▁affairs": 1841,
      "gent": 1842,
      "▁sal": 1843,
      "medi": 1844,
      "▁pot": 1845,
      "▁dr": 1846,
      "▁population": 1847,
      "▁until": 1848,
      "▁lives": 1849,
      "▁tre": 1850,
      "▁institutions": 1851,
      "▁namibia": 1852,
      "▁short": 1853,
      "aim": 1854,
      "▁violence": 1855,
      "▁says": 1856,
      "▁product": 1857,
      "izations": 1858,
      "ification": 1859,
      "irc": 1860,
      "▁happen": 1861,
      "viet": 1862,
      "▁met": 1863,
      "▁north": 1864,
      "▁solidarity": 1865,
      "▁weird": 1866,
      "▁enjo": 1867,
      "of": 1868,
      "▁histor": 1869,
      "▁extre": 1870,
      "enty": 1871,
      "itarian": 1872,
      "line": 1873,
      "▁provide": 1874,
      "ov": 1875,
      "ove": 1876,
      "▁dad": 1877,
      "▁liter": 1878,
      "▁ant": 1879,
      "ev": 1880,
      "▁lau": 1881,
      "▁ram": 1882,
      "▁somet": 1883,
      "sey": 1884,
      "▁art": 1885,
      "▁guarant": 1886,
      "▁principle": 1887,
      "▁oper": 1888,
      "▁focus": 1889,
      "thern": 1890,
      "▁aware": 1891,
      "▁bri": 1892,
      "▁dude": 1893,
      "▁brought": 1894,
      "▁achieved": 1895,
      "ands": 1896,
      "▁cost": 1897,
      "▁inform": 1898,
      "mes": 1899,
      "▁line": 1900,
      "▁amaz": 1901,
      "▁ways": 1902,
      "▁comb": 1903,
      "▁race": 1904,
      "▁soviet": 1905,
      "cies": 1906,
      "▁week": 1907,
      "▁sometimes": 1908,
      "▁trad": 1909,
      "▁myself": 1910,
      "▁colonial": 1911,
      "pir": 1912,
      "▁summit": 1913,
      "ify": 1914,
      "▁firm": 1915,
      "▁understanding": 1916,
      "▁minister": 1917,
      "just": 1918,
      "▁reality": 1919,
      "▁host": 1920,
      "cal": 1921,
      "▁san": 1922,
      "▁aggression": 1923,
      "▁serv": 1924,
      "▁light": 1925,
      "▁infl": 1926,
      "▁natural": 1927,
      "▁questions": 1928,
      "ires": 1929,
      "ler": 1930,
      "▁promote": 1931,
      "▁sound": 1932,
      "▁leban": 1933,
      "▁ris": 1934,
      "▁continent": 1935,
      "▁often": 1936,
      "▁gre": 1937,
      "▁results": 1938,
      "▁refu": 1939,
      "▁miss": 1940,
      "▁connect": 1941,
      "▁despite": 1942,
      "ma": 1943,
      "ased": 1944,
      "▁gets": 1945,
      "▁attemp": 1946,
      "itude": 1947,
      "▁wow": 1948,
      "▁confront": 1949,
      "itional": 1950,
      "▁legitimate": 1951,
      "▁protection": 1952,
      "eping": 1953,
      "▁policies": 1954,
      "ane": 1955,
      "sy": 1956,
      "▁programme": 1957,
      "▁early": 1958,
      "▁immedi": 1959,
      "▁committed": 1960,
      "▁elim": 1961,
      "▁priv": 1962,
      "▁drug": 1963,
      "▁decisions": 1964,
      "orial": 1965,
      "loy": 1966,
      "▁team": 1967,
      "▁trust": 1968,
      "io": 1969,
      "▁bud": 1970,
      "ode": 1971,
      "▁century": 1972,
      "▁significant": 1973,
      "▁relig": 1974,
      "den": 1975,
      "manent": 1976,
      "▁answ": 1977,
      "▁rac": 1978,
      "▁multilateral": 1979,
      "ining": 1980,
      "▁sex": 1981,
      "▁heart": 1982,
      "ters": 1983,
      "ards": 1984,
      "▁seems": 1985,
      "▁tur": 1986,
      "▁net": 1987,
      "▁along": 1988,
      "▁building": 1989,
      "▁path": 1990,
      "▁ep": 1991,
      "▁saw": 1992,
      "▁circ": 1993,
      "▁stri": 1994,
      "ift": 1995,
      "iqu": 1996,
      "▁ill": 1997,
      "▁stat": 1998,
      "▁contribute": 1999,
      "▁essential": 2000,
      "▁mus": 2001,
      "ny": 2002,
      "▁sea": 2003,
      "▁rather": 2004,
      "rial": 2005,
      "ceed": 2006,
      "▁ve": 2007,
      "▁told": 2008,
      "▁div": 2009,
      "▁educ": 2010,
      "▁increase": 2011,
      "▁bab": 2012,
      "irm": 2013,
      "▁couple": 2014,
      "cent": 2015,
      "equ": 2016,
      "▁guess": 2017,
      "▁governments": 2018,
      "▁activities": 2019,
      "▁cat": 2020,
      "▁outside": 2021,
      "▁interv": 2022,
      "▁initiative": 2023,
      "▁del": 2024,
      "▁eth": 2025,
      "▁ready": 2026,
      "▁improve": 2027,
      "elt": 2028,
      "▁single": 2029,
      "itting": 2030,
      "▁territory": 2031,
      "▁ang": 2032,
      "▁strengthening": 2033,
      "ised": 2034,
      "▁convin": 2035,
      "▁contribution": 2036,
      "ured": 2037,
      "for": 2038,
      "▁den": 2039,
      "aged": 2040,
      "▁share": 2041,
      "▁extend": 2042,
      "▁forum": 2043,
      "▁check": 2044,
      "▁depend": 2045,
      "ames": 2046,
      "▁poor": 2047,
      "▁either": 2048,
      "▁soon": 2049,
      "more": 2050,
      "▁ident": 2051,
      "▁cal": 2052,
      "▁obviously": 2053,
      "dom": 2054,
      "olution": 2055,
      "ilar": 2056,
      "▁absolutely": 2057,
      "▁collective": 2058,
      "▁destruction": 2059,
      "itable": 2060,
      "▁basic": 2061,
      "▁obs": 2062,
      "▁unity": 2063,
      "ony": 2064,
      "erve": 2065,
      "▁total": 2066,
      "iation": 2067,
      "▁cru": 2068,
      "▁low": 2069,
      "▁demon": 2070,
      "▁organizations": 2071,
      "▁convers": 2072,
      "ones": 2073,
      "▁subject": 2074,
      "▁fair": 2075,
      "▁return": 2076,
      "▁steps": 2077,
      "▁black": 2078,
      "▁afghanistan": 2079,
      "▁ramsey": 2080,
      "▁literally": 2081,
      "▁doll": 2082,
      "▁events": 2083,
      "▁movement": 2084,
      "▁changes": 2085,
      "lig": 2086,
      "▁confidence": 2087,
      "enti": 2088,
      "lusion": 2089,
      "▁worth": 2090,
      "▁isn": 2091,
      "▁event": 2092,
      "▁aid": 2093,
      "cri": 2094,
      "▁becom": 2095,
      "▁compan": 2096,
      "▁nature": 2097,
      "▁rich": 2098,
      "▁reaff": 2099,
      "oration": 2100,
      "▁amazing": 2101,
      "▁safe": 2102,
      "▁lasting": 2103,
      "▁gl": 2104,
      "▁rule": 2105,
      "▁assum": 2106,
      "▁sell": 2107,
      "▁deb": 2108,
      "▁thous": 2109,
      "over": 2110,
      "▁exerc": 2111,
      "▁attack": 2112,
      "▁throughout": 2113,
      "▁actions": 2114,
      "▁cool": 2115,
      "▁norm": 2116,
      "▁strengthen": 2117,
      "ades": 2118,
      "▁industrial": 2119,
      "▁happy": 2120,
      "▁reflect": 2121,
      "▁twenty": 2122,
      "▁independent": 2123,
      "▁compet": 2124,
      "▁refuge": 2125,
      "▁christ": 2126,
      "theid": 2127,
      "sych": 2128,
      "keeping": 2129,
      "▁capac": 2130,
      "▁suffering": 2131,
      "▁integr": 2132,
      "▁hit": 2133,
      "▁condem": 2134,
      "▁charact": 2135,
      "▁asia": 2136,
      "▁speak": 2137,
      "▁prosper": 2138,
      "▁quick": 2139,
      "ages": 2140,
      "▁majority": 2141,
      "ously": 2142,
      "▁clearly": 2143,
      "▁task": 2144,
      "▁und": 2145,
      "▁established": 2146,
      "une": 2147,
      "▁trib": 2148,
      "oses": 2149,
      "▁stress": 2150,
      "crib": 2151,
      "▁leadership": 2152,
      "▁successful": 2153,
      "ndred": 2154,
      "▁southern": 2155,
      "▁psych": 2156,
      "▁challenge": 2157,
      "partheid": 2158,
      "mend": 2159,
      "▁apartheid": 2160,
      "dra": 2161,
      "▁enjoy": 2162,
      "▁deg": 2163,
      "unch": 2164,
      "▁humanitarian": 2165,
      "vant": 2166,
      "▁pan": 2167,
      "▁quite": 2168,
      "▁words": 2169,
      "▁hundred": 2170,
      "▁proper": 2171,
      "▁link": 2172,
      "ored": 2173,
      "▁permanent": 2174,
      "ex": 2175,
      "▁demonst": 2176,
      "▁buy": 2177,
      "▁mutual": 2178,
      "▁constant": 2179,
      "erences": 2180,
      "isf": 2181,
      "▁vis": 2182,
      "▁fr": 2183,
      "ops": 2184,
      "▁ir": 2185,
      "▁beginning": 2186,
      "▁concept": 2187,
      "plom": 2188,
      "▁basically": 2189,
      "▁happens": 2190,
      "▁diplom": 2191,
      "iding": 2192,
      "▁longer": 2193,
      "▁growing": 2194,
      "▁dam": 2195,
      "ush": 2196,
      "set": 2197,
      "▁joh": 2198,
      "app": 2199,
      "▁prim": 2200,
      "▁vide": 2201,
      "▁amount": 2202,
      "▁continued": 2203,
      "▁stay": 2204,
      "▁parent": 2205,
      "▁hor": 2206,
      "▁later": 2207,
      "oun": 2208,
      "▁income": 2209,
      "▁deli": 2210,
      "ropri": 2211,
      "▁millenn": 2212,
      "▁material": 2213,
      "▁aspir": 2214,
      "▁involved": 2215,
      "▁oblig": 2216,
      "▁withdra": 2217,
      "▁heard": 2218,
      "▁faith": 2219,
      "▁west": 2220,
      "▁participation": 2221,
      "▁objectives": 2222,
      "ique": 2223,
      "▁vo": 2224,
      "ake": 2225,
      "▁condu": 2226,
      "▁welcom": 2227,
      "ctions": 2228,
      "▁harm": 2229,
      "▁armed": 2230,
      "▁character": 2231,
      "arily": 2232,
      "▁nar": 2233,
      "▁fall": 2234,
      "▁membership": 2235,
      "co": 2236,
      "▁pla": 2237,
      "▁wes": 2238,
      "▁internal": 2239,
      "▁china": 2240,
      "▁death": 2241,
      "ibilities": 2242,
      "▁mess": 2243,
      "ale": 2244,
      "▁thanks": 2245,
      "▁claim": 2246,
      "▁felt": 2247,
      "▁road": 2248,
      "ructive": 2249,
      "chan": 2250,
      "▁opin": 2251,
      "pects": 2252,
      "ood": 2253,
      "▁aimed": 2254,
      "▁condemn": 2255,
      "ife": 2256,
      "▁camp": 2257,
      "▁element": 2258,
      "▁territorial": 2259,
      "ication": 2260,
      "▁pain": 2261,
      "▁millennium": 2262,
      "▁sud": 2263,
      "▁impact": 2264,
      "▁satisf": 2265,
      "ases": 2266,
      "aw": 2267,
      "omp": 2268,
      "▁room": 2269,
      "▁walk": 2270,
      "▁canad": 2271,
      "▁agreements": 2272,
      "▁western": 2273,
      "▁lack": 2274,
      "▁subst": 2275,
      "ery": 2276,
      "▁victim": 2277,
      "▁hun": 2278,
      "▁values": 2279,
      "▁fear": 2280,
      "ots": 2281,
      "▁mechan": 2282,
      "▁bey": 2283,
      "▁pursu": 2284,
      "pre": 2285,
      "uine": 2286,
      "▁access": 2287,
      "▁paid": 2288,
      "▁water": 2289,
      "▁palestine": 2290,
      "▁integrity": 2291,
      "▁1": 2292,
      "▁broad": 2293,
      "▁imagine": 2294,
      "▁credit": 2295,
      "▁extreme": 2296,
      "▁convinced": 2297,
      "▁behalf": 2298,
      "▁finally": 2299,
      "▁leave": 2300,
      "verse": 2301,
      "▁territories": 2302,
      "▁final": 2303,
      "▁genuine": 2304,
      "gu": 2305,
      "▁urgent": 2306,
      "▁require": 2307,
      "anced": 2308,
      "▁john": 2309,
      "▁beyond": 2310,
      "▁information": 2311,
      "ising": 2312,
      "oring": 2313,
      "▁ourselves": 2314,
      "▁withdraw": 2315,
      "▁committee": 2316,
      "▁lebanon": 2317,
      "▁meaning": 2318,
      "▁capacity": 2319,
      "▁shall": 2320,
      "▁cit": 2321,
      "▁nice": 2322,
      "▁commission": 2323,
      "▁opt": 2324,
      "▁created": 2325,
      "▁geor": 2326,
      "▁appropri": 2327,
      "▁cyp": 2328,
      "0s": 2329,
      "▁completely": 2330,
      "ell": 2331,
      "▁truth": 2332,
      "▁legal": 2333,
      "▁king": 2334,
      "▁port": 2335,
      "▁ability": 2336,
      "▁iran": 2337,
      "itness": 2338,
      "amic": 2339,
      "▁knew": 2340,
      "▁willing": 2341,
      "▁following": 2342,
      "▁dut": 2343,
      "det": 2344,
      "aring": 2345,
      "▁sincere": 2346,
      "itation": 2347,
      "▁technology": 2348,
      "▁sor": 2349,
      "▁instr": 2350,
      "▁similar": 2351,
      "▁happening": 2352,
      "▁consequences": 2353,
      "▁behind": 2354,
      "▁citiz": 2355,
      "▁inh": 2356,
      "▁acts": 2357,
      "ton": 2358,
      "▁potential": 2359,
      "▁vir": 2360,
      "▁spend": 2361,
      "▁latin": 2362,
      "▁mention": 2363,
      "▁needed": 2364,
      "▁enh": 2365,
      "iction": 2366,
      "▁red": 2367,
      "▁ten": 2368,
      "rible": 2369,
      "▁ground": 2370,
      "▁limit": 2371,
      "▁adm": 2372,
      "▁looks": 2373,
      "▁instead": 2374,
      "eness": 2375,
      "has": 2376,
      "▁fulf": 2377,
      "though": 2378,
      "▁answer": 2379,
      "oint": 2380,
      "▁baby": 2381,
      "▁note": 2382,
      "itely": 2383,
      "▁benefit": 2384,
      "fect": 2385,
      "▁realize": 2386,
      "▁although": 2387,
      "▁parts": 2388,
      "▁honest": 2389,
      "▁feeling": 2390,
      "▁wouldn": 2391,
      "fortun": 2392,
      "umb": 2393,
      "ador": 2394,
      "soci": 2395,
      "▁prep": 2396,
      "▁teach": 2397,
      "▁takes": 2398,
      "determination": 2399,
      "▁imm": 2400,
      "▁hopes": 2401,
      "aps": 2402,
      "▁easy": 2403,
      "new": 2404,
      "orities": 2405,
      "▁inn": 2406,
      "▁figure": 2407,
      "▁mand": 2408,
      "▁ste": 2409,
      "▁rul": 2410,
      "▁manner": 2411,
      "▁office": 2412,
      "▁jud": 2413,
      "▁polit": 2414,
      "▁tension": 2415,
      "▁initiatives": 2416,
      "▁lost": 2417,
      "iferation": 2418,
      "▁ut": 2419,
      "▁har": 2420,
      "▁ah": 2421,
      "▁mov": 2422,
      "onse": 2423,
      "▁wonder": 2424,
      "▁dign": 2425,
      "▁budget": 2426,
      "pr": 2427,
      "▁unfortun": 2428,
      "▁ty": 2429,
      "▁certainly": 2430,
      "▁ger": 2431,
      "▁giving": 2432,
      "oph": 2433,
      "▁viet": 2434,
      "▁individual": 2435,
      "▁response": 2436,
      "▁party": 2437,
      "ource": 2438,
      "▁purpose": 2439,
      "▁capital": 2440,
      "▁review": 2441,
      "▁complex": 2442,
      "▁developments": 2443,
      "rate": 2444,
      "▁fre": 2445,
      "▁led": 2446,
      "▁sever": 2447,
      "▁talked": 2448,
      "▁supports": 2449,
      "gency": 2450,
      "▁warm": 2451,
      "aut": 2452,
      "att": 2453,
      "▁brain": 2454,
      "▁surv": 2455,
      "▁tro": 2456,
      "▁eight": 2457,
      "▁ori": 2458,
      "▁determination": 2459,
      "▁air": 2460,
      "olid": 2461,
      "▁stage": 2462,
      "▁tax": 2463,
      "▁york": 2464,
      "▁education": 2465,
      "▁personal": 2466,
      "▁strategy": 2467,
      "▁appeal": 2468,
      "reg": 2469,
      "▁appropriate": 2470,
      "ilt": 2471,
      "▁epis": 2472,
      "aligned": 2473,
      "▁pen": 2474,
      "ished": 2475,
      "▁seek": 2476,
      "▁manage": 2477,
      "▁associ": 2478,
      "▁exercise": 2479,
      "▁pick": 2480,
      "▁doc": 2481,
      "▁bank": 2482,
      "▁planet": 2483,
      "oper": 2484,
      "▁hot": 2485,
      "▁percent": 2486,
      "▁korea": 2487,
      "▁representative": 2488,
      "▁active": 2489,
      "fer": 2490,
      "▁reiter": 2491,
      "bo": 2492,
      "▁aspirations": 2493,
      "▁humanity": 2494,
      "▁media": 2495,
      "action": 2496,
      "▁objective": 2497,
      "▁gone": 2498,
      "▁tar": 2499,
      "▁ju": 2500,
      "▁levels": 2501,
      "▁alone": 2502,
      "▁telling": 2503,
      "▁class": 2504,
      "▁specific": 2505,
      "▁calls": 2506,
      "▁renew": 2507,
      "▁witness": 2508,
      "▁known": 2509,
      "▁refugees": 2510,
      "▁ones": 2511,
      "▁carry": 2512,
      "enth": 2513,
      "▁seven": 2514,
      "▁value": 2515,
      "raph": 2516,
      "asion": 2517,
      "▁balance": 2518,
      "▁mother": 2519,
      "▁doubt": 2520,
      "▁offic": 2521,
      "▁mot": 2522,
      "▁dream": 2523,
      "▁decade": 2524,
      "▁several": 2525,
      "▁opinion": 2526,
      "▁resolve": 2527,
      "ctor": 2528,
      "▁search": 2529,
      "▁earth": 2530,
      "▁da": 2531,
      "▁groups": 2532,
      "▁sorry": 2533,
      "▁recognize": 2534,
      "▁occupation": 2535,
      "▁relevant": 2536,
      "▁moral": 2537,
      "▁pull": 2538,
      "▁send": 2539,
      "▁vision": 2540,
      "▁conversation": 2541,
      "asons": 2542,
      "▁equality": 2543,
      "▁arm": 2544,
      "▁wealth": 2545,
      "▁dignity": 2546,
      "▁funny": 2547,
      "▁wait": 2548,
      "▁huge": 2549,
      "use": 2550,
      "▁facing": 2551,
      "▁liberation": 2552,
      "▁sept": 2553,
      "▁wife": 2554,
      "▁cut": 2555,
      "▁bi": 2556,
      "▁save": 2557,
      "▁record": 2558,
      "rus": 2559,
      "▁perfect": 2560,
      "lt": 2561,
      "ched": 2562,
      "▁oce": 2563,
      "▁sho": 2564,
      "▁talks": 2565,
      "▁isl": 2566,
      "▁september": 2567,
      "▁ey": 2568,
      "▁consci": 2569,
      "▁joint": 2570,
      "▁respond": 2571,
      "▁transform": 2572,
      "▁ideas": 2573,
      "ison": 2574,
      "▁normal": 2575,
      "now": 2576,
      "▁israeli": 2577,
      "rict": 2578,
      "▁influ": 2579,
      "▁dangerous": 2580,
      "▁german": 2581,
      "ster": 2582,
      "dy": 2583,
      "▁court": 2584,
      "▁definitely": 2585,
      "▁prosperity": 2586,
      "▁fast": 2587,
      "▁eat": 2588,
      "▁listening": 2589,
      "▁fed": 2590,
      "▁phys": 2591,
      "▁dead": 2592,
      "▁amb": 2593,
      "▁culture": 2594,
      "▁consens": 2595,
      "▁increased": 2596,
      "▁conduct": 2597,
      "▁cultural": 2598,
      "▁cold": 2599,
      "▁key": 2600,
      "▁emphas": 2601,
      "▁wants": 2602,
      "ledge": 2603,
      "ring": 2604,
      "▁guarantee": 2605,
      "▁avail": 2606,
      "▁mis": 2607,
      "▁rese": 2608,
      "ained": 2609,
      "▁phone": 2610,
      "▁watching": 2611,
      "▁economies": 2612,
      "▁consist": 2613,
      "▁mission": 2614,
      "▁thir": 2615,
      "rap": 2616,
      "▁repe": 2617,
      "▁using": 2618,
      "▁conclusion": 2619,
      "▁rad": 2620,
      "▁environmental": 2621,
      "▁knows": 2622,
      "▁woman": 2623,
      "▁project": 2624,
      "▁space": 2625,
      "▁hell": 2626,
      "▁worked": 2627,
      "▁scient": 2628,
      "▁haven": 2629,
      "▁desire": 2630,
      "▁rece": 2631,
      "▁city": 2632,
      "▁reached": 2633,
      "▁accordance": 2634,
      "ference": 2635,
      "▁playing": 2636,
      "▁demand": 2637,
      "▁colle": 2638,
      "▁fif": 2639,
      "▁beaut": 2640,
      "▁parents": 2641,
      "▁above": 2642,
      "▁imperial": 2643,
      "yn": 2644,
      "▁admin": 2645,
      "osing": 2646,
      "▁extra": 2647,
      "▁aust": 2648,
      "cell": 2649,
      "▁existence": 2650,
      "istence": 2651,
      "▁recognized": 2652,
      "▁sle": 2653,
      "▁term": 2654,
      "▁consensus": 2655,
      "▁citizens": 2656,
      "rodu": 2657,
      "ensions": 2658,
      "▁threats": 2659,
      "bu": 2660,
      "▁negative": 2661,
      "▁priority": 2662,
      "▁agreed": 2663,
      "▁minutes": 2664,
      "▁grand": 2665,
      "▁gave": 2666,
      "ape": 2667,
      "▁il": 2668,
      "▁production": 2669,
      "▁gives": 2670,
      "ese": 2671,
      "▁putting": 2672,
      "▁avo": 2673,
      "read": 2674,
      "▁earli": 2675,
      "▁purposes": 2676,
      "ola": 2677,
      "▁constitution": 2678,
      "▁near": 2679,
      "▁white": 2680,
      "▁cyprus": 2681,
      "icient": 2682,
      "hold": 2683,
      "▁correct": 2684,
      "▁reasons": 2685,
      "▁requires": 2686,
      "ented": 2687,
      "rage": 2688,
      "▁played": 2689,
      "▁research": 2690,
      "gest": 2691,
      "▁cle": 2692,
      "ama": 2693,
      "encies": 2694,
      "iveness": 2695,
      "▁hours": 2696,
      "▁favor": 2697,
      "▁ult": 2698,
      "▁rid": 2699,
      "hood": 2700,
      "abil": 2701,
      "cl": 2702,
      "avi": 2703,
      "oke": 2704,
      "uted": 2705,
      "▁billion": 2706,
      "aken": 2707,
      "standing": 2708,
      "▁kamp": 2709,
      "▁adoption": 2710,
      "▁creation": 2711,
      "▁congratulate": 2712,
      "▁news": 2713,
      "▁recom": 2714,
      "▁consolid": 2715,
      "▁situations": 2716,
      "ordin": 2717,
      "▁circum": 2718,
      "▁tribute": 2719,
      "▁appreciation": 2720,
      "key": 2721,
      "▁disast": 2722,
      "▁unless": 2723,
      "▁hur": 2724,
      "▁ign": 2725,
      "▁operations": 2726,
      "▁endeav": 2727,
      "▁prevail": 2728,
      "▁across": 2729,
      "oted": 2730,
      "▁conclud": 2731,
      "▁fine": 2732,
      "▁zone": 2733,
      "▁coll": 2734,
      "▁refer": 2735,
      "▁seeing": 2736,
      "▁millions": 2737,
      "cks": 2738,
      "▁achieving": 2739,
      "▁reject": 2740,
      "iable": 2741,
      "▁congratulations": 2742,
      "▁video": 2743,
      "▁illeg": 2744,
      "▁decided": 2745,
      "▁effectively": 2746,
      "▁offer": 2747,
      "▁annivers": 2748,
      "▁critical": 2749,
      "▁explo": 2750,
      "▁mark": 2751,
      "▁join": 2752,
      "▁encourage": 2753,
      "▁recognition": 2754,
      "▁couldn": 2755,
      "▁partnership": 2756,
      "edy": 2757,
      "▁vers": 2758,
      "▁serve": 2759,
      "▁grat": 2760,
      "▁sad": 2761,
      "▁responsibilities": 2762,
      "▁historic": 2763,
      "▁decades": 2764,
      "▁transp": 2765,
      "▁manif": 2766,
      "▁kampuch": 2767,
      "▁brother": 2768,
      "▁anniversary": 2769,
      "▁dire": 2770,
      "▁powerful": 2771,
      "▁joe": 2772,
      "▁vul": 2773,
      "▁arg": 2774,
      "▁accomp": 2775,
      "▁proposals": 2776,
      "▁x": 2777,
      "▁unfortunately": 2778,
      "▁determin": 2779,
      "▁commitments": 2780,
      "▁equal": 2781,
      "▁occupied": 2782,
      "ived": 2783,
      "▁risk": 2784,
      "ott": 2785,
      "uments": 2786,
      "▁continuing": 2787,
      "▁recommend": 2788,
      "▁obst": 2789,
      "▁responsible": 2790,
      "▁cash": 2791,
      "▁vital": 2792,
      "▁syri": 2793,
      "▁fran": 2794,
      "build": 2795,
      "▁constructive": 2796,
      "ana": 2797,
      "▁forms": 2798,
      "▁flow": 2799,
      "▁increasingly": 2800,
      "▁shows": 2801,
      "old": 2802,
      "atory": 2803,
      "▁emot": 2804,
      "nel": 2805,
      "entially": 2806,
      "▁effects": 2807,
      "ternal": 2808,
      "▁works": 2809,
      "ente": 2810,
      "▁elections": 2811,
      "ival": 2812,
      "▁status": 2813,
      "▁oil": 2814,
      "▁truly": 2815,
      "▁pacific": 2816,
      "▁regret": 2817,
      "▁vulner": 2818,
      "▁racist": 2819,
      "▁dim": 2820,
      "▁company": 2821,
      "sec": 2822,
      "▁anybody": 2823,
      "▁mort": 2824,
      "icking": 2825,
      "▁moving": 2826,
      "ipp": 2827,
      "▁sovereign": 2828,
      "ik": 2829,
      "▁withdrawal": 2830,
      "▁bunch": 2831,
      "son": 2832,
      "▁pict": 2833,
      "▁stra": 2834,
      "▁concret": 2835,
      "▁wars": 2836,
      "▁dise": 2837,
      "▁ahead": 2838,
      "▁modern": 2839,
      "▁authority": 2840,
      "▁former": 2841,
      "▁statement": 2842,
      "▁institution": 2843,
      "▁elimin": 2844,
      "▁circumst": 2845,
      "▁excell": 2846,
      "▁rules": 2847,
      "▁manifest": 2848,
      "pow": 2849,
      "▁opportun": 2850,
      "▁systems": 2851,
      "▁regions": 2852,
      "▁revolution": 2853,
      "▁mad": 2854,
      "▁asked": 2855,
      "▁russ": 2856,
      "ai": 2857,
      "▁concrete": 2858,
      "asc": 2859,
      "▁degree": 2860,
      "ograph": 2861,
      "▁domin": 2862,
      "idency": 2863,
      "▁fighting": 2864,
      "▁enable": 2865,
      "▁believes": 2866,
      "▁heads": 2867,
      "▁rap": 2868,
      "omb": 2869,
      "▁allowed": 2870,
      "mination": 2871,
      "▁concerns": 2872,
      "▁destro": 2873,
      "▁weeks": 2874,
      "▁ultimate": 2875,
      "▁stock": 2876,
      "▁earlier": 2877,
      "anda": 2878,
      "▁administ": 2879,
      "▁promoting": 2880,
      "▁thousands": 2881,
      "▁forth": 2882,
      "▁hour": 2883,
      "▁imper": 2884,
      "▁crime": 2885,
      "▁lose": 2886,
      "leb": 2887,
      "▁facil": 2888,
      "inea": 2889,
      "▁except": 2890,
      "▁carib": 2891,
      "▁belief": 2892,
      "▁mur": 2893,
      "▁gri": 2894,
      "▁crimin": 2895,
      "bean": 2896,
      "▁urge": 2897,
      "ator": 2898,
      "▁reaffirm": 2899,
      "▁pap": 2900,
      "ali": 2901,
      "▁secure": 2902,
      "▁target": 2903,
      "▁islands": 2904,
      "▁reconcil": 2905,
      "▁disputes": 2906,
      "▁tend": 2907,
      "▁george": 2908,
      "▁debate": 2909,
      "▁opportunities": 2910,
      "▁substant": 2911,
      "outh": 2912,
      "▁era": 2913,
      "▁movie": 2914,
      "eless": 2915,
      "▁anyone": 2916,
      "▁achievement": 2917,
      "▁according": 2918,
      "▁presidency": 2919,
      "▁bound": 2920,
      "▁paying": 2921,
      "▁boy": 2922,
      "ressive": 2923,
      "▁looked": 2924,
      "ze": 2925,
      "▁pie": 2926,
      "▁hands": 2927,
      "▁investment": 2928,
      "cked": 2929,
      "▁caribbean": 2930,
      "▁immediate": 2931,
      "▁available": 2932,
      "alled": 2933,
      "▁troops": 2934,
      "▁episode": 2935,
      "▁sitting": 2936,
      "▁causes": 2937,
      "▁existing": 2938,
      "▁equitable": 2939,
      "going": 2940,
      "▁weak": 2941,
      "▁guinea": 2942,
      "▁tried": 2943,
      "▁lay": 2944,
      "xic": 2945,
      "▁draw": 2946,
      "▁pressure": 2947,
      "▁programmes": 2948,
      "ional": 2949,
      "▁profound": 2950,
      "▁provided": 2951,
      "▁connection": 2952,
      "▁due": 2953,
      "▁source": 2954,
      "ped": 2955,
      "▁perform": 2956,
      "▁slow": 2957,
      "▁origin": 2958,
      "▁round": 2959,
      "▁ec": 2960,
      "▁bringing": 2961,
      "▁religious": 2962,
      "▁difficulties": 2963,
      "imb": 2964,
      "▁practice": 2965,
      "▁wishes": 2966,
      "ordan": 2967,
      "und": 2968,
      "gs": 2969,
      "iny": 2970,
      "▁ment": 2971,
      "▁laun": 2972,
      "▁rate": 2973,
      "▁season": 2974,
      "▁card": 2975,
      "▁simp": 2976,
      "▁circumstances": 2977,
      "aries": 2978,
      "▁function": 2979,
      "▁supposed": 2980,
      "▁throw": 2981,
      "ero": 2982,
      "▁attain": 2983,
      "▁celeb": 2984,
      "▁ocean": 2985,
      "▁greatest": 2986,
      "▁terrible": 2987,
      "▁evidence": 2988,
      "▁service": 2989,
      "▁ver": 2990,
      "▁wild": 2991,
      "▁external": 2992,
      "▁confident": 2993,
      "▁bor": 2994,
      "▁hus": 2995,
      "▁feels": 2996,
      "ney": 2997,
      "▁totally": 2998,
      "▁direction": 2999,
      "▁discri": 3000,
      "▁attach": 3001,
      "▁heav": 3002,
      "▁crises": 3003,
      "bed": 3004,
      "▁document": 3005,
      "▁jordan": 3006,
      "▁angola": 3007,
      "▁bed": 3008,
      "orms": 3009,
      "orts": 3010,
      "▁traff": 3011,
      "▁starting": 3012,
      "▁subs": 3013,
      "▁separ": 3014,
      "▁aug": 3015,
      "▁voice": 3016,
      "▁anx": 3017,
      "▁signed": 3018,
      "▁proposal": 3019,
      "▁skill": 3020,
      "▁practical": 3021,
      "▁lab": 3022,
      "aly": 3023,
      "▁primary": 3024,
      "rad": 3025,
      "pective": 3026,
      "▁appreciate": 3027,
      "odies": 3028,
      "rew": 3029,
      "▁describ": 3030,
      "▁morning": 3031,
      "▁overcome": 3032,
      "▁leading": 3033,
      "▁girls": 3034,
      "▁disapp": 3035,
      "▁mach": 3036,
      "▁trend": 3037,
      "apan": 3038,
      "▁forget": 3039,
      "▁victims": 3040,
      "▁supported": 3041,
      "iful": 3042,
      "loyment": 3043,
      "▁kingdom": 3044,
      "▁science": 3045,
      "tenance": 3046,
      "▁promotion": 3047,
      "ean": 3048,
      "▁expressed": 3049,
      "▁sir": 3050,
      "▁presence": 3051,
      "▁beings": 3052,
      "▁die": 3053,
      "▁phil": 3054,
      "▁maintenance": 3055,
      "▁pleas": 3056,
      "▁smart": 3057,
      "light": 3058,
      "lying": 3059,
      "aking": 3060,
      "▁running": 3061,
      "▁sole": 3062,
      "▁spread": 3063,
      "▁japan": 3064,
      "▁became": 3065,
      "▁suc": 3066,
      "▁aud": 3067,
      "▁vol": 3068,
      "▁attempt": 3069,
      "▁confrontation": 3070,
      "▁reduction": 3071,
      "wa": 3072,
      "▁cover": 3073,
      "isms": 3074,
      "▁seriously": 3075,
      "▁nobody": 3076,
      "▁detente": 3077,
      "▁dollars": 3078,
      "ube": 3079,
      "▁participate": 3080,
      "▁lim": 3081,
      "▁differences": 3082,
      "▁reconciliation": 3083,
      "rest": 3084,
      "▁official": 3085,
      "▁behavi": 3086,
      "▁succeed": 3087,
      "▁calling": 3088,
      "▁experien": 3089,
      "▁drink": 3090,
      "▁keeping": 3091,
      "▁sent": 3092,
      "▁places": 3093,
      "▁cam": 3094,
      "▁forty": 3095,
      "▁drop": 3096,
      "band": 3097,
      "ises": 3098,
      "lled": 3099,
      "▁write": 3100,
      "wise": 3101,
      "angu": 3102,
      "▁model": 3103,
      "▁temp": 3104,
      "▁matters": 3105,
      "▁advant": 3106,
      "▁prol": 3107,
      "▁defend": 3108,
      "depend": 3109,
      "▁chem": 3110,
      "▁expans": 3111,
      "▁becoming": 3112,
      "▁ded": 3113,
      "▁interested": 3114,
      "ua": 3115,
      "▁integration": 3116,
      "umer": 3117,
      "▁mere": 3118,
      "▁emergency": 3119,
      "▁deeply": 3120,
      "omen": 3121,
      "▁sacri": 3122,
      "▁sah": 3123,
      "▁changed": 3124,
      "itted": 3125,
      "▁anti": 3126,
      "▁built": 3127,
      "▁grave": 3128,
      "▁trump": 3129,
      "▁dealing": 3130,
      "▁illegal": 3131,
      "haps": 3132,
      "▁strongly": 3133,
      "ares": 3134,
      "▁sanctions": 3135,
      "▁therap": 3136,
      "▁pleased": 3137,
      "▁creating": 3138,
      "iety": 3139,
      "▁failure": 3140,
      "▁thirty": 3141,
      "▁anim": 3142,
      "▁anymore": 3143,
      "▁fire": 3144,
      "▁beautiful": 3145,
      "range": 3146,
      "▁pred": 3147,
      "▁shot": 3148,
      "▁sounds": 3149,
      "▁simply": 3150,
      "▁perhaps": 3151,
      "▁duty": 3152,
      "▁gain": 3153,
      "osition": 3154,
      "▁relationships": 3155,
      "▁industrialized": 3156,
      "▁welcomes": 3157,
      "▁apart": 3158,
      "▁deliber": 3159,
      "rast": 3160,
      "▁rise": 3161,
      "ming": 3162,
      "itch": 3163,
      "cer": 3164,
      "▁tom": 3165,
      "▁saving": 3166,
      "▁limited": 3167,
      "ercial": 3168,
      "▁courage": 3169,
      "▁determined": 3170,
      "▁expansion": 3171,
      "▁commend": 3172,
      "▁difference": 3173,
      "▁cu": 3174,
      "term": 3175,
      "▁shared": 3176,
      "▁learned": 3177,
      "▁artic": 3178,
      "▁chance": 3179,
      "▁neighbour": 3180,
      "ibly": 3181,
      "▁fru": 3182,
      "▁prec": 3183,
      "▁sleep": 3184,
      "▁shown": 3185,
      "▁text": 3186,
      "ned": 3187,
      "▁19": 3188,
      "ania": 3189,
      "▁interdepend": 3190,
      "▁structure": 3191,
      "▁prices": 3192,
      "▁appl": 3193,
      "▁management": 3194,
      "fir": 3195,
      "ators": 3196,
      "▁loss": 3197,
      "▁jour": 3198,
      "▁previous": 3199,
      "▁phen": 3200,
      "▁firmly": 3201,
      "▁blood": 3202,
      "▁rat": 3203,
      "▁type": 3204,
      "▁optim": 3205,
      "▁islamic": 3206,
      "val": 3207,
      "▁expert": 3208,
      "gage": 3209,
      "estic": 3210,
      "esome": 3211,
      "▁plus": 3212,
      "▁speaking": 3213,
      "▁qual": 3214,
      "▁local": 3215,
      "ees": 3216,
      "▁reiterate": 3217,
      "ieth": 3218,
      "nic": 3219,
      "▁erad": 3220,
      "▁actively": 3221,
      "erved": 3222,
      "▁outcome": 3223,
      "▁canada": 3224,
      "▁avoid": 3225,
      "▁rapid": 3226,
      "▁phenomen": 3227,
      "pet": 3228,
      "▁strategic": 3229,
      "▁ensuring": 3230,
      "▁addition": 3231,
      "▁husband": 3232,
      "▁obligations": 3233,
      "▁aut": 3234,
      "▁hate": 3235,
      "rid": 3236,
      "▁crucial": 3237,
      "▁caused": 3238,
      "off": 3239,
      "rary": 3240,
      "▁police": 3241,
      "▁daily": 3242,
      "ature": 3243,
      "▁representatives": 3244,
      "▁june": 3245,
      "▁private": 3246,
      "▁prepared": 3247,
      "▁push": 3248,
      "ps": 3249,
      "▁prepar": 3250,
      "▁late": 3251,
      "▁expand": 3252,
      "▁agencies": 3253,
      "▁hang": 3254,
      "▁kampuchea": 3255,
      "▁wide": 3256,
      "▁counter": 3257,
      "▁immediately": 3258,
      "ience": 3259,
      "▁mist": 3260,
      "▁ken": 3261,
      "▁peacekeeping": 3262,
      "▁enter": 3263,
      "first": 3264,
      "lling": 3265,
      "ief": 3266,
      "▁foot": 3267,
      "▁extremely": 3268,
      "▁typ": 3269,
      "▁cub": 3270,
      "▁currently": 3271,
      "▁instrument": 3272,
      "▁reforms": 3273,
      "▁solve": 3274,
      "▁incred": 3275,
      "ricult": 3276,
      "ressed": 3277,
      "▁door": 3278,
      "roud": 3279,
      "▁college": 3280,
      "building": 3281,
      "emic": 3282,
      "ivity": 3283,
      "ef": 3284,
      "▁standards": 3285,
      "▁simple": 3286,
      "eties": 3287,
      "unt": 3288,
      "▁agricult": 3289,
      "▁hi": 3290,
      "▁date": 3291,
      "▁traged": 3292,
      "▁nic": 3293,
      "▁terrorist": 3294,
      "▁clos": 3295,
      "▁series": 3296,
      "phere": 3297,
      "▁choice": 3298,
      "▁green": 3299,
      "▁points": 3300,
      "▁remind": 3301,
      "rum": 3302,
      "▁inside": 3303,
      "▁sister": 3304,
      "▁constantly": 3305,
      "orders": 3306,
      "▁occasion": 3307,
      "▁fort": 3308,
      "olon": 3309,
      "icate": 3310,
      "▁proud": 3311,
      "▁aspects": 3312,
      "▁gradu": 3313,
      "▁sus": 3314,
      "▁famil": 3315,
      "▁yout": 3316,
      "▁please": 3317,
      "▁pet": 3318,
      "iant": 3319,
      "▁uk": 3320,
      "ara": 3321,
      "▁undert": 3322,
      "▁langu": 3323,
      "▁aren": 3324,
      "▁transition": 3325,
      "▁camb": 3326,
      "▁toler": 3327,
      "mine": 3328,
      "▁meth": 3329,
      "▁price": 3330,
      "▁friendly": 3331,
      "vert": 3332,
      "▁criminal": 3333,
      "▁bodies": 3334,
      "▁domestic": 3335,
      "east": 3336,
      "▁occur": 3337,
      "▁worst": 3338,
      "▁required": 3339,
      "▁mob": 3340,
      "▁coex": 3341,
      "bit": 3342,
      "▁reduce": 3343,
      "▁chemical": 3344,
      "▁jer": 3345,
      "▁unf": 3346,
      "▁games": 3347,
      "▁diplomatic": 3348,
      "▁worse": 3349,
      "▁regular": 3350,
      "▁obstac": 3351,
      "▁actual": 3352,
      "apt": 3353,
      "▁career": 3354,
      "mer": 3355,
      "ula": 3356,
      "▁bull": 3357,
      "▁bear": 3358,
      "▁related": 3359,
      "cle": 3360,
      "wor": 3361,
      "▁destroy": 3362,
      "▁married": 3363,
      "▁tou": 3364,
      "▁colonialism": 3365,
      "▁prime": 3366,
      "▁awesome": 3367,
      "▁globalization": 3368,
      "▁interference": 3369,
      "▁mem": 3370,
      "▁training": 3371,
      "▁quickly": 3372,
      "bel": 3373,
      "▁highest": 3374,
      "▁portug": 3375,
      "▁intens": 3376,
      "▁rent": 3377,
      "▁commercial": 3378,
      "▁higher": 3379,
      "▁designed": 3380,
      "▁youtube": 3381,
      "▁multip": 3382,
      "▁august": 3383,
      "▁rob": 3384,
      "▁safegu": 3385,
      "▁study": 3386,
      "▁elimination": 3387,
      "▁cases": 3388,
      "▁prede": 3389,
      "▁squ": 3390,
      "▁predecess": 3391,
      "▁repl": 3392,
      "eap": 3393,
      "▁engage": 3394,
      "▁undertaken": 3395,
      "▁fil": 3396,
      "▁decide": 3397,
      "▁views": 3398,
      "▁satisfaction": 3399,
      "bs": 3400,
      "▁ack": 3401,
      "▁affected": 3402,
      "▁none": 3403,
      "▁combat": 3404,
      "▁consideration": 3405,
      "▁influence": 3406,
      "▁dyn": 3407,
      "▁drugs": 3408,
      "▁governance": 3409,
      "▁acknow": 3410,
      "▁picture": 3411,
      "▁highly": 3412,
      "▁appear": 3413,
      "▁intervention": 3414,
      "▁trou": 3415,
      "▁somal": 3416,
      "▁innoc": 3417,
      "rupt": 3418,
      "▁advance": 3419,
      "▁tool": 3420,
      "ays": 3421,
      "▁include": 3422,
      "▁discrimination": 3423,
      "ggest": 3424,
      "ulated": 3425,
      "▁borders": 3426,
      "room": 3427,
      "▁cambod": 3428,
      "▁flo": 3429,
      "▁cooper": 3430,
      "▁perpet": 3431,
      "▁fucked": 3432,
      "▁directly": 3433,
      "▁suggest": 3434,
      "▁likely": 3435,
      "▁vast": 3436,
      "▁sev": 3437,
      "odes": 3438,
      "▁socialist": 3439,
      "▁fan": 3440,
      "▁perspective": 3441,
      "▁attempts": 3442,
      "▁dece": 3443,
      "ient": 3444,
      "▁explain": 3445,
      "▁pleasure": 3446,
      "▁korean": 3447,
      "▁essentially": 3448,
      "▁breat": 3449,
      "▁faced": 3450,
      "▁assess": 3451,
      "ets": 3452,
      "▁wall": 3453,
      "▁father": 3454,
      "upid": 3455,
      "ank": 3456,
      "ulate": 3457,
      "▁persist": 3458,
      "▁virt": 3459,
      "icated": 3460,
      "augh": 3461,
      "▁anyway": 3462,
      "▁everywhere": 3463,
      "▁holding": 3464,
      "▁fourth": 3465,
      "ats": 3466,
      "▁stupid": 3467,
      "▁generations": 3468,
      "▁intend": 3469,
      "▁demands": 3470,
      "▁transfer": 3471,
      "▁ali": 3472,
      "▁ice": 3473,
      "▁afford": 3474,
      "▁considered": 3475,
      "▁turned": 3476,
      "▁finding": 3477,
      "here": 3478,
      "▁gratitude": 3479,
      "▁hall": 3480,
      "aging": 3481,
      "▁gun": 3482,
      "▁numbers": 3483,
      "▁predecessor": 3484,
      "▁draft": 3485,
      "▁mer": 3486,
      "urance": 3487,
      "▁july": 3488,
      "▁mortgage": 3489,
      "ley": 3490,
      "ica": 3491,
      "▁barb": 3492,
      "▁fulfil": 3493,
      "▁wind": 3494,
      "▁sudden": 3495,
      "▁unique": 3496,
      "▁drive": 3497,
      "▁communities": 3498,
      "▁becomes": 3499,
      "▁hom": 3500,
      "▁introdu": 3501,
      "overy": 3502,
      "▁wid": 3503,
      "▁sacrif": 3504,
      "ech": 3505,
      "▁crimes": 3506,
      "▁facilit": 3507,
      "▁enhance": 3508,
      "ec": 3509,
      "▁dark": 3510,
      "▁mechanisms": 3511,
      "▁sens": 3512,
      "▁method": 3513,
      "▁enorm": 3514,
      "▁federal": 3515,
      "▁imperative": 3516,
      "ari": 3517,
      "▁vulnerable": 3518,
      "▁markets": 3519,
      "▁deteri": 3520,
      "▁son": 3521,
      "▁achievements": 3522,
      "▁stre": 3523,
      "▁van": 3524,
      "▁star": 3525,
      "entions": 3526,
      "▁contact": 3527,
      "▁constitute": 3528,
      "▁message": 3529,
      "▁realities": 3530,
      "▁displ": 3531,
      "▁tragic": 3532,
      "▁nine": 3533,
      "▁march": 3534,
      "▁elements": 3535,
      "▁indis": 3536,
      "▁societies": 3537,
      "▁burden": 3538,
      "▁fifty": 3539,
      "▁identity": 3540,
      "▁benefits": 3541,
      "▁somalia": 3542,
      "used": 3543,
      "iance": 3544,
      "being": 3545,
      "▁swe": 3546,
      "▁tensions": 3547,
      "▁regarding": 3548,
      "mon": 3549,
      "▁asking": 3550,
      "▁effectiveness": 3551,
      "▁piece": 3552,
      "▁ton": 3553,
      "▁wrote": 3554,
      "ha": 3555,
      "ror": 3556,
      "▁decis": 3557,
      "▁india": 3558,
      "irmed": 3559,
      "▁proposed": 3560,
      "akes": 3561,
      "▁dave": 3562,
      "gypt": 3563,
      "▁ideals": 3564,
      "rel": 3565,
      "▁knowledge": 3566,
      "▁store": 3567,
      "▁box": 3568,
      "▁discussion": 3569,
      "▁frust": 3570,
      "prol": 3571,
      "wide": 3572,
      "rative": 3573,
      "bted": 3574,
      "proliferation": 3575,
      "uable": 3576,
      "▁resist": 3577,
      "▁concert": 3578,
      "ulations": 3579,
      "▁carried": 3580,
      "▁sudan": 3581,
      "▁advantage": 3582,
      "uting": 3583,
      "▁exch": 3584,
      "▁technical": 3585,
      "▁egypt": 3586,
      "▁provisions": 3587,
      "▁coexistence": 3588,
      "▁mandate": 3589,
      "ira": 3590,
      "▁music": 3591,
      "▁healthy": 3592,
      "▁killed": 3593,
      "▁ball": 3594,
      "▁friendship": 3595,
      "▁encouraging": 3596,
      "▁adequ": 3597,
      "▁underta": 3598,
      "▁historical": 3599,
      "▁ben": 3600,
      "▁equally": 3601,
      "▁survival": 3602,
      "▁detail": 3603,
      "▁consult": 3604,
      "▁wis": 3605,
      "▁establishing": 3606,
      "ctors": 3607,
      "▁accepted": 3608,
      "che": 3609,
      "▁sold": 3610,
      "▁oau": 3611,
      "▁attitude": 3612,
      "▁demonstrated": 3613,
      "▁farm": 3614,
      "▁online": 3615,
      "▁extent": 3616,
      "▁clean": 3617,
      "ata": 3618,
      "▁seeking": 3619,
      "▁daddy": 3620,
      "▁germany": 3621,
      "izes": 3622,
      "▁gross": 3623,
      "▁rh": 3624,
      "▁innocent": 3625,
      "▁divers": 3626,
      "▁racial": 3627,
      "▁pursue": 3628,
      "▁factors": 3629,
      "cif": 3630,
      "▁disease": 3631,
      "▁services": 3632,
      "occ": 3633,
      "▁hy": 3634,
      "▁pled": 3635,
      "▁lif": 3636,
      "▁eyes": 3637,
      "▁gold": 3638,
      "▁bilateral": 3639,
      "anna": 3640,
      "▁advoc": 3641,
      "▁applic": 3642,
      "▁evil": 3643,
      "rust": 3644,
      "▁batt": 3645,
      "▁acqu": 3646,
      "▁motiv": 3647,
      "▁oct": 3648,
      "▁mic": 3649,
      "▁dog": 3650,
      "▁choose": 3651,
      "▁bir": 3652,
      "▁noble": 3653,
      "▁chair": 3654,
      "ching": 3655,
      "▁minute": 3656,
      "gue": 3657,
      "alys": 3658,
      "▁changing": 3659,
      "▁scale": 3660,
      "▁hunger": 3661,
      "ground": 3662,
      "▁fish": 3663,
      "▁biggest": 3664,
      "▁cop": 3665,
      "▁delay": 3666,
      "rant": 3667,
      "▁deter": 3668,
      "time": 3669,
      "▁cease": 3670,
      "mos": 3671,
      "▁table": 3672,
      "▁heavy": 3673,
      "▁adjust": 3674,
      "ervation": 3675,
      "akistan": 3676,
      "▁base": 3677,
      "▁cross": 3678,
      "▁stable": 3679,
      "▁imposed": 3680,
      "▁ended": 3681,
      "▁scientific": 3682,
      "▁liby": 3683,
      "▁concerning": 3684,
      "▁reconst": 3685,
      "▁plat": 3686,
      "uals": 3687,
      "▁blue": 3688,
      "▁financing": 3689,
      "▁factor": 3690,
      "▁fem": 3691,
      "▁mentioned": 3692,
      "▁enormous": 3693,
      "called": 3694,
      "▁jump": 3695,
      "▁tragedy": 3696,
      "▁pattern": 3697,
      "▁excited": 3698,
      "coming": 3699,
      "▁genev": 3700,
      "▁repeated": 3701,
      "ball": 3702,
      "▁jan": 3703,
      "▁furthermore": 3704,
      "▁realized": 3705,
      "▁possibility": 3706,
      "▁sn": 3707,
      "imbab": 3708,
      "imbabwe": 3709,
      "ancing": 3710,
      "▁pakistan": 3711,
      "▁tor": 3712,
      "▁jes": 3713,
      "anim": 3714,
      "▁gap": 3715,
      "▁zimbabwe": 3716,
      "▁geneva": 3717,
      "▁syria": 3718,
      "▁language": 3719,
      "▁wast": 3720,
      "▁adapt": 3721,
      "year": 3722,
      "▁dot": 3723,
      "▁scour": 3724,
      "▁sam": 3725,
      "▁dollar": 3726,
      "▁rein": 3727,
      "▁zero": 3728,
      "▁domination": 3729,
      "▁lu": 3730,
      "▁complic": 3731,
      "▁mexic": 3732,
      "▁shut": 3733,
      "▁arrange": 3734,
      "▁content": 3735,
      "▁indian": 3736,
      "acc": 3737,
      "▁altern": 3738,
      "▁symp": 3739,
      "▁shoot": 3740,
      "▁meetings": 3741,
      "▁je": 3742,
      "▁quality": 3743,
      "nex": 3744,
      "▁recovery": 3745,
      "pped": 3746,
      "▁produce": 3747,
      "▁politics": 3748,
      "▁irre": 3749,
      "ken": 3750,
      "▁fix": 3751,
      "rain": 3752,
      "▁exploitation": 3753,
      "▁gulf": 3754,
      "▁bott": 3755,
      "▁assume": 3756,
      "▁meant": 3757,
      "▁moved": 3758,
      "▁payment": 3759,
      "▁surpr": 3760,
      "▁accomplish": 3761,
      "▁sil": 3762,
      "▁resum": 3763,
      "▁usually": 3764,
      "▁fields": 3765,
      "▁stated": 3766,
      "▁products": 3767,
      "▁safeguard": 3768,
      "▁cy": 3769,
      "▁damn": 3770,
      "▁capable": 3771,
      "vey": 3772,
      "etary": 3773,
      "▁himself": 3774,
      "▁massive": 3775,
      "▁violations": 3776,
      "▁honour": 3777,
      "▁code": 3778,
      "▁lies": 3779,
      "back": 3780,
      "▁tough": 3781,
      "▁rates": 3782,
      "▁france": 3783,
      "▁comedy": 3784,
      "▁quote": 3785,
      "▁interview": 3786,
      "orate": 3787,
      "ober": 3788,
      "iff": 3789,
      "▁data": 3790,
      "mental": 3791,
      "▁kept": 3792,
      "▁physical": 3793,
      "▁fruit": 3794,
      "▁privile": 3795,
      "▁straight": 3796,
      "▁behavior": 3797,
      "▁ethnic": 3798,
      "erb": 3799,
      "▁proceed": 3800,
      "develop": 3801,
      "▁prevention": 3802,
      "▁constitutes": 3803,
      "▁stories": 3804,
      "▁commod": 3805,
      "▁represents": 3806,
      "oria": 3807,
      "▁max": 3808,
      "▁writing": 3809,
      "▁grant": 3810,
      "▁dram": 3811,
      "▁injust": 3812,
      "▁weight": 3813,
      "▁anxiety": 3814,
      "▁negotiation": 3815,
      "▁expression": 3816,
      "▁core": 3817,
      "lusive": 3818,
      "▁visit": 3819,
      "▁contributions": 3820,
      "erves": 3821,
      "▁property": 3822,
      "▁crit": 3823,
      "▁eventually": 3824,
      "yle": 3825,
      "▁daugh": 3826,
      "▁hundreds": 3827,
      "▁persons": 3828,
      "▁closer": 3829,
      "▁defense": 3830,
      "▁forg": 3831,
      "hib": 3832,
      "▁october": 3833,
      "▁ongoing": 3834,
      "usal": 3835,
      "▁setting": 3836,
      "▁cate": 3837,
      "▁providing": 3838,
      "powers": 3839,
      "▁item": 3840,
      "▁followed": 3841,
      "men": 3842,
      "▁sides": 3843,
      "▁practices": 3844,
      "▁investig": 3845,
      "▁unanim": 3846,
      "▁lie": 3847,
      "aint": 3848,
      "▁weren": 3849,
      "▁structures": 3850,
      "lim": 3851,
      "▁tack": 3852,
      "▁conviction": 3853,
      "gies": 3854,
      "▁administration": 3855,
      "▁racism": 3856,
      "▁specif": 3857,
      "force": 3858,
      "ites": 3859,
      "▁foundation": 3860,
      "▁holy": 3861,
      "▁atmos": 3862,
      "aced": 3863,
      "▁categ": 3864,
      "▁laws": 3865,
      "mar": 3866,
      "theless": 3867,
      "ding": 3868,
      "▁lines": 3869,
      "lev": 3870,
      "▁preserve": 3871,
      "▁thousand": 3872,
      "ighth": 3873,
      "▁necessarily": 3874,
      "▁linked": 3875,
      "▁proliferation": 3876,
      "▁implemented": 3877,
      "▁announ": 3878,
      "▁lived": 3879,
      "▁fulfill": 3880,
      "▁mig": 3881,
      "▁jew": 3882,
      "▁recall": 3883,
      "▁nevertheless": 3884,
      "▁books": 3885,
      "▁honestly": 3886,
      "▁wisdom": 3887,
      "▁violation": 3888,
      "▁hoc": 3889,
      "▁vig": 3890,
      "▁monetary": 3891,
      "▁brit": 3892,
      "▁birth": 3893,
      "▁plans": 3894,
      "▁december": 3895,
      "vid": 3896,
      "▁organized": 3897,
      "▁attacks": 3898,
      "▁fasc": 3899,
      "▁interdependence": 3900,
      "▁measure": 3901,
      "▁sector": 3902,
      "▁student": 3903,
      "▁involve": 3904,
      "antic": 3905,
      "▁inequ": 3906,
      "▁sixty": 3907,
      "▁asian": 3908,
      "▁trafficking": 3909,
      "▁improvement": 3910,
      "▁hero": 3911,
      "▁outstanding": 3912,
      "▁jobs": 3913,
      "rating": 3914,
      "▁kinds": 3915,
      "▁travel": 3916,
      "▁profession": 3917,
      "▁beat": 3918,
      "▁speech": 3919,
      "▁town": 3920,
      "▁addressing": 3921,
      "▁track": 3922,
      "▁advice": 3923,
      "ructure": 3924,
      "▁spent": 3925,
      "▁moreover": 3926,
      "▁feed": 3927,
      "others": 3928,
      "▁distrib": 3929,
      "avid": 3930,
      "▁somewhere": 3931,
      "ellig": 3932,
      "▁university": 3933,
      "▁deserve": 3934,
      "▁chap": 3935,
      "▁insane": 3936,
      "ches": 3937,
      "▁contemp": 3938,
      "▁block": 3939,
      "▁bomb": 3940,
      "▁imposs": 3941,
      "▁insurance": 3942,
      "▁numer": 3943,
      "iger": 3944,
      "ifying": 3945,
      "▁laugh": 3946,
      "▁request": 3947,
      "▁unc": 3948,
      "▁cambodia": 3949,
      "▁insp": 3950,
      "▁bos": 3951,
      "▁useful": 3952,
      "▁ku": 3953,
      "▁reconstruction": 3954,
      "ping": 3955,
      "urs": 3956,
      "▁prospects": 3957,
      "▁mine": 3958,
      "▁worry": 3959,
      "▁acce": 3960,
      "▁traditional": 3961,
      "▁enab": 3962,
      "▁jam": 3963,
      "▁adam": 3964,
      "▁devast": 3965,
      "▁atmosphere": 3966,
      "▁helping": 3967,
      "▁freedoms": 3968,
      "▁covid": 3969,
      "▁loan": 3970,
      "whel": 3971,
      "▁intellig": 3972,
      "ril": 3973,
      "▁activity": 3974,
      "▁palestinians": 3975,
      "▁flag": 3976,
      "▁bol": 3977,
      "▁intention": 3978,
      "oon": 3979,
      "making": 3980,
      "▁cry": 3981,
      "mm": 3982,
      "▁parl": 3983,
      "▁rom": 3984,
      "isl": 3985,
      "▁ran": 3986,
      "▁overwhel": 3987,
      "▁strengthened": 3988,
      "▁restore": 3989,
      "▁comfort": 3990,
      "▁religion": 3991,
      "▁argument": 3992,
      "▁humankind": 3993,
      "▁campa": 3994,
      "▁born": 3995,
      "▁coff": 3996,
      "▁experienced": 3997,
      "▁sick": 3998,
      "ala": 3999,
      "▁comprom": 4000,
      "▁consistent": 4001,
      "▁fill": 4002,
      "▁conscious": 4003,
      "▁unpre": 4004,
      "▁geograph": 4005,
      "▁embar": 4006,
      "level": 4007,
      "▁spite": 4008,
      "verage": 4009,
      "▁infrast": 4010,
      "▁rost": 4011,
      "▁helped": 4012,
      "▁contrary": 4013,
      "▁starts": 4014,
      "▁incredible": 4015,
      "▁retire": 4016,
      "gence": 4017,
      "▁positions": 4018,
      "iers": 4019,
      "▁dig": 4020,
      "▁numerous": 4021,
      "▁overall": 4022,
      "▁destiny": 4023,
      "▁article": 4024,
      "▁bosn": 4025,
      "▁frat": 4026,
      "▁nut": 4027,
      "▁2": 4028,
      "roc": 4029,
      "▁rams": 4030,
      "▁devoted": 4031,
      "▁campaign": 4032,
      "▁design": 4033,
      "erson": 4034,
      "▁wake": 4035,
      "▁spot": 4036,
      "bing": 4037,
      "how": 4038,
      "econom": 4039,
      "▁eliminate": 4040,
      "▁investing": 4041,
      "▁marri": 4042,
      "▁impossible": 4043,
      "▁stick": 4044,
      "▁admission": 4045,
      "▁theory": 4046,
      "▁indisp": 4047,
      "▁club": 4048,
      "▁reading": 4049,
      "uay": 4050,
      "▁prison": 4051,
      "▁opening": 4052,
      "gar": 4053,
      "▁obstacles": 4054,
      "▁rostrum": 4055,
      "▁additional": 4056,
      "▁represented": 4057,
      "▁valuable": 4058,
      "▁eating": 4059,
      "▁chad": 4060,
      "▁substantial": 4061,
      "▁namely": 4062,
      "▁chan": 4063,
      "▁witnessed": 4064,
      "mitted": 4065,
      "▁closely": 4066,
      "▁coach": 4067,
      "▁provides": 4068,
      "▁procl": 4069,
      "▁bul": 4070,
      "▁spons": 4071,
      "▁harmony": 4072,
      "▁walking": 4073,
      "govern": 4074,
      "▁favorite": 4075,
      "agram": 4076,
      "▁individuals": 4077,
      "▁bang": 4078,
      "▁brut": 4079,
      "▁popular": 4080,
      "▁arch": 4081,
      "cedented": 4082,
      "▁resolved": 4083,
      "▁eastern": 4084,
      "▁decisive": 4085,
      "▁authorities": 4086,
      "▁murder": 4087,
      "▁austral": 4088,
      "▁inev": 4089,
      "▁unprecedented": 4090,
      "▁braz": 4091,
      "▁addressed": 4092,
      "▁dism": 4093,
      "▁suffered": 4094,
      "▁otherwise": 4095,
      "alysis": 4096,
      "▁author": 4097,
      "▁range": 4098,
      "▁apparent": 4099,
      "▁internet": 4100,
      "astrop": 4101,
      "▁failed": 4102,
      "▁severe": 4103,
      "▁encouraged": 4104,
      "▁placed": 4105,
      "▁loved": 4106,
      "▁mechanism": 4107,
      "▁liberal": 4108,
      "uary": 4109,
      "▁minim": 4110,
      "▁institutional": 4111,
      "▁neighbours": 4112,
      "▁catastrop": 4113,
      "▁saf": 4114,
      "▁rw": 4115,
      "▁minority": 4116,
      "▁gree": 4117,
      "unk": 4118,
      "▁cuba": 4119,
      "▁option": 4120,
      "▁apply": 4121,
      "▁coffee": 4122,
      "▁guid": 4123,
      "▁assure": 4124,
      "▁instagram": 4125,
      "▁meaningful": 4126,
      "▁blow": 4127,
      "▁generation": 4128,
      "▁engaged": 4129,
      "▁gas": 4130,
      "▁instruments": 4131,
      "▁fift": 4132,
      "▁reun": 4133,
      "ston": 4134,
      "▁neither": 4135,
      "▁contro": 4136,
      "▁rational": 4137,
      "▁companies": 4138,
      "my": 4139,
      "▁realization": 4140,
      "▁song": 4141,
      "▁mexico": 4142,
      "▁processes": 4143,
      "▁narc": 4144,
      "▁tun": 4145,
      "▁standing": 4146,
      "▁april": 4147,
      "free": 4148,
      "▁parlia": 4149,
      "▁react": 4150,
      "▁implementing": 4151,
      "▁facts": 4152,
      "▁sources": 4153,
      "▁cust": 4154,
      "▁condition": 4155,
      "erving": 4156,
      "osoph": 4157,
      "▁hal": 4158,
      "▁shock": 4159,
      "▁export": 4160,
      "▁legisl": 4161,
      "▁shouldn": 4162,
      "asing": 4163,
      "aud": 4164,
      "rog": 4165,
      "▁paris": 4166,
      "▁fat": 4167,
      "▁valid": 4168,
      "▁gender": 4169,
      "▁decolon": 4170,
      "▁consequence": 4171,
      "▁died": 4172,
      "▁sahara": 4173,
      "▁brand": 4174,
      "▁pand": 4175,
      "▁kuwa": 4176,
      "ij": 4177,
      "▁belong": 4178,
      "▁philosoph": 4179,
      "▁scene": 4180,
      "▁expectations": 4181,
      "▁sun": 4182,
      "▁tasks": 4183,
      "▁mobil": 4184,
      "economic": 4185,
      "▁leader": 4186,
      "fl": 4187,
      "ingu": 4188,
      "▁awareness": 4189,
      "▁prohib": 4190,
      "▁isol": 4191,
      "itter": 4192,
      "▁strict": 4193,
      "▁personality": 4194,
      "do": 4195,
      "▁pra": 4196,
      "inter": 4197,
      "▁forever": 4198,
      "▁convening": 4199,
      "▁depends": 4200,
      "▁tour": 4201,
      "▁families": 4202,
      "icit": 4203,
      "resh": 4204,
      "▁yester": 4205,
      "▁ultimately": 4206,
      "▁math": 4207,
      "▁exec": 4208,
      "▁priorities": 4209,
      "▁mel": 4210,
      "▁hat": 4211,
      "▁mount": 4212,
      "▁doctor": 4213,
      "▁russia": 4214,
      "▁margin": 4215,
      "▁dispute": 4216,
      "▁marriage": 4217,
      "ulous": 4218,
      "▁consum": 4219,
      "▁bigger": 4220,
      "▁sustained": 4221,
      "▁conventional": 4222,
      "▁haiti": 4223,
      "▁moz": 4224,
      "▁wanna": 4225,
      "▁cand": 4226,
      "▁scourge": 4227,
      "▁driving": 4228,
      "▁medical": 4229,
      "enable": 4230,
      "▁acceptable": 4231,
      "▁savings": 4232,
      "▁bid": 4233,
      "▁chur": 4234,
      "▁attract": 4235,
      "▁evolution": 4236,
      "uel": 4237,
      "uses": 4238,
      "iciency": 4239,
      "▁phenomenon": 4240,
      "▁specifically": 4241,
      "lls": 4242,
      "▁anywhere": 4243,
      "▁arri": 4244,
      "▁maintaining": 4245,
      "▁yesterday": 4246,
      "▁considerable": 4247,
      "▁bought": 4248,
      "right": 4249,
      "▁border": 4250,
      "aff": 4251,
      "▁shar": 4252,
      "▁partner": 4253,
      "▁damage": 4254,
      "oud": 4255,
      "▁therapy": 4256,
      "▁stands": 4257,
      "▁neighbouring": 4258,
      "▁mozamb": 4259,
      "▁alternative": 4260,
      "▁reasonable": 4261,
      "▁mental": 4262,
      "▁standard": 4263,
      "▁application": 4264,
      "▁safety": 4265,
      "▁parliament": 4266,
      "▁adult": 4267,
      "ocol": 4268,
      "▁paper": 4269,
      "ception": 4270,
      "▁joined": 4271,
      "▁stead": 4272,
      "▁kick": 4273,
      "▁forced": 4274,
      "▁quar": 4275,
      "▁speed": 4276,
      "▁proced": 4277,
      "▁laid": 4278,
      "▁discussions": 4279,
      "▁restoration": 4280,
      "▁threaten": 4281,
      "ox": 4282,
      "▁resolute": 4283,
      "▁precise": 4284,
      "▁hung": 4285,
      "▁indispens": 4286,
      "▁size": 4287,
      "chel": 4288,
      "▁turning": 4289,
      "▁md": 4290,
      "▁mi": 4291,
      "rif": 4292,
      "▁older": 4293,
      "ky": 4294,
      "atically": 4295,
      "▁generally": 4296,
      "ya": 4297,
      "▁inali": 4298,
      "▁bes": 4299,
      "▁steve": 4300,
      "▁wise": 4301,
      "▁conserv": 4302,
      "▁instability": 4303,
      "▁cha": 4304,
      "▁aggressive": 4305,
      "▁frag": 4306,
      "▁contract": 4307,
      "▁broke": 4308,
      "een": 4309,
      "hol": 4310,
      "inese": 4311,
      "▁depri": 4312,
      "▁acceler": 4313,
      "▁relief": 4314,
      "▁civilization": 4315,
      "▁pill": 4316,
      "▁corp": 4317,
      "▁bosnia": 4318,
      "▁inalienable": 4319,
      "rench": 4320,
      "▁contributed": 4321,
      "▁ideal": 4322,
      "▁dict": 4323,
      "▁adequate": 4324,
      "▁daughter": 4325,
      "▁indispensable": 4326,
      "▁legitim": 4327,
      "▁iraqi": 4328,
      "▁guide": 4329,
      "▁raise": 4330,
      "▁signing": 4331,
      "▁funds": 4332,
      "▁focused": 4333,
      "hic": 4334,
      "▁decolonization": 4335,
      "▁passed": 4336,
      "cket": 4337,
      "▁congo": 4338,
      "point": 4339,
      "▁structural": 4340,
      "raine": 4341,
      "▁nove": 4342,
      "▁player": 4343,
      "▁hous": 4344,
      "▁excellency": 4345,
      "▁november": 4346,
      "▁root": 4347,
      "▁zion": 4348,
      "▁background": 4349,
      "weap": 4350,
      "▁equity": 4351,
      "▁recommendations": 4352,
      "▁deliberations": 4353,
      "▁alex": 4354,
      "▁loans": 4355,
      "otic": 4356,
      "▁panama": 4357,
      "aur": 4358,
      "▁league": 4359,
      "▁expected": 4360,
      "▁log": 4361,
      "▁industry": 4362,
      "orary": 4363,
      "▁efficient": 4364,
      "▁spending": 4365,
      "▁gift": 4366,
      "▁radical": 4367,
      "▁exchange": 4368,
      "▁reaction": 4369,
      "▁luck": 4370,
      "▁technological": 4371,
      "▁hurt": 4372,
      "▁tradition": 4373,
      "▁merely": 4374,
      "ax": 4375,
      "▁fol": 4376,
      "▁constitutional": 4377,
      "iced": 4378,
      "▁concluded": 4379,
      "▁operation": 4380,
      "fuck": 4381,
      "▁projects": 4382,
      "▁promise": 4383,
      "▁january": 4384,
      "▁injustice": 4385,
      "▁pun": 4386,
      "▁balanced": 4387,
      "▁salv": 4388,
      "▁contain": 4389,
      "astic": 4390,
      "▁infrastructure": 4391,
      "▁centre": 4392,
      "▁sexual": 4393,
      "▁mart": 4394,
      "▁critic": 4395,
      "▁dur": 4396,
      "▁relative": 4397,
      "▁successfully": 4398,
      "▁pursuit": 4399,
      "▁learning": 4400,
      "▁network": 4401,
      "▁machin": 4402,
      "▁imperialism": 4403,
      "▁multiple": 4404,
      "▁depart": 4405,
      "▁dynamic": 4406,
      "era": 4407,
      "lly": 4408,
      "raid": 4409,
      "gun": 4410,
      "▁sports": 4411,
      "▁ukraine": 4412,
      "▁brazil": 4413,
      "▁hyp": 4414,
      "▁hos": 4415,
      "cious": 4416,
      "▁coast": 4417,
      "▁corner": 4418,
      "▁tremend": 4419,
      "▁realistic": 4420,
      "orrow": 4421,
      "▁chapter": 4422,
      "▁favour": 4423,
      "ued": 4424,
      "▁pack": 4425,
      "▁rachel": 4426,
      "▁org": 4427,
      "▁tomorrow": 4428,
      "▁christian": 4429,
      "▁average": 4430,
      "iles": 4431,
      "▁afraid": 4432,
      "▁defence": 4433,
      "▁touch": 4434,
      "▁loc": 4435,
      "▁regimes": 4436,
      "▁types": 4437,
      "▁earn": 4438,
      "▁channel": 4439,
      "south": 4440,
      "▁associated": 4441,
      "▁hol": 4442,
      "▁cars": 4443,
      "▁strange": 4444,
      "▁improving": 4445,
      "mas": 4446,
      "▁oppression": 4447,
      "▁disappoint": 4448,
      "ked": 4449,
      "▁concerted": 4450,
      "itten": 4451,
      "▁threatened": 4452,
      "▁negotiating": 4453,
      "▁pretoria": 4454,
      "▁kuwait": 4455,
      "▁knock": 4456,
      "ourable": 4457,
      "▁began": 4458,
      "▁bah": 4459,
      "▁shop": 4460,
      "▁center": 4461,
      "▁engine": 4462,
      "▁renewed": 4463,
      "▁frank": 4464,
      "fire": 4465,
      "▁lands": 4466,
      "aught": 4467,
      "▁extrem": 4468,
      "▁emphasize": 4469,
      "▁representation": 4470,
      "▁vote": 4471,
      "▁transl": 4472,
      "ago": 4473,
      "▁homeland": 4474,
      "▁concent": 4475,
      "udes": 4476,
      "▁comput": 4477,
      "▁analysis": 4478,
      "▁chile": 4479,
      "▁niger": 4480,
      "▁playoff": 4481,
      "ranean": 4482,
      "like": 4483,
      "▁mozambique": 4484,
      "▁compl": 4485,
      "▁showing": 4486,
      "▁advanced": 4487,
      "▁thoughts": 4488,
      "▁enem": 4489,
      "▁performance": 4490,
      "▁der": 4491,
      "▁socio": 4492,
      "▁ideological": 4493,
      "▁train": 4494,
      "▁selling": 4495,
      "▁significance": 4496,
      "▁received": 4497,
      "▁mas": 4498,
      "lav": 4499,
      "▁arrangements": 4500,
      "▁reh": 4501,
      "▁alarm": 4502,
      "aren": 4503,
      "▁vacc": 4504,
      "▁aids": 4505,
      "▁hair": 4506,
      "rious": 4507,
      "▁rang": 4508,
      "▁disasters": 4509,
      "▁rogan": 4510,
      "▁exam": 4511,
      "▁tolerance": 4512,
      "▁fant": 4513,
      "▁tire": 4514,
      "▁double": 4515,
      "▁street": 4516,
      "▁battle": 4517,
      "kend": 4518,
      "iterranean": 4519,
      "▁hosp": 4520,
      "ille": 4521,
      "▁showed": 4522,
      "▁emerging": 4523,
      "▁principal": 4524,
      "▁distur": 4525,
      "will": 4526,
      "▁movements": 4527,
      "▁universality": 4528,
      "▁negotiated": 4529,
      "▁diplomacy": 4530,
      "▁obligation": 4531,
      "▁fresh": 4532,
      "▁stream": 4533,
      "▁brings": 4534,
      "▁david": 4535,
      "arag": 4536,
      "▁highlight": 4537,
      "▁glad": 4538,
      "▁dick": 4539,
      "iving": 4540,
      "▁mc": 4541,
      "▁supporting": 4542,
      "▁board": 4543,
      "▁weekend": 4544,
      "▁exists": 4545,
      "▁elected": 4546,
      "▁trouble": 4547,
      "liance": 4548,
      "▁conferences": 4549,
      "▁brothers": 4550,
      "▁nicarag": 4551,
      "▁raised": 4552,
      "itious": 4553,
      "▁tex": 4554,
      "▁ren": 4555,
      "hr": 4556,
      "▁mich": 4557,
      "▁regrett": 4558,
      "▁portugal": 4559,
      "▁sectors": 4560,
      "book": 4561,
      "▁compe": 4562,
      "pping": 4563,
      "oral": 4564,
      "▁worried": 4565,
      "▁founding": 4566,
      "▁prompt": 4567,
      "ugos": 4568,
      "▁aus": 4569,
      "▁od": 4570,
      "▁implic": 4571,
      "▁acting": 4572,
      "▁motherfuck": 4573,
      "ugoslav": 4574,
      "▁insec": 4575,
      "▁complicated": 4576,
      "▁inflation": 4577,
      "▁saint": 4578,
      "▁integrated": 4579,
      "▁judge": 4580,
      "▁yugoslav": 4581,
      "▁necessity": 4582,
      "▁folks": 4583,
      "▁jade": 4584,
      "▁imb": 4585,
      "▁phot": 4586,
      "char": 4587,
      "▁neut": 4588,
      "▁escal": 4589,
      "▁machinery": 4590,
      "▁teams": 4591,
      "▁killing": 4592,
      "▁disaster": 4593,
      "▁prove": 4594,
      "▁methods": 4595,
      "▁twitter": 4596,
      "ationally": 4597,
      "▁atl": 4598,
      "▁easier": 4599,
      "inc": 4600,
      "▁convey": 4601,
      "▁materials": 4602,
      "▁arma": 4603,
      "▁morocc": 4604,
      "▁dangers": 4605,
      "▁neighbor": 4606,
      "▁pandemic": 4607,
      "▁monit": 4608,
      "ruption": 4609,
      "▁mediterranean": 4610,
      "that": 4611,
      "▁washing": 4612,
      "ateful": 4613,
      "▁coordin": 4614,
      "▁uns": 4615,
      "▁imperialist": 4616,
      "▁church": 4617,
      "▁armaments": 4618,
      "ida": 4619,
      "▁impose": 4620,
      "▁protocol": 4621,
      "▁gar": 4622,
      "▁secondly": 4623,
      "▁versus": 4624,
      "▁uncertain": 4625,
      "iring": 4626,
      "▁treatment": 4627,
      "▁marked": 4628,
      "▁retirement": 4629,
      "▁nav": 4630,
      "▁protest": 4631,
      "▁declared": 4632,
      "▁acknowledge": 4633,
      "▁thereby": 4634,
      "▁transformation": 4635,
      "▁suffer": 4636,
      "▁employ": 4637,
      "▁vit": 4638,
      "▁legitimacy": 4639,
      "lock": 4640,
      "ernal": 4641,
      "with": 4642,
      "▁foundations": 4643,
      "▁association": 4644,
      "▁mouth": 4645,
      "▁whenever": 4646,
      "▁stopped": 4647,
      "etic": 4648,
      "▁shape": 4649,
      "▁wherever": 4650,
      "▁norms": 4651,
      "▁distingu": 4652,
      "▁aband": 4653,
      "els": 4654,
      "▁custom": 4655,
      "▁supre": 4656,
      "ordination": 4657,
      "▁tv": 4658,
      "irms": 4659,
      "▁opened": 4660,
      "▁watched": 4661,
      "▁division": 4662,
      "▁greatly": 4663,
      "▁tremendous": 4664,
      "▁gh": 4665,
      "▁flor": 4666,
      "▁ausp": 4667,
      "▁ties": 4668,
      "▁harmon": 4669,
      "▁eye": 4670,
      "▁determine": 4671,
      "▁gotten": 4672,
      "▁lots": 4673,
      "▁separate": 4674,
      "▁whom": 4675,
      "▁described": 4676,
      "▁rwanda": 4677,
      "▁wear": 4678,
      "oked": 4679,
      "▁estate": 4680,
      "▁finance": 4681,
      "▁dar": 4682,
      "▁waiting": 4683,
      "▁facilitate": 4684,
      "▁experiences": 4685,
      "▁sched": 4686,
      "▁reunification": 4687,
      "weapon": 4688,
      "ologies": 4689,
      "▁willingness": 4690,
      "▁knowing": 4691,
      "▁settle": 4692,
      "▁costs": 4693,
      "▁boundaries": 4694,
      "▁conscience": 4695,
      "▁burund": 4696,
      "▁alle": 4697,
      "▁victory": 4698,
      "▁vietn": 4699,
      "▁australia": 4700,
      "▁coh": 4701,
      "▁feet": 4702,
      "▁innov": 4703,
      "cont": 4704,
      "▁weapon": 4705,
      "▁populations": 4706,
      "▁jesus": 4707,
      "inth": 4708,
      "▁fal": 4709,
      "athy": 4710,
      "▁agricultural": 4711,
      "▁welcomed": 4712,
      "▁ug": 4713,
      "▁helps": 4714,
      "cb": 4715,
      "▁jack": 4716,
      "▁frequ": 4717,
      "raint": 4718,
      "▁rout": 4719,
      "▁entit": 4720,
      "▁dumb": 4721,
      "▁argent": 4722,
      "▁ath": 4723,
      "▁spect": 4724,
      "atem": 4725,
      "▁fit": 4726,
      "▁excellent": 4727,
      "▁hence": 4728,
      "▁alive": 4729,
      "ushing": 4730,
      "▁hunt": 4731,
      "▁pu": 4732,
      "▁players": 4733,
      "▁homes": 4734,
      "▁raw": 4735,
      "isation": 4736,
      "▁guatem": 4737,
      "▁subreg": 4738,
      "▁overwhelming": 4739,
      "▁unilateral": 4740,
      "▁lebanese": 4741,
      "▁remark": 4742,
      "ray": 4743,
      "▁conclude": 4744,
      "eighth": 4745,
      "▁owe": 4746,
      "▁indic": 4747,
      "▁journ": 4748,
      "onia": 4749,
      "▁magn": 4750,
      "▁elsewhere": 4751,
      "▁grateful": 4752,
      "iest": 4753,
      "ris": 4754,
      "ows": 4755,
      "▁regards": 4756,
      "▁chinese": 4757,
      "▁phase": 4758,
      "▁turkey": 4759,
      "▁version": 4760,
      "▁respected": 4761,
      "rep": 4762,
      "▁french": 4763,
      "▁carrying": 4764,
      "▁predict": 4765,
      "▁dating": 4766,
      "▁bitch": 4767,
      "▁distin": 4768,
      "olved": 4769,
      "▁written": 4770,
      "▁restrict": 4771,
      "▁nearly": 4772,
      "▁contributing": 4773,
      "▁gren": 4774,
      "war": 4775,
      "▁genoc": 4776,
      "▁regardless": 4777,
      "▁bru": 4778,
      "essed": 4779,
      "ips": 4780,
      "▁signs": 4781,
      "▁traum": 4782,
      "▁brid": 4783,
      "▁wood": 4784,
      "▁intel": 4785,
      "▁flex": 4786,
      "load": 4787,
      "▁creative": 4788,
      "▁tonight": 4789,
      "▁consistently": 4790,
      "▁boliv": 4791,
      "abilities": 4792,
      "▁resolving": 4793,
      "bre": 4794,
      "▁stronger": 4795,
      "▁personally": 4796,
      "▁comment": 4797,
      "▁productive": 4798,
      "▁turk": 4799,
      "▁fifth": 4800,
      "▁congress": 4801,
      "▁explos": 4802,
      "▁progressive": 4803,
      "▁violent": 4804,
      "▁cuz": 4805,
      "▁ministers": 4806,
      "▁lower": 4807,
      "▁army": 4808,
      "▁diversity": 4809,
      "▁emotion": 4810,
      "▁bottom": 4811,
      "▁sought": 4812,
      "▁parag": 4813,
      "▁washington": 4814,
      "▁burundi": 4815,
      "▁volunt": 4816,
      "▁testing": 4817,
      "▁platform": 4818,
      "rav": 4819,
      "iop": 4820,
      "▁maur": 4821,
      "▁scope": 4822,
      "▁civilian": 4823,
      "▁momentum": 4824,
      "down": 4825,
      "▁figh": 4826,
      "▁tests": 4827,
      "▁guided": 4828,
      "lin": 4829,
      "▁abuse": 4830,
      "▁launched": 4831,
      "state": 4832,
      "▁aspect": 4833,
      "thew": 4834,
      "▁trip": 4835,
      "▁liberia": 4836,
      "▁begun": 4837,
      "ham": 4838,
      "▁proved": 4839,
      "▁map": 4840,
      "▁purch": 4841,
      "▁receive": 4842,
      "▁dan": 4843,
      "urally": 4844,
      "▁rock": 4845,
      "▁matthew": 4846,
      "▁score": 4847,
      "▁struggling": 4848,
      "▁strategies": 4849,
      "▁penal": 4850,
      "▁biden": 4851,
      "▁ord": 4852,
      "▁scared": 4853,
      "▁uphold": 4854,
      "▁esc": 4855,
      "▁skin": 4856,
      "governmental": 4857,
      "▁timor": 4858,
      "▁easily": 4859,
      "▁payments": 4860,
      "▁multilateralism": 4861,
      "▁restruct": 4862,
      "ids": 4863,
      "▁sacrifice": 4864,
      "▁deterioration": 4865,
      "af": 4866,
      "▁ow": 4867,
      "icks": 4868,
      "▁condemned": 4869,
      "essions": 4870,
      "▁prem": 4871,
      "fif": 4872,
      "stood": 4873,
      "agn": 4874,
      "insula": 4875,
      "▁taxes": 4876,
      "▁mont": 4877,
      "▁revital": 4878,
      "▁shift": 4879,
      "▁attend": 4880,
      "▁peninsula": 4881,
      "▁grenad": 4882,
      "▁seconds": 4883,
      "▁ethiop": 4884,
      "▁students": 4885,
      "ita": 4886,
      "▁poore": 4887,
      "▁unemp": 4888,
      "ship": 4889,
      "cons": 4890,
      "▁relating": 4891,
      "▁reducing": 4892,
      "▁spain": 4893,
      "▁pressing": 4894,
      "▁sincerely": 4895,
      "fifth": 4896,
      "▁proof": 4897,
      "▁chris": 4898,
      "▁inj": 4899,
      "▁reve": 4900,
      "▁internationally": 4901,
      "▁complement": 4902,
      "▁improved": 4903,
      "usalem": 4904,
      "▁fing": 4905,
      "▁gotta": 4906,
      "▁libya": 4907,
      "▁din": 4908,
      "▁deserves": 4909,
      "▁boys": 4910,
      "▁requirements": 4911,
      "▁biological": 4912,
      "▁memory": 4913,
      "▁demonstrate": 4914,
      "▁similarly": 4915,
      "▁poll": 4916,
      "▁truck": 4917,
      "▁jerusalem": 4918,
      "▁athlet": 4919,
      "▁journal": 4920,
      "▁studies": 4921,
      "▁ambass": 4922,
      "▁joke": 4923,
      "▁attainment": 4924,
      "uries": 4925,
      "▁tireless": 4926,
      "▁auspices": 4927,
      "wan": 4928,
      "▁unjust": 4929,
      "▁goods": 4930,
      "▁herz": 4931,
      "▁possibly": 4932,
      "▁hockey": 4933,
      "▁scen": 4934,
      "▁emerged": 4935,
      "▁journey": 4936,
      "▁xx": 4937,
      "icing": 4938,
      "▁larger": 4939,
      "▁pub": 4940,
      "▁skills": 4941,
      "▁professional": 4942,
      "▁emotional": 4943,
      "ville": 4944,
      "▁brief": 4945,
      "▁extraordin": 4946,
      "entieth": 4947,
      "▁horrible": 4948,
      "▁intellect": 4949,
      "▁gath": 4950,
      "iling": 4951,
      "▁dischar": 4952,
      "▁sixth": 4953,
      "▁conducted": 4954,
      "uman": 4955,
      "ounds": 4956,
      "development": 4957,
      "▁mdgs": 4958,
      "▁pride": 4959,
      "▁endeavour": 4960,
      "▁stabil": 4961,
      "▁adh": 4962,
      "egov": 4963,
      "gra": 4964,
      "▁opposed": 4965,
      "▁resulting": 4966,
      "▁reaching": 4967,
      "▁allevi": 4968,
      "egovina": 4969,
      "▁arrest": 4970,
      "▁videos": 4971,
      "▁schools": 4972,
      "▁offers": 4973,
      "▁benefic": 4974,
      "▁timely": 4975,
      "▁offered": 4976,
      "▁reflected": 4977,
      "oubted": 4978,
      "▁forgot": 4979,
      "▁clic": 4980,
      "▁matt": 4981,
      "▁brutal": 4982,
      "▁precisely": 4983,
      "▁undoubted": 4984,
      "▁resistance": 4985,
      "▁sufficient": 4986,
      "▁claims": 4987,
      "▁herzegovina": 4988,
      "bi": 4989,
      "cul": 4990,
      "▁tai": 4991,
      "sen": 4992,
      "▁enshr": 4993,
      "▁narrative": 4994,
      "▁sharing": 4995,
      "▁letter": 4996,
      "▁tan": 4997,
      "▁deliver": 4998,
      "lies": 4999,
      "usion": 5000,
      "▁leads": 5001,
      "▁destabil": 5002,
      "▁salvador": 5003,
      "▁bloody": 5004,
      "▁animal": 5005,
      "rick": 5006,
      "▁barri": 5007,
      "▁pursued": 5008,
      "▁resort": 5009,
      "▁efficiency": 5010,
      "▁caught": 5011,
      "▁subscrib": 5012,
      "▁distribution": 5013,
      "▁entitled": 5014,
      "ds": 5015,
      "▁veto": 5016,
      "lined": 5017,
      "ager": 5018,
      "▁largest": 5019,
      "▁famous": 5020,
      "▁franc": 5021,
      "ishing": 5022,
      "▁buying": 5023,
      "▁options": 5024,
      "▁slash": 5025,
      "▁chaos": 5026,
      "▁cup": 5027,
      "▁annex": 5028,
      "▁symb": 5029,
      "fact": 5030,
      "▁remo": 5031,
      "▁planning": 5032,
      "what": 5033,
      "▁collab": 5034,
      "▁connected": 5035,
      "mod": 5036,
      "▁yugoslavia": 5037,
      "mn": 5038,
      "▁imbal": 5039,
      "▁morocco": 5040,
      "▁recip": 5041,
      "▁vene": 5042,
      "▁feelings": 5043,
      "shit": 5044,
      "te": 5045,
      "▁heal": 5046,
      "▁leaf": 5047,
      "▁audience": 5048,
      "▁experts": 5049,
      "▁inspired": 5050,
      "▁candid": 5051,
      "▁cards": 5052,
      "vis": 5053,
      "▁leaving": 5054,
      "▁utmost": 5055,
      "▁taiwan": 5056,
      "bon": 5057,
      "▁stake": 5058,
      "▁tic": 5059,
      "▁nicaragua": 5060,
      "▁herit": 5061,
      "▁terrorists": 5062,
      "▁credibility": 5063,
      "eared": 5064,
      "▁tools": 5065,
      "▁dotcom": 5066,
      "▁ire": 5067,
      "▁narrow": 5068,
      "▁soph": 5069,
      "▁jun": 5070,
      "▁nerv": 5071,
      "▁rough": 5072,
      "▁defe": 5073,
      "ortion": 5074,
      "▁cooperate": 5075,
      "▁gang": 5076,
      "▁prior": 5077,
      "▁urg": 5078,
      "▁participating": 5079,
      "▁theme": 5080,
      "▁painful": 5081,
      "▁florida": 5082,
      "▁happiness": 5083,
      "▁viable": 5084,
      "▁ends": 5085,
      "▁female": 5086,
      "▁heritage": 5087,
      "iforn": 5088,
      "▁characterized": 5089,
      "▁grew": 5090,
      "▁twel": 5091,
      "▁californ": 5092,
      "▁produced": 5093,
      "▁abandon": 5094,
      "▁wed": 5095,
      "▁organs": 5096,
      "▁nervous": 5097,
      "▁hege": 5098,
      "▁affirm": 5099,
      "▁cast": 5100,
      "▁submitted": 5101,
      "▁competition": 5102,
      "▁tang": 5103,
      "▁vill": 5104,
      "▁disag": 5105,
      "▁dedication": 5106,
      "▁expensive": 5107,
      "▁absence": 5108,
      "▁aside": 5109,
      "▁champ": 5110,
      "▁definition": 5111,
      "uls": 5112,
      "▁proclaim": 5113,
      "▁ambassador": 5114,
      "emen": 5115,
      "▁urgently": 5116,
      "▁obtain": 5117,
      "▁muslim": 5118,
      "▁consolidate": 5119,
      "▁alban": 5120,
      "▁apparently": 5121,
      "▁noted": 5122,
      "ander": 5123,
      "ipe": 5124,
      "▁resulted": 5125,
      "▁namibian": 5126,
      "▁undoubtedly": 5127,
      "▁permit": 5128,
      "▁flu": 5129,
      "▁ridic": 5130,
      "▁california": 5131,
      "▁losing": 5132,
      "▁coal": 5133,
      "▁release": 5134,
      "▁upset": 5135,
      "▁stuck": 5136,
      "▁urgency": 5137,
      "oler": 5138,
      "▁leaves": 5139,
      "▁freely": 5140,
      "▁aims": 5141,
      "llar": 5142,
      "▁spoke": 5143,
      "ein": 5144,
      "▁solving": 5145,
      "▁pointed": 5146,
      "icious": 5147,
      "you": 5148,
      "▁taught": 5149,
      "▁symbol": 5150,
      "▁bout": 5151,
      "ignment": 5152,
      "▁ireland": 5153,
      "▁sen": 5154,
      "▁bind": 5155,
      "cend": 5156,
      "▁lady": 5157,
      "▁comments": 5158,
      "▁bases": 5159,
      "▁unp": 5160,
      "iev": 5161,
      "▁pursuing": 5162,
      "▁burn": 5163,
      "▁puts": 5164,
      "accept": 5165,
      "hl": 5166,
      "▁trading": 5167,
      "power": 5168,
      "▁cro": 5169,
      "▁broken": 5170,
      "▁oppos": 5171,
      "▁agriculture": 5172,
      "▁replace": 5173,
      "▁compromise": 5174,
      "▁defined": 5175,
      "▁lessons": 5176,
      "▁az": 5177,
      "▁specialized": 5178,
      "▁opposition": 5179,
      "▁primarily": 5180,
      "▁zones": 5181,
      "▁possibilities": 5182,
      "ufact": 5183,
      "zuel": 5184,
      "▁saved": 5185,
      "▁survive": 5186,
      "▁british": 5187,
      "▁presented": 5188,
      "▁ignore": 5189,
      "▁restructuring": 5190,
      "olutions": 5191,
      "▁seventh": 5192,
      "▁directed": 5193,
      "▁bullshit": 5194,
      "▁fans": 5195,
      "▁rand": 5196,
      "ronting": 5197,
      "▁maintained": 5198,
      "▁affecting": 5199,
      "▁inhab": 5200,
      "▁waste": 5201,
      "▁duties": 5202,
      "▁russian": 5203,
      "▁venezuel": 5204,
      "ties": 5205,
      "▁si": 5206,
      "▁acceptance": 5207,
      "▁reduced": 5208,
      "▁neur": 5209,
      "▁plays": 5210,
      "▁coup": 5211,
      "▁expend": 5212,
      "▁seemed": 5213,
      "▁intoler": 5214,
      "▁agency": 5215,
      "issions": 5216,
      "▁supply": 5217,
      "▁dreams": 5218,
      "arency": 5219,
      "▁jur": 5220,
      "▁lock": 5221,
      "▁relax": 5222,
      "▁discussed": 5223,
      "▁preventing": 5224,
      "▁zeal": 5225,
      "▁involvement": 5226,
      "amese": 5227,
      "▁publish": 5228,
      "▁meat": 5229,
      "▁guarantees": 5230,
      "▁politic": 5231,
      "imp": 5232,
      "rous": 5233,
      "▁americans": 5234,
      "▁turns": 5235,
      "▁forums": 5236,
      "▁transparency": 5237,
      "▁fruitful": 5238,
      "▁blind": 5239,
      "▁moments": 5240,
      "▁fake": 5241,
      "iet": 5242,
      "▁hello": 5243,
      "▁thinks": 5244,
      "▁hopefully": 5245,
      "▁embra": 5246,
      "▁handle": 5247,
      "▁applied": 5248,
      "▁commodities": 5249,
      "▁endeavours": 5250,
      "▁ble": 5251,
      "eds": 5252,
      "▁outset": 5253,
      "▁annual": 5254,
      "▁communication": 5255,
      "▁remarkable": 5256,
      "▁discip": 5257,
      "▁ramsay": 5258,
      "▁manufact": 5259,
      "▁understood": 5260,
      "des": 5261,
      "national": 5262,
      "▁iv": 5263,
      "▁drew": 5264,
      "▁brian": 5265,
      "▁guatemala": 5266,
      "mark": 5267,
      "▁faces": 5268,
      "▁restaur": 5269,
      "▁genocide": 5270,
      "istics": 5271,
      "▁adverse": 5272,
      "▁missing": 5273,
      "ater": 5274,
      "oured": 5275,
      "▁intr": 5276,
      "▁extended": 5277,
      "▁fate": 5278,
      "▁revolutionary": 5279,
      "▁ase": 5280,
      "▁scre": 5281,
      "▁careful": 5282,
      "▁georg": 5283,
      "▁functioning": 5284,
      "resp": 5285,
      "▁diss": 5286,
      "▁stressed": 5287,
      "▁seat": 5288,
      "▁evident": 5289,
      "▁terrif": 5290,
      "▁served": 5291,
      "aire": 5292,
      "ior": 5293,
      "▁conce": 5294,
      "▁added": 5295,
      "▁empow": 5296,
      "▁consolidation": 5297,
      "▁gosh": 5298,
      "▁miles": 5299,
      "▁catch": 5300,
      "▁dimension": 5301,
      "▁entirely": 5302,
      "▁patri": 5303,
      "▁properly": 5304,
      "▁immense": 5305,
      "▁hearing": 5306,
      "▁durable": 5307,
      "▁scary": 5308,
      "▁email": 5309,
      "▁limits": 5310,
      "▁smaller": 5311,
      "▁enshrined": 5312,
      "▁unaccept": 5313,
      "▁eradication": 5314,
      "vest": 5315,
      "▁contrad": 5316,
      "▁invasion": 5317,
      "▁indo": 5318,
      "▁preced": 5319,
      "▁summer": 5320,
      "▁original": 5321,
      "▁prohibition": 5322,
      "▁yield": 5323,
      "▁forest": 5324,
      "▁northern": 5325,
      "issau": 5326,
      "▁util": 5327,
      "▁optimism": 5328,
      "▁fiftieth": 5329,
      "▁youth": 5330,
      "▁pretend": 5331,
      "▁rhodes": 5332,
      "▁drought": 5333,
      "▁instance": 5334,
      "▁match": 5335,
      "▁syrian": 5336,
      "apse": 5337,
      "▁protecting": 5338,
      "▁drinking": 5339,
      "▁uni": 5340,
      "▁ending": 5341,
      "▁unanimous": 5342,
      "▁foremost": 5343,
      "▁unemployment": 5344,
      "▁unbel": 5345,
      "▁mutually": 5346,
      "▁undertaking": 5347,
      "▁uncond": 5348,
      "▁indones": 5349,
      "enses": 5350,
      "▁considers": 5351,
      "irt": 5352,
      "▁unequ": 5353,
      "archy": 5354,
      "▁hiv": 5355,
      "▁vigor": 5356,
      "▁narciss": 5357,
      "ture": 5358,
      "▁male": 5359,
      "pal": 5360,
      "▁desert": 5361,
      "▁q": 5362,
      "▁intelligence": 5363,
      "▁qualities": 5364,
      "inent": 5365,
      "vered": 5366,
      "ronic": 5367,
      "▁treaties": 5368,
      "▁false": 5369,
      "▁opposite": 5370,
      "zz": 5371,
      "▁bow": 5372,
      "▁sup": 5373,
      "▁identify": 5374,
      "ients": 5375,
      "▁somehow": 5376,
      "▁alleg": 5377,
      "▁arbit": 5378,
      "▁ticket": 5379,
      "▁yemen": 5380,
      "▁destructive": 5381,
      "overed": 5382,
      "▁intense": 5383,
      "▁civilians": 5384,
      "▁parad": 5385,
      "▁figured": 5386,
      "▁brill": 5387,
      "▁conversations": 5388,
      "ael": 5389,
      "ob": 5390,
      "▁trial": 5391,
      "▁minds": 5392,
      "▁honor": 5393,
      "▁francis": 5394,
      "▁unbeliev": 5395,
      "leman": 5396,
      "▁grown": 5397,
      "ambia": 5398,
      "▁dimensions": 5399,
      "vin": 5400,
      "▁bare": 5401,
      "▁reference": 5402,
      "comm": 5403,
      "regard": 5404,
      "▁trends": 5405,
      "ially": 5406,
      "ted": 5407,
      "▁wearing": 5408,
      "▁interp": 5409,
      "▁paul": 5410,
      "▁page": 5411,
      "▁ii": 5412,
      "▁fought": 5413,
      "▁contained": 5414,
      "▁younger": 5415,
      "▁destroyed": 5416,
      "bur": 5417,
      "▁mediation": 5418,
      "▁latest": 5419,
      "▁aggress": 5420,
      "▁texas": 5421,
      "ario": 5422,
      "bid": 5423,
      "cs": 5424,
      "gment": 5425,
      "▁strive": 5426,
      "▁asean": 5427,
      "▁acad": 5428,
      "▁repeat": 5429,
      "jan": 5430,
      "▁illicit": 5431,
      "alu": 5432,
      "lades": 5433,
      "uous": 5434,
      "▁chat": 5435,
      "▁transport": 5436,
      "▁tit": 5437,
      "▁nhl": 5438,
      "▁select": 5439,
      "▁confronting": 5440,
      "▁founded": 5441,
      "ino": 5442,
      "▁liqu": 5443,
      "opard": 5444,
      "▁fortun": 5445,
      "▁assessment": 5446,
      "▁jamie": 5447,
      "iar": 5448,
      "▁dedicated": 5449,
      "▁sessions": 5450,
      "▁keeps": 5451,
      "▁risks": 5452,
      "▁christmas": 5453,
      "▁unacceptable": 5454,
      "▁goog": 5455,
      "▁medium": 5456,
      "▁universe": 5457,
      "▁ai": 5458,
      "▁rio": 5459,
      "▁os": 5460,
      "▁annan": 5461,
      "▁toront": 5462,
      "▁islam": 5463,
      "ault": 5464,
      "▁ast": 5465,
      "enna": 5466,
      "▁threatening": 5467,
      "▁arena": 5468,
      "▁crow": 5469,
      "▁enjoyed": 5470,
      "▁animals": 5471,
      "▁mostly": 5472,
      "▁cultures": 5473,
      "▁undertake": 5474,
      "▁marginal": 5475,
      "▁kos": 5476,
      "▁unable": 5477,
      "▁preservation": 5478,
      "▁globe": 5479,
      "▁tackle": 5480,
      "▁rival": 5481,
      "▁color": 5482,
      "▁toronto": 5483,
      "ule": 5484,
      "▁humans": 5485,
      "▁rare": 5486,
      "▁worldwide": 5487,
      "▁ethiopia": 5488,
      "▁statements": 5489,
      "▁reflects": 5490,
      "ipping": 5491,
      "▁rangers": 5492,
      "rates": 5493,
      "▁blah": 5494,
      "▁embark": 5495,
      "▁diseases": 5496,
      "▁choices": 5497,
      "▁undermin": 5498,
      "▁mike": 5499,
      "▁ideology": 5500,
      "▁ridiculous": 5501,
      "▁hond": 5502,
      "▁jeopard": 5503,
      "▁tcb": 5504,
      "▁fascin": 5505,
      "▁provision": 5506,
      "ladesh": 5507,
      "▁manip": 5508,
      "▁charge": 5509,
      "▁define": 5510,
      "while": 5511,
      "▁fri": 5512,
      "▁lift": 5513,
      "▁conservative": 5514,
      "▁hanging": 5515,
      "inary": 5516,
      "▁enforce": 5517,
      "▁span": 5518,
      "▁rapidly": 5519,
      "▁displaced": 5520,
      "west": 5521,
      "▁plo": 5522,
      "▁preventive": 5523,
      "▁vehic": 5524,
      "▁yep": 5525,
      "▁psychological": 5526,
      "▁cycle": 5527,
      "enous": 5528,
      "▁emergence": 5529,
      "▁distinguished": 5530,
      "▁faster": 5531,
      "▁click": 5532,
      "▁illust": 5533,
      "▁disregard": 5534,
      "▁denied": 5535,
      "▁inhabit": 5536,
      "eed": 5537,
      "▁entrust": 5538,
      "▁naturally": 5539,
      "▁spok": 5540,
      "▁endors": 5541,
      "▁canadian": 5542,
      "ught": 5543,
      "alities": 5544,
      "▁unres": 5545,
      "▁corruption": 5546,
      "▁band": 5547,
      "▁undermine": 5548,
      "▁decent": 5549,
      "loving": 5550,
      "▁advent": 5551,
      "▁obser": 5552,
      "▁staff": 5553,
      "▁brilliant": 5554,
      "road": 5555,
      "cient": 5556,
      "▁accident": 5557,
      "▁breaking": 5558,
      "▁pure": 5559,
      "▁mos": 5560,
      "▁mistake": 5561,
      "▁maxim": 5562,
      "▁welf": 5563,
      "▁shel": 5564,
      "▁welfare": 5565,
      "friend": 5566,
      "▁image": 5567,
      "▁readiness": 5568,
      "ariat": 5569,
      "order": 5570,
      "▁vac": 5571,
      "▁fell": 5572,
      "▁tells": 5573,
      "▁bangladesh": 5574,
      "▁zionist": 5575,
      "▁cities": 5576,
      "url": 5577,
      "▁justify": 5578,
      "▁workers": 5579,
      "▁solved": 5580,
      "▁assumed": 5581,
      "▁twelve": 5582,
      "▁mit": 5583,
      "▁vot": 5584,
      "▁winning": 5585,
      "▁degrad": 5586,
      "la": 5587,
      "▁hill": 5588,
      "▁fellow": 5589,
      "▁slo": 5590,
      "▁movies": 5591,
      "▁quarter": 5592,
      "urate": 5593,
      "▁spiritual": 5594,
      "▁combating": 5595,
      "bru": 5596,
      "▁fly": 5597,
      "etus": 5598,
      "▁coordination": 5599,
      "▁wider": 5600,
      "▁kosov": 5601,
      "▁hmm": 5602,
      "ald": 5603,
      "▁compliance": 5604,
      "▁recover": 5605,
      "hel": 5606,
      "▁ki": 5607,
      "▁param": 5608,
      "▁shoulder": 5609,
      "▁construction": 5610,
      "▁aggrav": 5611,
      "▁sorts": 5612,
      "nes": 5613,
      "itably": 5614,
      "▁stem": 5615,
      "▁arsen": 5616,
      "▁divided": 5617,
      "▁colleag": 5618,
      "▁enterpr": 5619,
      "▁roll": 5620,
      "▁minimum": 5621,
      "▁mountain": 5622,
      "▁colomb": 5623,
      "▁delic": 5624,
      "▁insist": 5625,
      "▁notion": 5626,
      "▁fraternal": 5627,
      "▁expendit": 5628,
      "▁functions": 5629,
      "▁prevailing": 5630,
      "bruary": 5631,
      "▁deeper": 5632,
      "▁missions": 5633,
      "▁gay": 5634,
      "▁decline": 5635,
      "▁sand": 5636,
      "▁webs": 5637,
      "▁kof": 5638,
      "▁resource": 5639,
      "▁acute": 5640,
      "▁consequently": 5641,
      "▁broader": 5642,
      "▁communic": 5643,
      "▁shame": 5644,
      "▁personnel": 5645,
      "▁conventions": 5646,
      "▁transparent": 5647,
      "bled": 5648,
      "eneg": 5649,
      "▁inherent": 5650,
      "▁conform": 5651,
      "▁divor": 5652,
      "▁reaffirmed": 5653,
      "ounce": 5654,
      "▁floor": 5655,
      "▁managed": 5656,
      "▁february": 5657,
      "uese": 5658,
      "▁devastating": 5659,
      "▁zealand": 5660,
      "▁urug": 5661,
      "▁height": 5662,
      "▁uruguay": 5663,
      "▁gaz": 5664,
      "osen": 5665,
      "▁enhanced": 5666,
      "▁insecurity": 5667,
      "▁vietnamese": 5668,
      "▁juris": 5669,
      "▁secretariat": 5670,
      "▁kofi": 5671,
      "▁wondering": 5672,
      "▁impetus": 5673,
      "▁appe": 5674,
      "▁susp": 5675,
      "▁sac": 5676,
      "▁philosophy": 5677,
      "▁dinner": 5678,
      "▁threatens": 5679,
      "▁formula": 5680,
      "▁radio": 5681,
      "▁geographical": 5682,
      "▁bath": 5683,
      "▁includes": 5684,
      "▁wonderful": 5685,
      "▁len": 5686,
      "▁plant": 5687,
      "▁pool": 5688,
      "▁bond": 5689,
      "▁portuguese": 5690,
      "▁alliance": 5691,
      "▁catastrophe": 5692,
      "▁guest": 5693,
      "▁occurred": 5694,
      "▁pace": 5695,
      "rams": 5696,
      "▁examples": 5697,
      "▁procedures": 5698,
      "▁beneficial": 5699,
      "eable": 5700,
      "▁sphere": 5701,
      "▁apple": 5702,
      "▁collapse": 5703,
      "▁imped": 5704,
      "▁grab": 5705,
      "▁computer": 5706,
      "ologically": 5707,
      "▁adjustment": 5708,
      "▁master": 5709,
      "▁embargo": 5710,
      "real": 5711,
      "▁murd": 5712,
      "▁google": 5713,
      "▁barbad": 5714,
      "▁repeatedly": 5715,
      "▁comfortable": 5716,
      "▁uf": 5717,
      "agon": 5718,
      "▁puck": 5719,
      "arted": 5720,
      "▁harder": 5721,
      "ils": 5722,
      "quar": 5723,
      "▁remove": 5724,
      "▁scar": 5725,
      "▁warmly": 5726,
      "▁acknowled": 5727,
      "▁argentina": 5728,
      "▁drawn": 5729,
      "▁experiencing": 5730,
      "▁sweet": 5731,
      "▁thri": 5732,
      "▁notice": 5733,
      "lfriend": 5734,
      "▁prosperous": 5735,
      "▁persistent": 5736,
      "▁bon": 5737,
      "▁vib": 5738,
      "▁accompan": 5739,
      "amas": 5740,
      "▁pray": 5741,
      "▁intended": 5742,
      "▁sacrifices": 5743,
      "▁scream": 5744,
      "▁medic": 5745,
      "eu": 5746,
      "▁italy": 5747,
      "▁excuse": 5748,
      "▁favourable": 5749,
      "▁interpret": 5750,
      "ls": 5751,
      "▁cas": 5752,
      "▁james": 5753,
      "▁privilege": 5754,
      "▁contemporary": 5755,
      "third": 5756,
      "▁compon": 5757,
      "▁ecu": 5758,
      "oms": 5759,
      "ole": 5760,
      "▁solemn": 5761,
      "▁percentage": 5762,
      "▁covered": 5763,
      "ierra": 5764,
      "▁prepare": 5765,
      "▁appoint": 5766,
      "▁supreme": 5767,
      "using": 5768,
      "▁inspir": 5769,
      "▁implications": 5770,
      "▁tight": 5771,
      "▁fle": 5772,
      "antly": 5773,
      "▁elab": 5774,
      "▁bills": 5775,
      "▁reverse": 5776,
      "stan": 5777,
      "▁entered": 5778,
      "▁extension": 5779,
      "tok": 5780,
      "▁democratization": 5781,
      "▁sensitive": 5782,
      "▁liquid": 5783,
      "▁ecuador": 5784,
      "six": 5785,
      "▁bob": 5786,
      "▁celebrate": 5787,
      "house": 5788,
      "▁peru": 5789,
      "▁clin": 5790,
      "▁nato": 5791,
      "▁venezuela": 5792,
      "cho": 5793,
      "ressing": 5794,
      "▁twice": 5795,
      "▁dealt": 5796,
      "▁cow": 5797,
      "▁forthcoming": 5798,
      "▁farmers": 5799,
      "rees": 5800,
      "▁disagree": 5801,
      "▁hondur": 5802,
      "kn": 5803,
      "cription": 5804,
      "▁barbados": 5805,
      "▁elev": 5806,
      "▁envis": 5807,
      "haust": 5808,
      "▁africans": 5809,
      "▁accordingly": 5810,
      "▁curious": 5811,
      "▁boutros": 5812,
      "part": 5813,
      "▁ours": 5814,
      "▁negotiate": 5815,
      "▁investments": 5816,
      "▁announced": 5817,
      "▁indonesia": 5818,
      "▁balk": 5819,
      "▁sight": 5820,
      "▁sierra": 5821,
      "▁attaches": 5822,
      "▁kosovo": 5823,
      "▁authent": 5824,
      "▁hoping": 5825,
      "▁calm": 5826,
      "▁chick": 5827,
      "quis": 5828,
      "▁fantastic": 5829,
      "help": 5830,
      "▁chosen": 5831,
      "▁barriers": 5832,
      "▁emphasis": 5833,
      "▁flows": 5834,
      "▁targets": 5835,
      "▁bitter": 5836,
      "▁greet": 5837,
      "▁reaffirms": 5838,
      "▁eradicate": 5839,
      "▁michael": 5840,
      "▁atlantic": 5841,
      "▁download": 5842,
      "▁dependent": 5843,
      "▁jurisd": 5844,
      "ores": 5845,
      "under": 5846,
      "▁exert": 5847,
      "▁continuation": 5848,
      "▁resolutely": 5849,
      "▁exports": 5850,
      "▁sophistic": 5851,
      "▁tu": 5852,
      "▁fij": 5853,
      "illy": 5854,
      "▁rhodesia": 5855,
      "quarters": 5856,
      "▁entry": 5857,
      "▁vienna": 5858,
      "rants": 5859,
      "▁fuel": 5860,
      "▁leone": 5861,
      "▁remaining": 5862,
      "▁referred": 5863,
      "▁earnest": 5864,
      "aled": 5865,
      "▁et": 5866,
      "▁indebted": 5867,
      "yal": 5868,
      "second": 5869,
      "ryan": 5870,
      "▁equip": 5871,
      "▁tangible": 5872,
      "▁indig": 5873,
      "▁desper": 5874,
      "operate": 5875,
      "▁competence": 5876,
      "▁georgia": 5877,
      "ourse": 5878,
      "▁refere": 5879,
      "▁bold": 5880,
      "asions": 5881,
      "locked": 5882,
      "80s": 5883,
      "▁cogn": 5884,
      "▁lesson": 5885,
      "▁bag": 5886,
      "ailand": 5887,
      "heres": 5888,
      "▁construct": 5889,
      "▁depression": 5890,
      "▁girlfriend": 5891,
      "▁perpetu": 5892,
      "▁whereas": 5893,
      "▁approaches": 5894,
      "▁centuries": 5895,
      "ninth": 5896,
      "oy": 5897,
      "▁hasn": 5898,
      "ba": 5899,
      "▁onto": 5900,
      "▁criter": 5901,
      "utive": 5902,
      "▁excess": 5903,
      "omy": 5904,
      "▁suck": 5905,
      "▁links": 5906,
      "mission": 5907,
      "▁inclusive": 5908,
      "▁hatred": 5909,
      "▁dramatic": 5910,
      "▁headquarters": 5911,
      "▁believed": 5912,
      "▁reports": 5913,
      "▁combined": 5914,
      "fast": 5915,
      "▁nin": 5916,
      "▁settlements": 5917,
      "▁causing": 5918,
      "▁significantly": 5919,
      "▁thailand": 5920,
      "▁included": 5921,
      "▁electric": 5922,
      "▁fragile": 5923,
      "ulating": 5924,
      "▁sla": 5925,
      "▁trigg": 5926,
      "▁immune": 5927,
      "▁chairman": 5928,
      "▁department": 5929,
      "▁extraordinary": 5930,
      "▁outer": 5931,
      "▁confronted": 5932,
      "▁lend": 5933,
      "▁freaking": 5934,
      "▁stim": 5935,
      "▁moves": 5936,
      "▁possess": 5937,
      "▁hospital": 5938,
      "▁website": 5939,
      "lar": 5940,
      "pass": 5941,
      "▁notes": 5942,
      "▁expenses": 5943,
      "▁rejected": 5944,
      "▁entrusted": 5945,
      "▁tast": 5946,
      "▁marsh": 5947,
      "▁tik": 5948,
      "▁ky": 5949,
      "▁uncom": 5950,
      "▁twentieth": 5951,
      "▁inequality": 5952,
      "▁belize": 5953,
      "▁autom": 5954,
      "▁guidance": 5955,
      "lines": 5956,
      "▁cancer": 5957,
      "▁closed": 5958,
      "ki": 5959,
      "▁admit": 5960,
      "▁interact": 5961,
      "▁walked": 5962,
      "▁appears": 5963,
      "orating": 5964,
      "▁concepts": 5965,
      "ctr": 5966,
      "▁falling": 5967,
      "ipped": 5968,
      "▁dying": 5969,
      "▁penalty": 5970,
      "ius": 5971,
      "pper": 5972,
      "▁wanting": 5973,
      "▁allows": 5974,
      "▁mix": 5975,
      "▁observ": 5976,
      "cohol": 5977,
      "▁glass": 5978,
      "known": 5979,
      "▁underlying": 5980,
      "▁oppressed": 5981,
      "▁generous": 5982,
      "▁posed": 5983,
      "▁alien": 5984,
      "▁pledge": 5985,
      "cive": 5986,
      "▁ancient": 5987,
      "▁worthy": 5988,
      "▁punish": 5989,
      "▁mong": 5990,
      "▁asp": 5991,
      "▁finish": 5992,
      "face": 5993,
      "▁joy": 5994,
      "▁plane": 5995,
      "▁rising": 5996,
      "▁indigenous": 5997,
      "itative": 5998,
      "lands": 5999,
      "▁advis": 6000,
      "▁bahamas": 6001,
      "▁turkish": 6002,
      "orated": 6003,
      "bert": 6004,
      "▁holds": 6005,
      "wealth": 6006,
      "▁disappear": 6007,
      "sixth": 6008,
      "▁tiktok": 6009,
      "ih": 6010,
      "▁compass": 6011,
      "▁participated": 6012,
      "▁largely": 6013,
      "aijan": 6014,
      "erbaijan": 6015,
      "▁initiated": 6016,
      "▁allowing": 6017,
      "▁hoped": 6018,
      "▁francisco": 6019,
      "vation": 6020,
      "▁joining": 6021,
      "▁conducive": 6022,
      "alle": 6023,
      "omon": 6024,
      "▁launch": 6025,
      "▁relatively": 6026,
      "▁honey": 6027,
      "▁consp": 6028,
      "▁commissioner": 6029,
      "▁perfectly": 6030,
      "▁sd": 6031,
      "enced": 6032,
      "▁endang": 6033,
      "▁switch": 6034,
      "ider": 6035,
      "▁grenada": 6036,
      "▁collectively": 6037,
      "▁plural": 6038,
      "▁giant": 6039,
      "▁whe": 6040,
      "▁compared": 6041,
      "ucks": 6042,
      "▁authentic": 6043,
      "▁habit": 6044,
      "amin": 6045,
      "▁alcohol": 6046,
      "▁tact": 6047,
      "▁episodes": 6048,
      "▁inhabitants": 6049,
      "cou": 6050,
      "head": 6051,
      "opol": 6052,
      "urt": 6053,
      "▁rightly": 6054,
      "▁confirm": 6055,
      "▁exception": 6056,
      "iracy": 6057,
      "▁ber": 6058,
      "▁pretext": 6059,
      "▁goodwill": 6060,
      "▁hole": 6061,
      "▁guaranteed": 6062,
      "▁random": 6063,
      "idal": 6064,
      "▁owners": 6065,
      "asm": 6066,
      "▁solomon": 6067,
      "▁emerge": 6068,
      "▁allies": 6069,
      "▁bolivia": 6070,
      "▁smith": 6071,
      "▁curren": 6072,
      "▁exciting": 6073,
      "▁limitation": 6074,
      "▁virus": 6075,
      "▁pose": 6076,
      "▁hind": 6077,
      "ounded": 6078,
      "place": 6079,
      "four": 6080,
      "▁cook": 6081,
      "▁actors": 6082,
      "▁diet": 6083,
      "▁jail": 6084,
      "▁poland": 6085,
      "▁respective": 6086,
      "▁commonwealth": 6087,
      "▁patterns": 6088,
      "osis": 6089,
      "▁quant": 6090,
      "▁pulled": 6091,
      "▁temper": 6092,
      "ctad": 6093,
      "▁kh": 6094,
      "▁exhaust": 6095,
      "▁businesses": 6096,
      "▁azerbaijan": 6097,
      "▁enemy": 6098,
      "▁tired": 6099,
      "well": 6100,
      "▁jewish": 6101,
      "▁pushing": 6102,
      "bell": 6103,
      "▁financially": 6104,
      "▁affects": 6105,
      "▁comed": 6106,
      "▁coleman": 6107,
      "couver": 6108,
      "jud": 6109,
      "▁pv": 6110,
      "icip": 6111,
      "▁cloth": 6112,
      "▁mali": 6113,
      "▁film": 6114,
      "▁reflection": 6115,
      "lusions": 6116,
      "▁gy": 6117,
      "▁entertain": 6118,
      "▁kenya": 6119,
      "▁lank": 6120,
      "▁soil": 6121,
      "▁boyfriend": 6122,
      "▁vancouver": 6123,
      "▁peacefully": 6124,
      "▁serving": 6125,
      "▁scientists": 6126,
      "▁malta": 6127,
      "▁embod": 6128,
      "break": 6129,
      "▁intellectual": 6130,
      "▁du": 6131,
      "▁appeals": 6132,
      "▁hier": 6133,
      "▁los": 6134,
      "▁hem": 6135,
      "▁compar": 6136,
      "▁witnessing": 6137,
      "▁apartment": 6138,
      "▁inevitable": 6139,
      "▁legislation": 6140,
      "▁sri": 6141,
      "▁punch": 6142,
      "▁moon": 6143,
      "ultane": 6144,
      "▁politically": 6145,
      "nings": 6146,
      "ashed": 6147,
      "▁trauma": 6148,
      "▁liked": 6149,
      "▁mast": 6150,
      "▁fault": 6151,
      "▁confirmed": 6152,
      "▁seeks": 6153,
      "▁triple": 6154,
      "▁deny": 6155,
      "▁camera": 6156,
      "mony": 6157,
      "▁spl": 6158,
      "▁simultane": 6159,
      "▁delegations": 6160,
      "▁subjected": 6161,
      "pread": 6162,
      "▁ca": 6163,
      "▁remained": 6164,
      "▁accounts": 6165,
      "▁hypoth": 6166,
      "▁jurisdiction": 6167,
      "ano": 6168,
      "▁command": 6169,
      "▁surround": 6170,
      "put": 6171,
      "▁tear": 6172,
      "▁guard": 6173,
      "▁underdevelopment": 6174,
      "acerb": 6175,
      "pn": 6176,
      "pea": 6177,
      "▁unctad": 6178,
      "▁exacerb": 6179,
      "▁colombia": 6180,
      "▁mongol": 6181,
      "bissau": 6182,
      "cia": 6183,
      "▁interaction": 6184,
      "emb": 6185,
      "▁twe": 6186,
      "▁evalu": 6187,
      "▁swed": 6188,
      "▁inher": 6189,
      "▁hilar": 6190,
      "▁lad": 6191,
      "▁propag": 6192,
      "▁rehabil": 6193,
      "front": 6194,
      "▁blame": 6195,
      "▁enhancing": 6196,
      "▁machine": 6197,
      "▁till": 6198,
      "▁profess": 6199,
      "▁missed": 6200,
      "▁cypri": 6201,
      "▁describe": 6202,
      "world": 6203,
      "▁subscribe": 6204,
      "▁hilarious": 6205,
      "based": 6206,
      "▁soft": 6207,
      "▁prere": 6208,
      "▁integral": 6209,
      "▁gains": 6210,
      "▁consciousness": 6211,
      "▁reward": 6212,
      "▁fundamentally": 6213,
      "▁papua": 6214,
      "▁snow": 6215,
      "▁fab": 6216,
      "▁hardly": 6217,
      "▁comor": 6218,
      "▁awful": 6219,
      "itudes": 6220,
      "▁telev": 6221,
      "▁debts": 6222,
      "▁topic": 6223,
      "▁passion": 6224,
      "▁cell": 6225,
      "▁toward": 6226,
      "▁init": 6227,
      "▁shares": 6228,
      "▁ambitious": 6229,
      "▁breath": 6230,
      "▁disturbing": 6231,
      "gas": 6232,
      "▁teaching": 6233,
      "▁fiji": 6234,
      "▁hes": 6235,
      "ung": 6236,
      "osity": 6237,
      "▁halt": 6238,
      "▁approx": 6239,
      "▁prerequis": 6240,
      "▁thirdly": 6241,
      "▁mask": 6242,
      "▁dry": 6243,
      "▁jim": 6244,
      "▁protected": 6245,
      "▁uganda": 6246,
      "ican": 6247,
      "▁restored": 6248,
      "▁austin": 6249,
      "▁sophisticated": 6250,
      "▁initial": 6251,
      "▁square": 6252,
      "▁details": 6253,
      "▁incident": 6254,
      "▁idi": 6255,
      "▁exclusive": 6256,
      "▁austri": 6257,
      "rition": 6258,
      "▁donor": 6259,
      "idespread": 6260,
      "▁documents": 6261,
      "▁matthews": 6262,
      "fty": 6263,
      "via": 6264,
      "▁partly": 6265,
      "▁civilizations": 6266,
      "▁answers": 6267,
      "▁binding": 6268,
      "umph": 6269,
      "cel": 6270,
      "▁boston": 6271,
      "▁playoffs": 6272,
      "akh": 6273,
      "▁condemnation": 6274,
      "▁consultations": 6275,
      "▁greek": 6276,
      "▁removed": 6277,
      "ocation": 6278,
      "▁satisfact": 6279,
      "▁widespread": 6280,
      "▁fascinating": 6281,
      "▁arrog": 6282,
      "minent": 6283,
      "▁triumph": 6284,
      "▁window": 6285,
      "▁lanka": 6286,
      "▁likewise": 6287,
      "▁estim": 6288,
      "gor": 6289,
      "▁spring": 6290,
      "▁creates": 6291,
      "▁extremism": 6292,
      "▁assuming": 6293,
      "▁sme": 6294,
      "▁toxic": 6295,
      "▁species": 6296,
      "▁surely": 6297,
      "▁breathing": 6298,
      "▁iron": 6299,
      "▁lou": 6300,
      "▁whoa": 6301,
      "▁subsequ": 6302,
      "ashion": 6303,
      "▁driven": 6304,
      "▁stockp": 6305,
      "ka": 6306,
      "▁crowd": 6307,
      "▁sacred": 6308,
      "ndum": 6309,
      "▁spheres": 6310,
      "▁supplement": 6311,
      "cers": 6312,
      "itate": 6313,
      "▁employment": 6314,
      "▁podcasts": 6315,
      "▁programs": 6316,
      "▁sympathy": 6317,
      "▁discharge": 6318,
      "bia": 6319,
      "moon": 6320,
      "▁mir": 6321,
      "▁loves": 6322,
      "oo": 6323,
      "▁considering": 6324,
      "▁cess": 6325,
      "▁convened": 6326,
      "▁iranian": 6327,
      "▁shots": 6328,
      "▁rejection": 6329,
      "interference": 6330,
      "▁jose": 6331,
      "▁tunis": 6332,
      "sev": 6333,
      "▁agent": 6334,
      "▁offensive": 6335,
      "▁striving": 6336,
      "▁genuinely": 6337,
      "▁items": 6338,
      "▁referendum": 6339,
      "▁involving": 6340,
      "▁liberty": 6341,
      "rence": 6342,
      "adow": 6343,
      "▁swap": 6344,
      "▁deloney": 6345,
      "▁anxious": 6346,
      "▁intim": 6347,
      "▁missiles": 6348,
      "▁migration": 6349,
      "▁complain": 6350,
      "▁occasions": 6351,
      "▁angry": 6352,
      "▁mitig": 6353,
      "issy": 6354,
      "▁transitional": 6355,
      "▁challenging": 6356,
      "▁named": 6357,
      "▁administrative": 6358,
      "▁poorest": 6359,
      "▁spoken": 6360,
      "oil": 6361,
      "▁likes": 6362,
      "▁mag": 6363,
      "aching": 6364,
      "▁resumption": 6365,
      "▁honduras": 6366,
      "▁saud": 6367,
      "▁detect": 6368,
      "▁housing": 6369,
      "▁equipment": 6370,
      "kin": 6371,
      "orse": 6372,
      "fourth": 6373,
      "▁fights": 6374,
      "▁producer": 6375,
      "▁commodity": 6376,
      "▁television": 6377,
      "seventh": 6378,
      "vak": 6379,
      "▁cab": 6380,
      "ondon": 6381,
      "▁selfish": 6382,
      "▁hurric": 6383,
      "▁chain": 6384,
      "▁spare": 6385,
      "▁assert": 6386,
      "▁lawy": 6387,
      "▁flagrant": 6388,
      "▁cessation": 6389,
      "▁magic": 6390,
      "▁deployment": 6391,
      "▁runs": 6392,
      "▁hostilities": 6393,
      "▁thor": 6394,
      "▁shap": 6395,
      "▁encouragement": 6396,
      "▁gaza": 6397,
      "▁sucks": 6398,
      "▁announce": 6399,
      "▁fighters": 6400,
      "▁incor": 6401,
      "▁capabilities": 6402,
      "itect": 6403,
      "▁evol": 6404,
      "▁legacy": 6405,
      "▁sharp": 6406,
      "▁screen": 6407,
      "▁noticed": 6408,
      "▁ethical": 6409,
      "▁compassion": 6410,
      "▁london": 6411,
      "▁attrib": 6412,
      "▁boom": 6413,
      "▁architect": 6414,
      "▁greece": 6415,
      "▁entity": 6416,
      "▁phones": 6417,
      "▁porn": 6418,
      "orter": 6419,
      "▁horiz": 6420,
      "▁nigeria": 6421,
      "ume": 6422,
      "▁exemp": 6423,
      "▁sav": 6424,
      "▁sport": 6425,
      "▁flight": 6426,
      "▁advancement": 6427,
      "za": 6428,
      "▁bat": 6429,
      "▁stood": 6430,
      "▁exposed": 6431,
      "▁perce": 6432,
      "▁decre": 6433,
      "▁multi": 6434,
      "▁dimin": 6435,
      "airo": 6436,
      "▁distinction": 6437,
      "▁unconditional": 6438,
      "eded": 6439,
      "▁barely": 6440,
      "ologist": 6441,
      "▁essence": 6442,
      "▁escalation": 6443,
      "pa": 6444,
      "▁carbon": 6445,
      "▁transcend": 6446,
      "▁park": 6447,
      "▁wol": 6448,
      "▁wrest": 6449,
      "▁tob": 6450,
      "▁quit": 6451,
      "▁admitted": 6452,
      "▁slight": 6453,
      "▁considerations": 6454,
      "▁sending": 6455,
      "▁therapist": 6456,
      "▁dynam": 6457,
      "▁neutral": 6458,
      "▁degradation": 6459,
      "90s": 6460,
      "▁wing": 6461,
      "▁prefer": 6462,
      "ictions": 6463,
      "▁prospect": 6464,
      "▁succeeded": 6465,
      "▁gut": 6466,
      "▁doctr": 6467,
      "▁soul": 6468,
      "▁flood": 6469,
      "repren": 6470,
      "0th": 6471,
      "▁depl": 6472,
      "▁alt": 6473,
      "▁betterhelp": 6474,
      "▁recognizes": 6475,
      "▁released": 6476,
      "▁potentially": 6477,
      "▁bless": 6478,
      "▁traffic": 6479,
      "▁sake": 6480,
      "▁accom": 6481,
      "▁carol": 6482,
      "▁approved": 6483,
      "▁sale": 6484,
      "▁fashion": 6485,
      "▁misery": 6486,
      "▁enabled": 6487,
      "aked": 6488,
      "▁communist": 6489,
      "▁heroic": 6490,
      "▁assured": 6491,
      "▁teacher": 6492,
      "▁intentions": 6493,
      "▁entrepren": 6494,
      "▁ange": 6495,
      "▁deploy": 6496,
      "▁contacts": 6497,
      "▁advocate": 6498,
      "▁croat": 6499,
      "cause": 6500,
      "▁foster": 6501,
      "▁criteria": 6502,
      "americ": 6503,
      "elines": 6504,
      "▁dismant": 6505,
      "▁harmonious": 6506,
      "▁nether": 6507,
      "▁logic": 6508,
      "▁style": 6509,
      "▁extensive": 6510,
      "gging": 6511,
      "▁emissions": 6512,
      "▁sugar": 6513,
      "licted": 6514,
      "▁traditions": 6515,
      "related": 6516,
      "▁length": 6517,
      "▁connex": 6518,
      "▁feat": 6519,
      "▁hopeful": 6520,
      "▁argue": 6521,
      "▁category": 6522,
      "▁dump": 6523,
      "▁plight": 6524,
      "▁unfortunate": 6525,
      "▁ignor": 6526,
      "▁4": 6527,
      "ocal": 6528,
      "▁accum": 6529,
      "▁distance": 6530,
      "esty": 6531,
      "▁grav": 6532,
      "▁eliminating": 6533,
      "▁bridge": 6534,
      "▁purchase": 6535,
      "▁horn": 6536,
      "▁alger": 6537,
      "▁somewhat": 6538,
      "▁submit": 6539,
      "▁costa": 6540,
      "▁isolation": 6541,
      "▁cue": 6542,
      "▁engagement": 6543,
      "▁safeguarding": 6544,
      "▁monitoring": 6545,
      "hus": 6546,
      "rations": 6547,
      "phone": 6548,
      "▁display": 6549,
      "irable": 6550,
      "▁lucky": 6551,
      "eff": 6552,
      "mans": 6553,
      "soever": 6554,
      "▁recognizing": 6555,
      "▁wealthy": 6556,
      "▁auton": 6557,
      "▁inevitably": 6558,
      "▁connexion": 6559,
      "lan": 6560,
      "▁grounds": 6561,
      "works": 6562,
      "▁commem": 6563,
      "▁below": 6564,
      "▁constraint": 6565,
      "▁waters": 6566,
      "▁shooting": 6567,
      "▁cops": 6568,
      "▁nash": 6569,
      "▁uses": 6570,
      "▁names": 6571,
      "▁interf": 6572,
      "▁lofty": 6573,
      "▁listeners": 6574,
      "see": 6575,
      "▁preserving": 6576,
      "▁offering": 6577,
      "▁transnational": 6578,
      "▁applaud": 6579,
      "▁navig": 6580,
      "▁conformity": 6581,
      "any": 6582,
      "▁identified": 6583,
      "olonial": 6584,
      "▁organisation": 6585,
      "▁micro": 6586,
      "port": 6587,
      "wood": 6588,
      "▁sees": 6589,
      "▁expense": 6590,
      "▁guns": 6591,
      "omic": 6592,
      "▁funding": 6593,
      "▁emphasized": 6594,
      "▁mistakes": 6595,
      "▁teen": 6596,
      "lete": 6597,
      "▁massac": 6598,
      "▁helpful": 6599,
      "▁tested": 6600,
      "▁english": 6601,
      "▁expanded": 6602,
      "▁netherlands": 6603,
      "▁unh": 6604,
      "▁economically": 6605,
      "▁trained": 6606,
      "▁conclusions": 6607,
      "▁accession": 6608,
      "▁published": 6609,
      "▁hemis": 6610,
      "▁whatsoever": 6611,
      "▁canadians": 6612,
      "▁oceans": 6613,
      "▁manifestations": 6614,
      "▁alarming": 6615,
      "▁bruins": 6616,
      "▁gab": 6617,
      "▁enlar": 6618,
      "▁passing": 6619,
      "▁immig": 6620,
      "▁incredibly": 6621,
      "▁infect": 6622,
      "▁restaurant": 6623,
      "gm": 6624,
      "rich": 6625,
      "▁tree": 6626,
      "▁invite": 6627,
      "▁famine": 6628,
      "▁friday": 6629,
      "▁rely": 6630,
      "▁accompanied": 6631,
      "▁zambia": 6632,
      "okes": 6633,
      "quest": 6634,
      "▁mold": 6635,
      "▁nuts": 6636,
      "▁les": 6637,
      "▁gained": 6638,
      "▁wave": 6639,
      "▁depth": 6640,
      "▁assumption": 6641,
      "▁refugee": 6642,
      "▁yours": 6643,
      "▁accords": 6644,
      "▁competitive": 6645,
      "▁ignored": 6646,
      "▁restoring": 6647,
      "▁continuous": 6648,
      "▁artific": 6649,
      "▁reiterates": 6650,
      "▁subsid": 6651,
      "▁wins": 6652,
      "▁hab": 6653,
      "▁exclud": 6654,
      "▁treated": 6655,
      "inct": 6656,
      "▁piss": 6657,
      "▁reven": 6658,
      "▁justified": 6659,
      "▁devot": 6660,
      "▁picked": 6661,
      "▁woke": 6662,
      "▁pin": 6663,
      "▁desired": 6664,
      "▁successes": 6665,
      "▁circle": 6666,
      "aded": 6667,
      "▁hotbed": 6668,
      "▁woods": 6669,
      "▁coalition": 6670,
      "▁tanz": 6671,
      "▁tiny": 6672,
      "▁unders": 6673,
      "▁loud": 6674,
      "▁technologies": 6675,
      "▁tendency": 6676,
      "iam": 6677,
      "▁settled": 6678,
      "▁accountability": 6679,
      "▁despair": 6680,
      "▁complexity": 6681,
      "▁soldiers": 6682,
      "▁subregion": 6683,
      "hor": 6684,
      "▁libyan": 6685,
      "▁collaboration": 6686,
      "▁amp": 6687,
      "▁eman": 6688,
      "▁argu": 6689,
      "▁expanding": 6690,
      "▁leafs": 6691,
      "fin": 6692,
      "▁gig": 6693,
      "▁reliable": 6694,
      "▁facilities": 6695,
      "▁superi": 6696,
      "▁naz": 6697,
      "▁indiff": 6698,
      "▁endorse": 6699,
      "▁mainly": 6700,
      "▁protectionism": 6701,
      "▁observed": 6702,
      "▁familiar": 6703,
      "▁introduced": 6704,
      "▁uncertainty": 6705,
      "▁impunity": 6706,
      "▁latter": 6707,
      "▁jews": 6708,
      "▁nepal": 6709,
      "▁realizing": 6710,
      "▁persistence": 6711,
      "permanent": 6712,
      "▁condemns": 6713,
      "▁swapo": 6714,
      "▁repression": 6715,
      "acing": 6716,
      "▁paraguay": 6717,
      "vance": 6718,
      "▁lic": 6719,
      "▁station": 6720,
      "▁mindset": 6721,
      "▁neighbors": 6722,
      "▁labor": 6723,
      "iciently": 6724,
      "▁nashville": 6725,
      "que": 6726,
      "▁physically": 6727,
      "▁saudi": 6728,
      "▁dj": 6729,
      "▁adopting": 6730,
      "▁pictures": 6731,
      "▁irrevers": 6732,
      "▁promising": 6733,
      "▁schem": 6734,
      "heim": 6735,
      "▁ministerial": 6736,
      "▁debates": 6737,
      "▁referring": 6738,
      "▁sixt": 6739,
      "▁screw": 6740,
      "▁heavily": 6741,
      "▁interdependent": 6742,
      "▁bure": 6743,
      "orters": 6744,
      "▁modest": 6745,
      "check": 6746,
      "alignment": 6747,
      "▁nose": 6748,
      "▁comply": 6749,
      "agen": 6750,
      "▁sales": 6751,
      "▁armen": 6752,
      "▁sympt": 6753,
      "▁adherence": 6754,
      "grade": 6755,
      "law": 6756,
      "produ": 6757,
      "▁boss": 6758,
      "▁ride": 6759,
      "▁planned": 6760,
      "▁religions": 6761,
      "thy": 6762,
      "▁prosec": 6763,
      "▁diverse": 6764,
      "ilty": 6765,
      "▁houses": 6766,
      "▁dogs": 6767,
      "▁incomp": 6768,
      "▁granted": 6769,
      "▁pollution": 6770,
      "ortions": 6771,
      "▁cruel": 6772,
      "▁rural": 6773,
      "▁slowly": 6774,
      "▁discipline": 6775,
      "▁bureau": 6776,
      "▁tied": 6777,
      "▁ofthe": 6778,
      "minate": 6779,
      "▁enthus": 6780,
      "oster": 6781,
      "▁completed": 6782,
      "▁beauty": 6783,
      "▁prisoners": 6784,
      "integ": 6785,
      "▁relevance": 6786,
      "▁borrow": 6787,
      "▁labour": 6788,
      "▁sponsors": 6789,
      "atorial": 6790,
      "▁virtue": 6791,
      "▁bulgar": 6792,
      "▁arsenals": 6793,
      "▁enthusi": 6794,
      "▁suddenly": 6795,
      "▁bell": 6796,
      "▁steal": 6797,
      "▁bucks": 6798,
      "anta": 6799,
      "▁trin": 6800,
      "▁attached": 6801,
      "▁executive": 6802,
      "▁enforcement": 6803,
      "anes": 6804,
      "establish": 6805,
      "▁voices": 6806,
      "▁newly": 6807,
      "▁fortieth": 6808,
      "▁accomplished": 6809,
      "▁regain": 6810,
      "▁signal": 6811,
      "▁citizen": 6812,
      "▁reinfor": 6813,
      "▁controvers": 6814,
      "▁expressing": 6815,
      "▁vegas": 6816,
      "▁substantive": 6817,
      "▁preparation": 6818,
      "ige": 6819,
      "▁fired": 6820,
      "uled": 6821,
      "▁observe": 6822,
      "▁hyd": 6823,
      "▁disrupt": 6824,
      "▁hadn": 6825,
      "▁unequiv": 6826,
      "▁satisfactory": 6827,
      "▁meanwhile": 6828,
      "gged": 6829,
      "▁speakers": 6830,
      "olic": 6831,
      "▁proven": 6832,
      "▁dropped": 6833,
      "▁canal": 6834,
      "▁nowhere": 6835,
      "▁audio": 6836,
      "▁courageous": 6837,
      "▁ba": 6838,
      "look": 6839,
      "▁vulnerability": 6840,
      "▁laying": 6841,
      "▁albania": 6842,
      "▁bulgaria": 6843,
      "estyle": 6844,
      "▁whoever": 6845,
      "▁beliefs": 6846,
      "▁motivated": 6847,
      "▁wors": 6848,
      "▁swift": 6849,
      "▁tyran": 6850,
      "▁ot": 6851,
      "▁offices": 6852,
      "▁chief": 6853,
      "▁abol": 6854,
      "▁resume": 6855,
      "▁bird": 6856,
      "▁peacebuilding": 6857,
      "▁propose": 6858,
      "▁neo": 6859,
      "▁perception": 6860,
      "▁letting": 6861,
      "▁virtually": 6862,
      "▁accommod": 6863,
      "▁william": 6864,
      "▁continents": 6865,
      "▁busy": 6866,
      "▁granting": 6867,
      "▁kidding": 6868,
      "▁generate": 6869,
      "▁preparing": 6870,
      "verted": 6871,
      "▁speedy": 6872,
      "70s": 6873,
      "▁analy": 6874,
      "▁chronic": 6875,
      "▁tanzania": 6876,
      "▁lux": 6877,
      "▁vaccine": 6878,
      "▁electoral": 6879,
      "▁praise": 6880,
      "▁motherfucker": 6881,
      "▁abst": 6882,
      "licit": 6883,
      "▁awa": 6884,
      "▁regrettable": 6885,
      "▁hunting": 6886,
      "▁finger": 6887,
      "▁thorough": 6888,
      "▁quiet": 6889,
      "▁pause": 6890,
      "▁lean": 6891,
      "▁hook": 6892,
      "▁cul": 6893,
      "ables": 6894,
      "▁dispar": 6895,
      "▁weakness": 6896,
      "▁fulfilment": 6897,
      "▁bearing": 6898,
      "▁jul": 6899,
      "▁neck": 6900,
      "hole": 6901,
      "▁enterprise": 6902,
      "▁mirror": 6903,
      "china": 6904,
      "adequ": 6905,
      "aka": 6906,
      "▁launching": 6907,
      "▁obstacle": 6908,
      "▁consumption": 6909,
      "▁ari": 6910,
      "▁cheap": 6911,
      "▁governing": 6912,
      "▁gradually": 6913,
      "▁logical": 6914,
      "▁vehicle": 6915,
      "▁rica": 6916,
      "ifies": 6917,
      "▁minorities": 6918,
      "▁explore": 6919,
      "▁fairly": 6920,
      "▁opinions": 6921,
      "▁guiding": 6922,
      "▁prejud": 6923,
      "▁throwing": 6924,
      "ca": 6925,
      "ont": 6926,
      "arious": 6927,
      "▁vag": 6928,
      "▁abund": 6929,
      "▁denial": 6930,
      "▁uncomfort": 6931,
      "▁currency": 6932,
      "▁coinc": 6933,
      "▁ring": 6934,
      "▁guilty": 6935,
      "▁sets": 6936,
      "imately": 6937,
      "american": 6938,
      "ighted": 6939,
      "▁producing": 6940,
      "▁inhuman": 6941,
      "▁embodied": 6942,
      "▁intergovernmental": 6943,
      "▁enlight": 6944,
      "▁discovered": 6945,
      "▁bears": 6946,
      "▁butt": 6947,
      "▁bright": 6948,
      "▁river": 6949,
      "ifts": 6950,
      "▁climb": 6951,
      "▁refrain": 6952,
      "▁intensify": 6953,
      "▁marner": 6954,
      "▁provin": 6955,
      "▁brotherly": 6956,
      "▁innovative": 6957,
      "esis": 6958,
      "▁romania": 6959,
      "▁escape": 6960,
      "dam": 6961,
      "▁inadequ": 6962,
      "▁stal": 6963,
      "▁legally": 6964,
      "▁surprise": 6965,
      "▁joins": 6966,
      "▁drawing": 6967,
      "▁enabling": 6968,
      "nam": 6969,
      "▁educational": 6970,
      "▁uncomfortable": 6971,
      "ona": 6972,
      "ancy": 6973,
      "▁carl": 6974,
      "▁carefully": 6975,
      "▁algeria": 6976,
      "rass": 6977,
      "▁cher": 6978,
      "▁plag": 6979,
      "▁struck": 6980,
      "▁flying": 6981,
      "▁seats": 6982,
      "▁superv": 6983,
      "adora": 6984,
      "▁egg": 6985,
      "▁finds": 6986,
      "▁magnitude": 6987,
      "▁rehabilitation": 6988,
      "▁amazon": 6989,
      "▁arrive": 6990,
      "▁pig": 6991,
      "▁warmest": 6992,
      "▁imbalances": 6993,
      "itre": 6994,
      "ansig": 6995,
      "▁perse": 6996,
      "▁domain": 6997,
      "▁rub": 6998,
      "pro": 6999,
      "▁ship": 7000,
      "▁pocket": 7001,
      "▁surger": 7002,
      "▁frustration": 7003,
      "▁interim": 7004,
      "▁impressive": 7005,
      "▁violated": 7006,
      "▁driver": 7007,
      "▁britain": 7008,
      "▁intransig": 7009,
      "▁slavery": 7010,
      "rors": 7011,
      "▁lying": 7012,
      "▁unite": 7013,
      "alling": 7014,
      "▁paralle": 7015,
      "▁participants": 7016,
      "▁variety": 7017,
      "▁schedule": 7018,
      "iliation": 7019,
      "▁delivery": 7020,
      "▁claimed": 7021,
      "▁frequently": 7022,
      "idad": 7023,
      "▁button": 7024,
      "▁rain": 7025,
      "▁widely": 7026,
      "▁ham": 7027,
      "▁chances": 7028,
      "▁contadora": 7029,
      "▁divide": 7030,
      "▁cree": 7031,
      "zech": 7032,
      "▁rose": 7033,
      "▁lifestyle": 7034,
      "▁tunisia": 7035,
      "reshold": 7036,
      "▁overcoming": 7037,
      "▁tweet": 7038,
      "▁cuellar": 7039,
      "▁tony": 7040,
      "aran": 7041,
      "▁suic": 7042,
      "▁warming": 7043,
      "▁jeff": 7044,
      "▁spanish": 7045,
      "▁croatia": 7046,
      "eem": 7047,
      "▁recession": 7048,
      "▁poses": 7049,
      "colonial": 7050,
      "stone": 7051,
      "▁ven": 7052,
      "▁austria": 7053,
      "▁3": 7054,
      "▁threshold": 7055,
      "▁myth": 7056,
      "▁prest": 7057,
      "▁raising": 7058,
      "▁torture": 7059,
      "▁hits": 7060,
      "▁yell": 7061,
      "▁promoted": 7062,
      "▁burning": 7063,
      "▁operate": 7064,
      "▁czech": 7065,
      "▁pieces": 7066,
      "▁surprised": 7067,
      "▁exclus": 7068,
      "▁definitive": 7069,
      "▁prolong": 7070,
      "▁consultation": 7071,
      "▁regrettably": 7072,
      "▁ought": 7073,
      "ili": 7074,
      "▁civilized": 7075,
      "▁unfair": 7076,
      "▁entail": 7077,
      "▁promises": 7078,
      "fur": 7079,
      "▁involves": 7080,
      "▁kampuchean": 7081,
      "▁motivation": 7082,
      "▁embarrass": 7083,
      "▁pere": 7084,
      "▁merc": 7085,
      "▁abd": 7086,
      "▁exped": 7087,
      "owed": 7088,
      "▁vice": 7089,
      "▁endorsed": 7090,
      "orable": 7091,
      "raft": 7092,
      "▁eritre": 7093,
      "▁pressures": 7094,
      "▁hide": 7095,
      "▁genius": 7096,
      "▁mush": 7097,
      "▁visual": 7098,
      "enegal": 7099,
      "born": 7100,
      "▁buff": 7101,
      "▁childhood": 7102,
      "▁prevented": 7103,
      "▁deprived": 7104,
      "▁gathering": 7105,
      "commun": 7106,
      "▁urges": 7107,
      "▁unit": 7108,
      "gend": 7109,
      "▁marks": 7110,
      "▁blocs": 7111,
      "▁malays": 7112,
      "▁buddy": 7113,
      "▁hotel": 7114,
      "▁breathe": 7115,
      "▁coastal": 7116,
      "▁simultaneously": 7117,
      "▁seas": 7118,
      "▁mac": 7119,
      "▁warning": 7120,
      "▁emotions": 7121,
      "▁laughing": 7122,
      "▁alleviate": 7123,
      "▁tickets": 7124,
      "▁gym": 7125,
      "▁revers": 7126,
      "▁notwith": 7127,
      "▁locked": 7128,
      "▁inclusion": 7129,
      "▁roots": 7130,
      "▁attained": 7131,
      "▁systematic": 7132,
      "▁responses": 7133,
      "▁empty": 7134,
      "▁neighborhood": 7135,
      "▁senegal": 7136,
      "▁render": 7137,
      "▁household": 7138,
      "▁dance": 7139,
      "▁concess": 7140,
      "▁assault": 7141,
      "icted": 7142,
      "▁universally": 7143,
      "▁title": 7144,
      "▁notwithstanding": 7145,
      "stein": 7146,
      "through": 7147,
      "▁frustrated": 7148,
      "ales": 7149,
      "▁fac": 7150,
      "▁increases": 7151,
      "▁proclaimed": 7152,
      "anmar": 7153,
      "▁issued": 7154,
      "▁focusing": 7155,
      "▁observance": 7156,
      "▁tong": 7157,
      "▁attor": 7158,
      "▁phenomena": 7159,
      "▁barbar": 7160,
      "▁unanimously": 7161,
      "inal": 7162,
      "▁capability": 7163,
      "occup": 7164,
      "▁trinidad": 7165,
      "her": 7166,
      "liness": 7167,
      "lymp": 7168,
      "▁hamp": 7169,
      "▁irreversible": 7170,
      "▁stret": 7171,
      "▁scenario": 7172,
      "▁medicine": 7173,
      "▁vin": 7174,
      "▁struggles": 7175,
      "▁figures": 7176,
      "▁politicians": 7177,
      "▁ske": 7178,
      "▁olymp": 7179,
      "israel": 7180,
      "▁positively": 7181,
      "▁oppose": 7182,
      "▁falls": 7183,
      "flix": 7184,
      "can": 7185,
      "▁reass": 7186,
      "▁advances": 7187,
      "▁arabia": 7188,
      "▁netflix": 7189,
      "▁consolidating": 7190,
      "▁communications": 7191,
      "▁fallen": 7192,
      "orations": 7193,
      "lla": 7194,
      "asy": 7195,
      "▁bush": 7196,
      "▁communicate": 7197,
      "▁mauriti": 7198,
      "▁empower": 7199,
      "▁rivalry": 7200,
      "▁cart": 7201,
      "anian": 7202,
      "▁vent": 7203,
      "▁compens": 7204,
      "▁refusal": 7205,
      "▁operational": 7206,
      "▁colleagues": 7207,
      "▁tenth": 7208,
      "▁eve": 7209,
      "▁myanmar": 7210,
      "▁persu": 7211,
      "▁arguments": 7212,
      "▁cuban": 7213,
      "developed": 7214,
      "racies": 7215,
      "▁doctors": 7216,
      "▁anyways": 7217,
      "▁satur": 7218,
      "▁intimid": 7219,
      "die": 7220,
      "xy": 7221,
      "▁confused": 7222,
      "itty": 7223,
      "▁talent": 7224,
      "▁finances": 7225,
      "▁profit": 7226,
      "▁camps": 7227,
      "▁optimistic": 7228,
      "jik": 7229,
      "oto": 7230,
      "▁marine": 7231,
      "▁smoke": 7232,
      "▁ele": 7233,
      "▁detri": 7234,
      "▁openness": 7235,
      "▁generated": 7236,
      "▁declarations": 7237,
      "▁staying": 7238,
      "▁digital": 7239,
      "▁envisaged": 7240,
      "athers": 7241,
      "▁anticip": 7242,
      "▁cyn": 7243,
      "▁divid": 7244,
      "▁resent": 7245,
      "▁dawn": 7246,
      "▁terrifying": 7247,
      "▁mauritius": 7248,
      "atri": 7249,
      "aria": 7250,
      "▁stagn": 7251,
      "▁ash": 7252,
      "▁atomic": 7253,
      "▁studio": 7254,
      "▁criticism": 7255,
      "▁sweden": 7256,
      "▁defeat": 7257,
      "▁constraints": 7258,
      "osh": 7259,
      "▁attitudes": 7260,
      "▁epid": 7261,
      "▁reinforce": 7262,
      "▁marit": 7263,
      "▁birthday": 7264,
      "▁exempl": 7265,
      "▁plants": 7266,
      "▁mobilize": 7267,
      "▁mcd": 7268,
      "▁explosive": 7269,
      "▁owing": 7270,
      "▁tobago": 7271,
      "▁pounds": 7272,
      "▁fost": 7273,
      "▁panel": 7274,
      "▁filled": 7275,
      "bl": 7276,
      "▁abide": 7277,
      "▁preside": 7278,
      "▁midst": 7279,
      "▁replaced": 7280,
      "▁voluntary": 7281,
      "▁intolerance": 7282,
      "rown": 7283,
      "terror": 7284,
      "▁atroc": 7285,
      "▁unlike": 7286,
      "▁exceed": 7287,
      "▁closing": 7288,
      "▁presidential": 7289,
      "▁wedding": 7290,
      "gust": 7291,
      "▁operating": 7292,
      "awi": 7293,
      "▁ecological": 7294,
      "▁models": 7295,
      "▁adults": 7296,
      "ussions": 7297,
      "hearted": 7298,
      "▁totalitarian": 7299,
      "▁partnerships": 7300,
      "▁paradox": 7301,
      "▁stan": 7302,
      "▁vii": 7303,
      "▁pragm": 7304,
      "ingly": 7305,
      "▁applies": 7306,
      "▁beset": 7307,
      "ker": 7308,
      "▁fro": 7309,
      "▁pregn": 7310,
      "▁presided": 7311,
      "▁experiment": 7312,
      "▁manifestation": 7313,
      "▁jesse": 7314,
      "▁guidelines": 7315,
      "▁dear": 7316,
      "▁expresses": 7317,
      "lessly": 7318,
      "▁occupy": 7319,
      "▁dispos": 7320,
      "▁panthers": 7321,
      "▁habits": 7322,
      "▁strang": 7323,
      "ifications": 7324,
      "▁existed": 7325,
      "▁fears": 7326,
      "▁latvia": 7327,
      "▁declare": 7328,
      "▁credible": 7329,
      "▁deadly": 7330,
      "sr": 7331,
      "stream": 7332,
      "▁jama": 7333,
      "def": 7334,
      "▁invited": 7335,
      "▁prize": 7336,
      "▁privacy": 7337,
      "▁intensified": 7338,
      "▁darfur": 7339,
      "▁gent": 7340,
      "licting": 7341,
      "▁convene": 7342,
      "▁edge": 7343,
      "▁stocks": 7344,
      "▁site": 7345,
      "ested": 7346,
      "▁redou": 7347,
      "▁lifting": 7348,
      "▁accelerate": 7349,
      "▁incorp": 7350,
      "▁cope": 7351,
      "▁andy": 7352,
      "▁regarded": 7353,
      "▁devote": 7354,
      "▁sky": 7355,
      "▁cognitive": 7356,
      "care": 7357,
      "ses": 7358,
      "▁rebuild": 7359,
      "ctive": 7360,
      "▁keen": 7361,
      "▁unbelievable": 7362,
      "▁hotbeds": 7363,
      "▁exclusively": 7364,
      "ooth": 7365,
      "itz": 7366,
      "▁beach": 7367,
      "▁imposition": 7368,
      "ptions": 7369,
      "▁wald": 7370,
      "▁teachers": 7371,
      "▁tajik": 7372,
      "▁extending": 7373,
      "▁fulfilling": 7374,
      "▁reput": 7375,
      "▁patience": 7376,
      "▁stabilization": 7377,
      "▁entreprene": 7378,
      "▁mushroom": 7379,
      "orious": 7380,
      "ading": 7381,
      "▁formal": 7382,
      "▁facebook": 7383,
      "▁investigation": 7384,
      "▁forgotten": 7385,
      "▁differently": 7386,
      "▁merit": 7387,
      "▁horm": 7388,
      "▁shout": 7389,
      "ologists": 7390,
      "imony": 7391,
      "▁reperc": 7392,
      "▁relation": 7393,
      "▁scheduled": 7394,
      "▁consumer": 7395,
      "▁pulling": 7396,
      "▁translate": 7397,
      "▁legs": 7398,
      "▁1980s": 7399,
      "▁malaysia": 7400,
      "▁organize": 7401,
      "▁suppose": 7402,
      "▁perez": 7403,
      "isible": 7404,
      "rove": 7405,
      "▁shadow": 7406,
      "▁disgust": 7407,
      "irect": 7408,
      "▁obama": 7409,
      "▁balkans": 7410,
      "▁desperate": 7411,
      "▁jon": 7412,
      "▁crap": 7413,
      "▁arabs": 7414,
      "▁officers": 7415,
      "ilit": 7416,
      "▁justification": 7417,
      "▁upd": 7418,
      "oh": 7419,
      "sink": 7420,
      "▁defensive": 7421,
      "racted": 7422,
      "▁aspiration": 7423,
      "▁exchang": 7424,
      "▁dictators": 7425,
      "▁location": 7426,
      "field": 7427,
      "▁wire": 7428,
      "▁chrissy": 7429,
      "▁cutting": 7430,
      "▁fishing": 7431,
      "▁fulfilled": 7432,
      "▁steady": 7433,
      "▁coordinated": 7434,
      "▁ax": 7435,
      "▁cord": 7436,
      "▁leaps": 7437,
      "shed": 7438,
      "▁aspire": 7439,
      "▁bible": 7440,
      "▁stars": 7441,
      "ela": 7442,
      "agg": 7443,
      "▁bread": 7444,
      "▁harsh": 7445,
      "▁lit": 7446,
      "▁remote": 7447,
      "▁liberalization": 7448,
      "manship": 7449,
      "▁justin": 7450,
      "▁defiance": 7451,
      "▁limitations": 7452,
      "▁lucia": 7453,
      "▁propaganda": 7454,
      "▁maritime": 7455,
      "zen": 7456,
      "▁democracies": 7457,
      "▁helsink": 7458,
      "▁accountable": 7459,
      "▁combination": 7460,
      "board": 7461,
      "▁hungry": 7462,
      "▁enemies": 7463,
      "▁divorce": 7464,
      "▁hemisphere": 7465,
      "▁repercussions": 7466,
      "▁waged": 7467,
      "▁rebel": 7468,
      "▁invested": 7469,
      "▁ignorance": 7470,
      "▁helsinki": 7471,
      "▁plenty": 7472,
      "▁simpl": 7473,
      "▁ratification": 7474,
      "▁restrictions": 7475,
      "▁hierarchy": 7476,
      "hand": 7477,
      "advant": 7478,
      "aret": 7479,
      "▁capita": 7480,
      "neighb": 7481,
      "▁officials": 7482,
      "▁hust": 7483,
      "▁imagination": 7484,
      "▁waldheim": 7485,
      "▁cath": 7486,
      "rific": 7487,
      "rators": 7488,
      "▁respects": 7489,
      "▁grass": 7490,
      "▁demanding": 7491,
      "▁hegemony": 7492,
      "▁award": 7493,
      "enh": 7494,
      "eline": 7495,
      "▁pref": 7496,
      "▁psychology": 7497,
      "omet": 7498,
      "conf": 7499,
      "ratic": 7500,
      "▁reported": 7501,
      "▁enjoying": 7502,
      "▁bloodshed": 7503,
      "▁introduction": 7504,
      "▁producers": 7505,
      "▁balls": 7506,
      "▁unresolved": 7507,
      "▁alloc": 7508,
      "▁intends": 7509,
      "▁impart": 7510,
      "▁instinct": 7511,
      "▁alike": 7512,
      "eenth": 7513,
      "erally": 7514,
      "▁shipping": 7515,
      "▁alia": 7516,
      "▁aligned": 7517,
      "▁manager": 7518,
      "▁boat": 7519,
      "▁drunk": 7520,
      "▁introduce": 7521,
      "▁isolated": 7522,
      "▁enrich": 7523,
      "▁parallel": 7524,
      "▁hea": 7525,
      "omed": 7526,
      "ivered": 7527,
      "▁goodness": 7528,
      "▁deepest": 7529,
      "▁orient": 7530,
      "respond": 7531,
      "▁partial": 7532,
      "▁insight": 7533,
      "▁technically": 7534,
      "▁studied": 7535,
      "▁losses": 7536,
      "▁bathroom": 7537,
      "▁uh": 7538,
      "▁diagn": 7539,
      "▁settling": 7540,
      "▁delivered": 7541,
      "▁pledges": 7542,
      "▁conspiracy": 7543,
      "reaching": 7544,
      "▁amend": 7545,
      "▁behaviour": 7546,
      "▁maurit": 7547,
      "▁artificial": 7548,
      "sa": 7549,
      "▁malawi": 7550,
      "▁legislative": 7551,
      "▁package": 7552,
      "erate": 7553,
      "irty": 7554,
      "▁contrast": 7555,
      "▁serves": 7556,
      "▁smooth": 7557,
      "▁calc": 7558,
      "▁guaranteeing": 7559,
      "rs": 7560,
      "▁vicious": 7561,
      "▁disadvant": 7562,
      "▁preoccup": 7563,
      "▁asshole": 7564,
      "▁discover": 7565,
      "▁briefly": 7566,
      "sp": 7567,
      "vard": 7568,
      "▁medi": 7569,
      "▁flexibility": 7570,
      "▁desertification": 7571,
      "oire": 7572,
      "amine": 7573,
      "▁privileged": 7574,
      "▁ghana": 7575,
      "▁embarked": 7576,
      "▁rome": 7577,
      "▁incent": 7578,
      "▁banks": 7579,
      "▁amounts": 7580,
      "▁defending": 7581,
      "▁corporations": 7582,
      "▁acknowledged": 7583,
      "▁unif": 7584,
      "▁row": 7585,
      "▁follows": 7586,
      "▁solely": 7587,
      "▁preparations": 7588,
      "▁marshall": 7589,
      "ado": 7590,
      "connect": 7591,
      "▁brown": 7592,
      "▁monday": 7593,
      "▁honoured": 7594,
      "▁hire": 7595,
      "▁ron": 7596,
      "▁recru": 7597,
      "▁syn": 7598,
      "▁crying": 7599,
      "▁maximum": 7600,
      "ded": 7601,
      "▁loving": 7602,
      "▁correspond": 7603,
      "▁arbitrary": 7604,
      "core": 7605,
      "▁weigh": 7606,
      "urd": 7607,
      "▁publicly": 7608,
      "▁depending": 7609,
      "▁categories": 7610,
      "▁gravity": 7611,
      "▁trick": 7612,
      "▁explicit": 7613,
      "▁cruz": 7614,
      "▁embrace": 7615,
      "test": 7616,
      "▁enjoys": 7617,
      "▁admir": 7618,
      "▁surprising": 7619,
      "▁flexible": 7620,
      "▁paramount": 7621,
      "▁carolina": 7622,
      "keting": 7623,
      "▁israelis": 7624,
      "▁para": 7625,
      "▁billions": 7626,
      "▁conver": 7627,
      "▁football": 7628,
      "ota": 7629,
      "▁fool": 7630,
      "▁congratulating": 7631,
      "▁killer": 7632,
      "▁ratified": 7633,
      "▁strictly": 7634,
      "itals": 7635,
      "▁kiss": 7636,
      "▁features": 7637,
      "▁irr": 7638,
      "▁champion": 7639,
      "▁doors": 7640,
      "▁incumb": 7641,
      "▁scri": 7642,
      "▁capt": 7643,
      "▁ambitions": 7644,
      "▁oilers": 7645,
      "▁lus": 7646,
      "itts": 7647,
      "▁shocked": 7648,
      "▁subregional": 7649,
      "mail": 7650,
      "rality": 7651,
      "su": 7652,
      "▁mm": 7653,
      "▁recourse": 7654,
      "▁normally": 7655,
      "▁preparatory": 7656,
      "olar": 7657,
      "▁belg": 7658,
      "▁burd": 7659,
      "▁shoes": 7660,
      "▁advantages": 7661,
      "▁prerequisite": 7662,
      "lor": 7663,
      "▁anc": 7664,
      "▁earnings": 7665,
      "▁corrupt": 7666,
      "▁philipp": 7667,
      "▁besides": 7668,
      "▁routine": 7669,
      "enhagen": 7670,
      "▁tip": 7671,
      "▁jokes": 7672,
      "▁paycheck": 7673,
      "▁frontiers": 7674,
      "▁renewable": 7675,
      "▁shelter": 7676,
      "▁chicken": 7677,
      "▁disposal": 7678,
      "person": 7679,
      "icial": 7680,
      "▁sponsored": 7681,
      "▁fortunate": 7682,
      "▁pil": 7683,
      "▁fert": 7684,
      "▁copenhagen": 7685,
      "▁accelerated": 7686,
      "▁pillars": 7687,
      "▁fabric": 7688,
      "cape": 7689,
      "▁cig": 7690,
      "erto": 7691,
      "▁hegemon": 7692,
      "ko": 7693,
      "▁presidents": 7694,
      "▁drag": 7695,
      "▁deaths": 7696,
      "▁concentrate": 7697,
      "uct": 7698,
      "vention": 7699,
      "this": 7700,
      "irates": 7701,
      "▁proportions": 7702,
      "▁hearts": 7703,
      "▁renewal": 7704,
      "▁expansionist": 7705,
      "▁intelligent": 7706,
      "▁jamaica": 7707,
      "rey": 7708,
      "etor": 7709,
      "▁deals": 7710,
      "▁eliminated": 7711,
      "▁gradual": 7712,
      "▁vitamin": 7713,
      "▁rooted": 7714,
      "▁salt": 7715,
      "▁dominican": 7716,
      "▁perpetrated": 7717,
      "▁streets": 7718,
      "▁incumbent": 7719,
      "▁wo": 7720,
      "aine": 7721,
      "▁somali": 7722,
      "▁milest": 7723,
      "cale": 7724,
      "▁mandatory": 7725,
      "▁ufc": 7726,
      "▁surgery": 7727,
      "▁attorney": 7728,
      "▁gor": 7729,
      "▁suit": 7730,
      "▁rightful": 7731,
      "▁universities": 7732,
      "▁patient": 7733,
      "▁taste": 7734,
      "ihil": 7735,
      "bul": 7736,
      "miss": 7737,
      "▁tran": 7738,
      "▁bedroom": 7739,
      "▁acquired": 7740,
      "▁indebtedness": 7741,
      "▁split": 7742,
      "ifiable": 7743,
      "▁steadfast": 7744,
      "▁arrested": 7745,
      "atible": 7746,
      "▁deem": 7747,
      "▁chic": 7748,
      "ilaterally": 7749,
      "▁horse": 7750,
      "israeli": 7751,
      "▁stone": 7752,
      "▁judgment": 7753,
      "▁budgeting": 7754,
      "▁safer": 7755,
      "▁finished": 7756,
      "▁messages": 7757,
      "▁accurate": 7758,
      "▁circles": 7759,
      "▁lusaka": 7760,
      "▁sau": 7761,
      "▁rend": 7762,
      "istically": 7763,
      "iel": 7764,
      "▁literature": 7765,
      "fare": 7766,
      "▁fox": 7767,
      "▁testimony": 7768,
      "▁lights": 7769,
      "▁strike": 7770,
      "▁checking": 7771,
      "▁walls": 7772,
      "▁rhetor": 7773,
      "▁ghost": 7774,
      "▁fred": 7775,
      "▁hav": 7776,
      "▁chill": 7777,
      "▁composition": 7778,
      "▁hitting": 7779,
      "▁inability": 7780,
      "▁strife": 7781,
      "▁capacities": 7782,
      "▁basket": 7783,
      "ivalent": 7784,
      "▁kicked": 7785,
      "▁paragraph": 7786,
      "▁spreading": 7787,
      "▁classic": 7788,
      "▁teeth": 7789,
      "no": 7790,
      "▁bot": 7791,
      "▁returned": 7792,
      "▁faithful": 7793,
      "▁adequately": 7794,
      "▁dirty": 7795,
      "lem": 7796,
      "eak": 7797,
      "▁managing": 7798,
      "▁explained": 7799,
      "▁motion": 7800,
      "▁exceptional": 7801,
      "▁hyper": 7802,
      "▁outrage": 7803,
      "▁disorder": 7804,
      "▁admiration": 7805,
      "scale": 7806,
      "▁advocated": 7807,
      "deserved": 7808,
      "felt": 7809,
      "▁nur": 7810,
      "▁resil": 7811,
      "▁spa": 7812,
      "▁arising": 7813,
      "▁viewed": 7814,
      "▁failures": 7815,
      "▁village": 7816,
      "▁idiot": 7817,
      "▁script": 7818,
      "▁upper": 7819,
      "▁stages": 7820,
      "▁degrees": 7821,
      "▁substance": 7822,
      "▁temporary": 7823,
      "berg": 7824,
      "▁chose": 7825,
      "▁discussing": 7826,
      "▁protectionist": 7827,
      "▁jersey": 7828,
      "▁troubled": 7829,
      "▁severely": 7830,
      "mi": 7831,
      "▁beer": 7832,
      "▁tap": 7833,
      "▁morality": 7834,
      "▁attempting": 7835,
      "▁federation": 7836,
      "▁adaptation": 7837,
      "▁tajikistan": 7838,
      "cles": 7839,
      "▁assets": 7840,
      "▁flames": 7841,
      "▁morbid": 7842,
      "▁explan": 7843,
      "tra": 7844,
      "▁ferv": 7845,
      "▁pron": 7846,
      "▁phr": 7847,
      "▁hosting": 7848,
      "▁refuse": 7849,
      "▁convince": 7850,
      "▁corporate": 7851,
      "▁academ": 7852,
      "▁louis": 7853,
      "▁prince": 7854,
      "▁satisfied": 7855,
      "▁recorded": 7856,
      "enary": 7857,
      "▁eighth": 7858,
      "cher": 7859,
      "amm": 7860,
      "▁restraint": 7861,
      "▁unfold": 7862,
      "▁inval": 7863,
      "compass": 7864,
      "▁responded": 7865,
      "▁pushed": 7866,
      "▁meantime": 7867,
      "▁saturday": 7868,
      "▁tat": 7869,
      "▁nick": 7870,
      "▁infin": 7871,
      "▁babies": 7872,
      "▁unden": 7873,
      "▁sentence": 7874,
      "▁drama": 7875,
      "▁categor": 7876,
      "▁martin": 7877,
      "▁eminent": 7878,
      "unci": 7879,
      "▁uph": 7880,
      "▁clip": 7881,
      "▁representing": 7882,
      "▁surface": 7883,
      "▁approximately": 7884,
      "▁anger": 7885,
      "▁comic": 7886,
      "▁hostile": 7887,
      "▁peter": 7888,
      "▁alleged": 7889,
      "▁component": 7890,
      "▁inex": 7891,
      "asp": 7892,
      "▁counsel": 7893,
      "▁healing": 7894,
      "▁lao": 7895,
      "▁generosity": 7896,
      "▁attacked": 7897,
      "▁arrived": 7898,
      "▁anth": 7899,
      "▁outbreak": 7900,
      "▁diplomat": 7901,
      "apsed": 7902,
      "▁sisters": 7903,
      "lder": 7904,
      "▁tariff": 7905,
      "▁jointly": 7906,
      "▁fruits": 7907,
      "have": 7908,
      "inking": 7909,
      "▁guilt": 7910,
      "▁neglect": 7911,
      "▁studying": 7912,
      "nding": 7913,
      "▁zo": 7914,
      "▁exploit": 7915,
      "▁ownership": 7916,
      "▁professor": 7917,
      "▁tranqu": 7918,
      "▁openly": 7919,
      "▁strip": 7920,
      "▁previously": 7921,
      "▁widening": 7922,
      "▁delicate": 7923,
      "fo": 7924,
      "▁nons": 7925,
      "▁buck": 7926,
      "▁subjects": 7927,
      "▁vigorously": 7928,
      "▁formation": 7929,
      "▁nights": 7930,
      "▁footing": 7931,
      "▁pupp": 7932,
      "▁smell": 7933,
      "▁lawyer": 7934,
      "60s": 7935,
      "cipe": 7936,
      "lets": 7937,
      "▁occupying": 7938,
      "▁exclusion": 7939,
      "▁pledged": 7940,
      "▁route": 7941,
      "▁expenditures": 7942,
      "▁reputation": 7943,
      "away": 7944,
      "lers": 7945,
      "▁tric": 7946,
      "▁cares": 7947,
      "▁bret": 7948,
      "▁dall": 7949,
      "▁formed": 7950,
      "vering": 7951,
      "▁jones": 7952,
      "▁unst": 7953,
      "▁agents": 7954,
      "▁atrocities": 7955,
      "▁abroad": 7956,
      "▁proportion": 7957,
      "▁photo": 7958,
      "isc": 7959,
      "idable": 7960,
      "▁dependence": 7961,
      "▁responding": 7962,
      "▁controlled": 7963,
      "▁npt": 7964,
      "▁lag": 7965,
      "▁spared": 7966,
      "▁metap": 7967,
      "▁statute": 7968,
      "▁associate": 7969,
      "▁expertise": 7970,
      "▁dil": 7971,
      "▁arise": 7972,
      "▁flat": 7973,
      "▁comoros": 7974,
      "▁chicago": 7975,
      "▁section": 7976,
      "▁poison": 7977,
      "▁promo": 7978,
      "▁heartfelt": 7979,
      "otes": 7980,
      "▁vigil": 7981,
      "arization": 7982,
      "▁ego": 7983,
      "▁kaz": 7984,
      "▁mode": 7985,
      "ounced": 7986,
      "▁madrid": 7987,
      "▁suggested": 7988,
      "fting": 7989,
      "▁dub": 7990,
      "▁dudes": 7991,
      "organ": 7992,
      "▁herself": 7993,
      "▁verification": 7994,
      "▁examine": 7995,
      "▁muslims": 7996,
      "lie": 7997,
      "nuclear": 7998,
      "▁lord": 7999,
      "▁flip": 8000,
      "▁freak": 8001,
      "py": 8002,
      "▁cb": 8003,
      "▁informed": 8004,
      "▁destroying": 8005,
      "monton": 8006,
      "▁observers": 8007,
      "▁sids": 8008,
      "▁documentary": 8009,
      "▁bahrain": 8010,
      "▁ordinary": 8011,
      "▁eritrea": 8012,
      "▁ital": 8013,
      "▁implies": 8014,
      "▁indiv": 8015,
      "▁esteem": 8016,
      "▁edmonton": 8017,
      "▁academic": 8018,
      "▁doctrine": 8019,
      "▁tyranny": 8020,
      "▁ain": 8021,
      "▁realm": 8022,
      "▁precarious": 8023,
      "▁symptoms": 8024,
      "gers": 8025,
      "han": 8026,
      "erable": 8027,
      "▁cape": 8028,
      "▁jane": 8029,
      "▁bye": 8030,
      "▁flour": 8031,
      "▁advancing": 8032,
      "▁foods": 8033,
      "▁malaria": 8034,
      "▁detailed": 8035,
      "fall": 8036,
      "▁kim": 8037,
      "▁wash": 8038,
      "osy": 8039,
      "▁regist": 8040,
      "▁substit": 8041,
      "▁imbalance": 8042,
      "▁architecture": 8043,
      "▁dallas": 8044,
      "▁holid": 8045,
      "▁comics": 8046,
      "▁relent": 8047,
      "▁refused": 8048,
      "▁republics": 8049,
      "tle": 8050,
      "▁puss": 8051,
      "ede": 8052,
      "▁web": 8053,
      "▁trail": 8054,
      "▁striking": 8055,
      "▁obsessed": 8056,
      "▁capitalist": 8057,
      "▁acquis": 8058,
      "cture": 8059,
      "▁welcoming": 8060,
      "▁acquire": 8061,
      "▁fixed": 8062,
      "host": 8063,
      "▁cute": 8064,
      "opath": 8065,
      "▁marketing": 8066,
      "▁distort": 8067,
      "▁neighboring": 8068,
      "▁mortality": 8069,
      "▁inspiration": 8070,
      "▁intransigence": 8071,
      "▁biz": 8072,
      "usive": 8073,
      "▁mano": 8074,
      "▁securing": 8075,
      "▁normalization": 8076,
      "▁thirt": 8077,
      "▁ceasefire": 8078,
      "▁silence": 8079,
      "▁sab": 8080,
      "▁ineff": 8081,
      "▁zaire": 8082,
      "▁hardship": 8083,
      "avier": 8084,
      "▁attractive": 8085,
      "▁nail": 8086,
      "▁encoun": 8087,
      "▁feature": 8088,
      "ended": 8089,
      "▁cloud": 8090,
      "▁expectation": 8091,
      "▁inequalities": 8092,
      "▁disappointment": 8093,
      "▁devotion": 8094,
      "▁dictatorship": 8095,
      "▁py": 8096,
      "▁outlined": 8097,
      "▁clar": 8098,
      "▁spec": 8099,
      "▁discoura": 8100,
      "▁difficulty": 8101,
      "▁capitalism": 8102,
      "▁iceland": 8103,
      "▁mary": 8104,
      "▁fer": 8105,
      "▁ray": 8106,
      "▁compete": 8107,
      "▁characteristics": 8108,
      "▁silent": 8109,
      "integration": 8110,
      "▁bay": 8111,
      "▁mcc": 8112,
      "▁myst": 8113,
      "▁protein": 8114,
      "▁profoundly": 8115,
      "asse": 8116,
      "iled": 8117,
      "▁unb": 8118,
      "▁rush": 8119,
      "▁relate": 8120,
      "▁engaging": 8121,
      "▁conceptual": 8122,
      "▁dominant": 8123,
      "▁cypriot": 8124,
      "vakia": 8125,
      "utor": 8126,
      "▁javier": 8127,
      "▁kurt": 8128,
      "▁conting": 8129,
      "oval": 8130,
      "▁undp": 8131,
      "▁irres": 8132,
      "▁deliberate": 8133,
      "▁fighter": 8134,
      "▁tens": 8135,
      "▁cens": 8136,
      "▁proceedings": 8137,
      "▁emotionally": 8138,
      "▁vacation": 8139,
      "▁seize": 8140,
      "▁sund": 8141,
      "▁donors": 8142,
      "▁rav": 8143,
      "rones": 8144,
      "▁absurd": 8145,
      "▁geopol": 8146,
      "▁suspic": 8147,
      "▁cos": 8148,
      "ori": 8149,
      "owned": 8150,
      "▁indefin": 8151,
      "▁brave": 8152,
      "▁subsequent": 8153,
      "▁na": 8154,
      "▁boost": 8155,
      "▁charged": 8156,
      "▁holly": 8157,
      "backs": 8158,
      "seys": 8159,
      "bers": 8160,
      "▁director": 8161,
      "▁prestige": 8162,
      "zing": 8163,
      "reb": 8164,
      "inational": 8165,
      "▁guyana": 8166,
      "▁elite": 8167,
      "▁swim": 8168,
      "▁breakthrough": 8169,
      "▁rental": 8170,
      "▁contains": 8171,
      "▁narcissistic": 8172,
      "▁armenia": 8173,
      "mind": 8174,
      "ss": 8175,
      "▁jac": 8176,
      "▁earned": 8177,
      "▁graduate": 8178,
      "▁um": 8179,
      "etime": 8180,
      "▁tries": 8181,
      "▁bern": 8182,
      "▁encompass": 8183,
      "▁correctly": 8184,
      "▁peterson": 8185,
      "▁dare": 8186,
      "▁equivalent": 8187,
      "▁mathem": 8188,
      "▁observer": 8189,
      "▁punishment": 8190,
      "▁cet": 8191,
      "tering": 8192,
      "▁adhere": 8193,
      "▁elementary": 8194,
      "▁suspect": 8195,
      "▁piz": 8196,
      "▁pants": 8197,
      "▁cells": 8198,
      "▁kash": 8199,
      "▁intensive": 8200,
      "▁salute": 8201,
      "▁artist": 8202,
      "▁illiter": 8203,
      "▁competent": 8204,
      "▁qualified": 8205,
      "but": 8206,
      "▁fathers": 8207,
      "raction": 8208,
      "▁majesty": 8209,
      "▁violate": 8210,
      "▁appreciated": 8211,
      "▁illness": 8212,
      "▁deployed": 8213,
      "▁nonsense": 8214,
      "▁creativity": 8215,
      "▁mood": 8216,
      "▁attracted": 8217,
      "▁compelling": 8218,
      "ulsion": 8219,
      "lag": 8220,
      "▁precond": 8221,
      "▁goalie": 8222,
      "ova": 8223,
      "▁transformed": 8224,
      "▁greenhouse": 8225,
      "▁revitalization": 8226,
      "▁cetera": 8227,
      "athan": 8228,
      "▁warfare": 8229,
      "▁equatorial": 8230,
      "inated": 8231,
      "▁pit": 8232,
      "▁blockade": 8233,
      "▁joseph": 8234,
      "▁pact": 8235,
      "▁recur": 8236,
      "▁persists": 8237,
      "▁strongest": 8238,
      "▁demonstrates": 8239,
      "▁utop": 8240,
      "bling": 8241,
      "▁breed": 8242,
      "rud": 8243,
      "▁realism": 8244,
      "▁finland": 8245,
      "▁ideologies": 8246,
      "▁mandela": 8247,
      "▁harmful": 8248,
      "▁bankrupt": 8249,
      "▁fisher": 8250,
      "nut": 8251,
      "▁unified": 8252,
      "▁coven": 8253,
      "▁rab": 8254,
      "▁robert": 8255,
      "▁muscle": 8256,
      "▁mandates": 8257,
      "▁gratified": 8258,
      "▁benin": 8259,
      "▁suicide": 8260,
      "▁doha": 8261,
      "▁resc": 8262,
      "loqu": 8263,
      "▁listened": 8264,
      "▁disastrous": 8265,
      "▁substantially": 8266,
      "▁1990s": 8267,
      "▁relaxation": 8268,
      "▁slightly": 8269,
      "aust": 8270,
      "bound": 8271,
      "chang": 8272,
      "▁emirates": 8273,
      "▁homeless": 8274,
      "▁sooner": 8275,
      "▁cambodian": 8276,
      "▁pregnant": 8277,
      "atar": 8278,
      "▁storm": 8279,
      "▁conven": 8280,
      "▁edit": 8281,
      "▁originally": 8282,
      "▁ryan": 8283,
      "▁ing": 8284,
      "▁gard": 8285,
      "▁mainstream": 8286,
      "▁socially": 8287,
      "▁crack": 8288,
      "▁receiving": 8289,
      "▁sleeping": 8290,
      "▁juncture": 8291,
      "▁purely": 8292,
      "owas": 8293,
      "istry": 8294,
      "▁roth": 8295,
      "comes": 8296,
      "▁redouble": 8297,
      "▁hen": 8298,
      "▁livel": 8299,
      "▁acted": 8300,
      "shaw": 8301,
      "▁reminded": 8302,
      "▁greetings": 8303,
      "roll": 8304,
      "▁republican": 8305,
      "▁seriousness": 8306,
      "▁harvard": 8307,
      "▁translated": 8308,
      "▁coherent": 8309,
      "arab": 8310,
      "▁echo": 8311,
      "▁indicate": 8312,
      "▁assass": 8313,
      "▁opens": 8314,
      "ircraft": 8315,
      "▁catastrophic": 8316,
      "▁compelled": 8317,
      "ihood": 8318,
      "rist": 8319,
      "▁aircraft": 8320,
      "arks": 8321,
      "keep": 8322,
      "▁unle": 8323,
      "▁underw": 8324,
      "▁crush": 8325,
      "▁empire": 8326,
      "▁disappointed": 8327,
      "terrorism": 8328,
      "▁livelihood": 8329,
      "▁multinational": 8330,
      "▁depressed": 8331,
      "▁topics": 8332,
      "▁gabon": 8333,
      "▁ped": 8334,
      "▁seg": 8335,
      "▁neutrality": 8336,
      "atu": 8337,
      "▁fitting": 8338,
      "▁lind": 8339,
      "▁loyal": 8340,
      "▁fraud": 8341,
      "▁absor": 8342,
      "▁horrific": 8343,
      "▁golden": 8344,
      "▁inspire": 8345,
      "▁importantly": 8346,
      "▁legality": 8347,
      "aysolutions": 8348,
      "▁cia": 8349,
      "▁lunch": 8350,
      "▁meal": 8351,
      "▁removal": 8352,
      "forms": 8353,
      "▁revealed": 8354,
      "▁actor": 8355,
      "▁periods": 8356,
      "▁ramsaysolutions": 8357,
      "▁autonomy": 8358,
      "▁tall": 8359,
      "▁ramp": 8360,
      "interest": 8361,
      "▁breach": 8362,
      "▁competing": 8363,
      "print": 8364,
      "▁ambition": 8365,
      "▁rehab": 8366,
      "▁senior": 8367,
      "▁electricity": 8368,
      "▁eloqu": 8369,
      "▁anytime": 8370,
      "active": 8371,
      "▁pointing": 8372,
      "▁transit": 8373,
      "▁pharm": 8374,
      "▁portion": 8375,
      "▁wheel": 8376,
      "▁acquisition": 8377,
      "mare": 8378,
      "▁thom": 8379,
      "▁imposing": 8380,
      "▁bitco": 8381,
      "▁tolerate": 8382,
      "▁engineering": 8383,
      "▁ivoire": 8384,
      "ml": 8385,
      "▁tow": 8386,
      "▁description": 8387,
      "▁mindful": 8388,
      "▁classes": 8389,
      "▁avoiding": 8390,
      "▁gathered": 8391,
      "▁dys": 8392,
      "unction": 8393,
      "▁helm": 8394,
      "▁clothes": 8395,
      "▁inadequate": 8396,
      "osystem": 8397,
      "▁pussy": 8398,
      "▁ht": 8399,
      "▁nu": 8400,
      "ghali": 8401,
      "ulas": 8402,
      "▁nobel": 8403,
      "▁indicated": 8404,
      "▁maintains": 8405,
      "▁deprivation": 8406,
      "▁screaming": 8407,
      "ti": 8408,
      "▁conn": 8409,
      "▁heat": 8410,
      "▁serbia": 8411,
      "▁cleans": 8412,
      "▁criminals": 8413,
      "▁belgium": 8414,
      "ford": 8415,
      "ware": 8416,
      "▁overth": 8417,
      "▁nightmare": 8418,
      "▁recommended": 8419,
      "conscious": 8420,
      "▁expenditure": 8421,
      "▁italian": 8422,
      "▁cs": 8423,
      "▁internally": 8424,
      "▁suppression": 8425,
      "▁tragedies": 8426,
      "▁seventy": 8427,
      "▁mobilization": 8428,
      "▁mauritania": 8429,
      "▁philippines": 8430,
      "▁tay": 8431,
      "▁mira": 8432,
      "▁weather": 8433,
      "rup": 8434,
      "▁install": 8435,
      "▁ecosystem": 8436,
      "▁frankly": 8437,
      "▁sons": 8438,
      "icism": 8439,
      "▁resur": 8440,
      "▁smoking": 8441,
      "▁ladies": 8442,
      "▁penn": 8443,
      "▁scored": 8444,
      "▁trusted": 8445,
      "▁ecowas": 8446,
      "▁celebrating": 8447,
      "respons": 8448,
      "uit": 8449,
      "▁cere": 8450,
      "▁josh": 8451,
      "▁outgoing": 8452,
      "▁verde": 8453,
      "▁poorer": 8454,
      "▁forefront": 8455,
      "▁completion": 8456,
      "▁psyched": 8457,
      "▁annexation": 8458,
      "▁impartial": 8459,
      "▁bitcoin": 8460,
      "▁lakes": 8461,
      "▁unrest": 8462,
      "▁shirt": 8463,
      "▁shitty": 8464,
      "▁lob": 8465,
      "▁ukrain": 8466,
      "▁inherited": 8467,
      "▁estimated": 8468,
      "bally": 8469,
      "▁dust": 8470,
      "▁eu": 8471,
      "▁jar": 8472,
      "▁intermedi": 8473,
      "loc": 8474,
      "▁fee": 8475,
      "▁gaining": 8476,
      "▁solemnly": 8477,
      "oles": 8478,
      "▁afterwards": 8479,
      "▁reformed": 8480,
      "▁networks": 8481,
      "▁tackling": 8482,
      "upp": 8483,
      "▁stack": 8484,
      "▁scand": 8485,
      "▁adding": 8486,
      "▁badly": 8487,
      "▁salary": 8488,
      "ographic": 8489,
      "▁coverage": 8490,
      "▁drove": 8491,
      "▁kil": 8492,
      "▁insuff": 8493,
      "▁sustainability": 8494,
      "▁energies": 8495,
      "▁volume": 8496,
      "▁sahel": 8497,
      "▁exemplary": 8498,
      "▁picking": 8499,
      "▁ups": 8500,
      "▁hardest": 8501,
      "▁femin": 8502,
      "▁belongs": 8503,
      "▁senti": 8504,
      "▁ly": 8505,
      "arre": 8506,
      "▁accepting": 8507,
      "▁defining": 8508,
      "▁typical": 8509,
      "dollar": 8510,
      "▁highlighted": 8511,
      "▁hypothet": 8512,
      "uatu": 8513,
      "win": 8514,
      "▁quo": 8515,
      "▁fullest": 8516,
      "▁practically": 8517,
      "▁supplies": 8518,
      "▁utter": 8519,
      "▁supportive": 8520,
      "▁estonia": 8521,
      "comings": 8522,
      "▁intolerable": 8523,
      "▁maced": 8524,
      "▁print": 8525,
      "▁conservation": 8526,
      "▁drast": 8527,
      "▁continental": 8528,
      "▁tribun": 8529,
      "▁deteriorating": 8530,
      "▁lifetime": 8531,
      "01": 8532,
      "lson": 8533,
      "▁cancel": 8534,
      "▁persec": 8535,
      "▁boo": 8536,
      "▁budgets": 8537,
      "▁covering": 8538,
      "▁destabilization": 8539,
      "▁tons": 8540,
      "▁shake": 8541,
      "oded": 8542,
      "▁appeared": 8543,
      "▁consent": 8544,
      "▁mines": 8545,
      "▁monthly": 8546,
      "▁norway": 8547,
      "▁opposing": 8548,
      "▁productivity": 8549,
      "▁vanuatu": 8550,
      "▁manufacture": 8551,
      "▁unbelievably": 8552,
      "▁worsening": 8553,
      "▁kazakh": 8554,
      "▁backward": 8555,
      "▁vigorous": 8556,
      "minatory": 8557,
      "▁democrats": 8558,
      "▁initially": 8559,
      "▁denmark": 8560,
      "neighbour": 8561,
      "▁aven": 8562,
      "▁respecting": 8563,
      "▁industries": 8564,
      "▁impacts": 8565,
      "▁quarters": 8566,
      "▁holoc": 8567,
      "▁sham": 8568,
      "▁improvements": 8569,
      "▁validity": 8570,
      "▁innovation": 8571,
      "itated": 8572,
      "leep": 8573,
      "▁analog": 8574,
      "▁coerc": 8575,
      "▁spin": 8576,
      "▁bran": 8577,
      "▁statistics": 8578,
      "▁dominated": 8579,
      "▁montreal": 8580,
      "▁appointment": 8581,
      "▁upheav": 8582,
      "hi": 8583,
      "▁silly": 8584,
      "aires": 8585,
      "▁toll": 8586,
      "▁nairo": 8587,
      "omach": 8588,
      "▁amongst": 8589,
      "▁lowest": 8590,
      "▁odd": 8591,
      "▁enlarge": 8592,
      "▁psychedel": 8593,
      "▁holocaust": 8594,
      "gl": 8595,
      "▁wine": 8596,
      "▁ate": 8597,
      "▁trigger": 8598,
      "▁bizarre": 8599,
      "▁nairobi": 8600,
      "pres": 8601,
      "tical": 8602,
      "▁lith": 8603,
      "elle": 8604,
      "▁presents": 8605,
      "▁entering": 8606,
      "▁condol": 8607,
      "▁trees": 8608,
      "▁hunter": 8609,
      "▁sacrific": 8610,
      "▁cooperative": 8611,
      "▁fratric": 8612,
      "▁daniel": 8613,
      "▁indication": 8614,
      "agers": 8615,
      "▁grade": 8616,
      "▁approval": 8617,
      "▁historically": 8618,
      "▁arrangement": 8619,
      "▁conservatives": 8620,
      "▁aggravated": 8621,
      "▁kazakhstan": 8622,
      "otics": 8623,
      "▁deeds": 8624,
      "▁underp": 8625,
      "▁protests": 8626,
      "▁berlin": 8627,
      "cap": 8628,
      "▁hast": 8629,
      "▁asy": 8630,
      "▁unification": 8631,
      "▁chart": 8632,
      "▁banning": 8633,
      "▁describing": 8634,
      "▁hollywood": 8635,
      "made": 8636,
      "▁tie": 8637,
      "respect": 8638,
      "▁greatness": 8639,
      "▁rocket": 8640,
      "▁enduring": 8641,
      "▁divisions": 8642,
      "▁favorable": 8643,
      "▁landscape": 8644,
      "▁mongolia": 8645,
      "▁supervision": 8646,
      "▁milestone": 8647,
      "▁invitation": 8648,
      "▁anno": 8649,
      "▁typically": 8650,
      "▁champions": 8651,
      "car": 8652,
      "▁ease": 8653,
      "▁resident": 8654,
      "▁assisting": 8655,
      "▁speaks": 8656,
      "▁drives": 8657,
      "▁horror": 8658,
      "▁bonds": 8659,
      "itian": 8660,
      "outs": 8661,
      "▁pays": 8662,
      "▁encourages": 8663,
      "valu": 8664,
      "▁taylor": 8665,
      "tery": 8666,
      "▁anch": 8667,
      "▁shr": 8668,
      "iances": 8669,
      "▁factions": 8670,
      "▁breaks": 8671,
      "pod": 8672,
      "tic": 8673,
      "aunt": 8674,
      "▁impl": 8675,
      "▁tape": 8676,
      "▁flaw": 8677,
      "▁swaz": 8678,
      "▁bact": 8679,
      "▁stomach": 8680,
      "▁scoring": 8681,
      "▁challenged": 8682,
      "▁trill": 8683,
      "▁mentally": 8684,
      "▁knocked": 8685,
      "▁spectrum": 8686,
      "▁horizon": 8687,
      "▁stagnation": 8688,
      "iro": 8689,
      "▁wrap": 8690,
      "▁reset": 8691,
      "▁marx": 8692,
      "aker": 8693,
      "▁centres": 8694,
      "▁celebration": 8695,
      "▁marty": 8696,
      "▁athletes": 8697,
      "▁institute": 8698,
      "▁songs": 8699,
      "▁evolutionary": 8700,
      "▁empowerment": 8701,
      "▁exchanges": 8702,
      "arus": 8703,
      "icom": 8704,
      "▁unre": 8705,
      "▁advers": 8706,
      "▁advert": 8707,
      "▁regulation": 8708,
      "▁virgin": 8709,
      "▁succeeding": 8710,
      "▁rhetoric": 8711,
      "▁thrown": 8712,
      "▁fel": 8713,
      "rocal": 8714,
      "▁outcomes": 8715,
      "▁subvers": 8716,
      "▁headed": 8717,
      "▁records": 8718,
      "▁spectac": 8719,
      "▁candidate": 8720,
      "▁excessive": 8721,
      "tw": 8722,
      "▁ted": 8723,
      "▁thro": 8724,
      "illed": 8725,
      "▁laos": 8726,
      "▁huh": 8727,
      "▁prevails": 8728,
      "▁intrins": 8729,
      "▁vincent": 8730,
      "▁geopolitical": 8731,
      "▁ruth": 8732,
      "▁arts": 8733,
      "▁goddam": 8734,
      "▁reforming": 8735,
      "▁failing": 8736,
      "▁articles": 8737,
      "▁suspend": 8738,
      "holm": 8739,
      "▁condolences": 8740,
      "eding": 8741,
      "▁elder": 8742,
      "▁rig": 8743,
      "▁precious": 8744,
      "▁distant": 8745,
      "▁requirement": 8746,
      "▁deadline": 8747,
      "▁memories": 8748,
      "▁perpetrators": 8749,
      "▁ranks": 8750,
      "▁customers": 8751,
      "euv": 8752,
      "▁automatically": 8753,
      "▁moldova": 8754,
      "▁bryan": 8755,
      "▁intent": 8756,
      "▁togo": 8757,
      "▁surin": 8758,
      "itsu": 8759,
      "▁miserable": 8760,
      "▁robin": 8761,
      "▁migrants": 8762,
      "▁cohes": 8763,
      "▁transportation": 8764,
      "▁comedian": 8765,
      "▁responsive": 8766,
      "▁smallest": 8767,
      "▁intensity": 8768,
      "▁html": 8769,
      "olan": 8770,
      "▁developmental": 8771,
      "▁statesman": 8772,
      "▁overt": 8773,
      "▁governed": 8774,
      "▁solar": 8775,
      "▁asset": 8776,
      "▁standpoint": 8777,
      "they": 8778,
      "▁antagon": 8779,
      "▁bottle": 8780,
      "▁bureauc": 8781,
      "▁fratricidal": 8782,
      "iri": 8783,
      "math": 8784,
      "▁evolved": 8785,
      "▁indirect": 8786,
      "▁visited": 8787,
      "▁tuvalu": 8788,
      "nutrition": 8789,
      "bles": 8790,
      "itution": 8791,
      "ashing": 8792,
      "weight": 8793,
      "▁entities": 8794,
      "▁winter": 8795,
      "▁ramseys": 8796,
      "atch": 8797,
      "▁nelson": 8798,
      "otho": 8799,
      "▁charity": 8800,
      "▁apolog": 8801,
      "worthy": 8802,
      "cile": 8803,
      "▁owner": 8804,
      "iland": 8805,
      "ami": 8806,
      "▁urban": 8807,
      "▁shortly": 8808,
      "▁alongside": 8809,
      "utable": 8810,
      "osure": 8811,
      "▁stopping": 8812,
      "▁camer": 8813,
      "▁suprem": 8814,
      "▁reveal": 8815,
      "▁manoeuv": 8816,
      "▁sunday": 8817,
      "▁sar": 8818,
      "▁dun": 8819,
      "▁seeds": 8820,
      "ila": 8821,
      "▁alert": 8822,
      "▁rot": 8823,
      "burg": 8824,
      "▁delicious": 8825,
      "▁catholic": 8826,
      "ato": 8827,
      "▁spr": 8828,
      "▁matched": 8829,
      "▁malnutrition": 8830,
      "▁choosing": 8831,
      "▁djib": 8832,
      "▁annoying": 8833,
      "human": 8834,
      "olese": 8835,
      "▁register": 8836,
      "ensible": 8837,
      "▁roles": 8838,
      "▁lacking": 8839,
      "▁1970s": 8840,
      "▁virtual": 8841,
      "▁facilitating": 8842,
      "▁devastation": 8843,
      "▁ninet": 8844,
      "▁burdens": 8845,
      "▁phrase": 8846,
      "▁mile": 8847,
      "▁gamb": 8848,
      "▁anach": 8849,
      "outi": 8850,
      "▁index": 8851,
      "▁confrontations": 8852,
      "▁judicial": 8853,
[...]
